3.133154117095372088e-02,2.307111327525121491e-02,2.388129001539604501e-02,1.754545891533174085e-02,-3.096777449077340455e-02,-4.409664177750791808e-02,3.200864250794480115e-04,3.287758507462171242e-02,-2.353603994142877687e-02,-3.844393040562285591e-02,6.021249685238663774e-03,-3.625172190612112322e-03,-8.669340734640193502e-04,2.128462424276064691e-02,6.022246328609384691e-03,3.483596992806761716e-02,3.546841363689280657e-02,-4.034155059734001458e-02,-1.564783248068642163e-02,2.123693037403988348e-02,4.535835384165236295e-02,-1.867178811158470841e-02,1.677239808137913346e-02,2.532776598605084029e-02,-4.765337978415711689e-02,2.059770134477563464e-02,2.156761536346338270e-02,-2.892631302088788381e-02,-1.790353269497364785e-02,-3.033296048104970957e-02,3.142121382327944801e-03,4.409210916718774020e-02,4.463063108843733084e-02,-2.057020820680167950e-02,5.283620410836763204e-03,2.166196238962272980e-02,3.762955048761885968e-02,-2.884437138026638842e-02,4.733767333167025748e-02,4.879060205727039912e-02,-2.693288823178775770e-02,-8.980558660777668289e-03,4.098755898526154628e-02,-5.954608718356439560e-03,1.971205276707777357e-02,-1.380411532880585108e-02,2.090013695119690915e-02,-1.509976108667925206e-02,-2.700265549970246731e-02,-1.742283927034828095e-03,-5.894579246974188114e-03,1.125027655398423698e-03,5.557673658276973683e-03,-7.269236377565060914e-03,-1.331854369874214961e-02,-2.239499052947666741e-02,3.590485124654579918e-02,-4.653981732560902307e-02,-4.725197980758952254e-02,-2.651321241548707658e-02,3.697526856320919320e-02,-4.431543112060479933e-02,4.207417397356282007e-02,-3.753973202719647351e-02,-6.652021200418203883e-03,-3.605349986505484300e-02,1.974485789543960201e-02,-1.540243669314274744e-03,-4.820534655145616854e-02,-1.529374063000806840e-02,2.569755979718750874e-02,2.162976210409818176e-02,4.011687118929375268e-02,5.580628092653817929e-02,-1.758620364583637907e-02,4.071118223128791791e-02,7.504635207524591213e-03,-3.275718763939818035e-02,1.692703633402347502e-02,4.487435273918671808e-02,-2.816158135302456941e-02,3.055368334627599214e-02,3.416007298462601927e-02,-2.035645232680474703e-03,3.257498192478421040e-02,-2.393849597749353464e-02,3.950823111056173120e-02,1.616411726045401120e-02,4.708267303016745731e-02,1.443045946558867143e-02,5.094616474773529247e-03,3.868279320172517827e-02,-2.741250426786144383e-03,6.035841168820071934e-02,5.946150431260641134e-02,5.843900775989167851e-02,6.981607789219014537e-02,3.907115765167384902e-02,4.647024023763695472e-02,8.364858836710259427e-02,5.864791766623557445e-02,-4.495527198076859632e-03,-7.673793868770730636e-03,-2.971624707128918408e-02,3.996783589951326959e-02,4.840442524548110165e-02,5.592722287527551045e-02,-2.859621407975717136e-02,3.582985956918612741e-02,-2.320184958211735093e-03,-4.424806216540643627e-02,-4.805983282138015511e-02,1.109624299881876303e-02,2.187778119771303931e-02,-3.825213401299969868e-02,-4.504432039133732246e-02,4.463457910274247487e-02,1.116233978692188038e-02,2.699770278947454666e-02,-4.541660684304980877e-02,-7.909482778738787228e-04,4.004604530479962538e-02,1.055498897684143365e-03,4.368722735350512310e-02,3.304337685612299125e-02,-4.196074558911837282e-02,5.449636330631477121e-02,2.860350395286074751e-02,-1.363609938180022733e-02,-3.670774513491777830e-02,-6.944678867862889848e-02,-1.980103038575315583e-02,1.105155526519933408e-02,5.849104271973329210e-03,1.333996797188856430e-03,-7.651993424598413363e-02,4.949573025936099269e-03,4.806142463772154760e-02,-5.238765422922023185e-03,1.452848120859676073e-02,4.864229896474857318e-02,1.308308565775838372e-02,-1.724694830021807762e-02,7.416562487270995929e-03,-1.120847272139972525e-02,-3.082019125128438591e-02,-7.501307191985637050e-03,5.802521941119394809e-03,-7.804231843066720617e-03,-2.960725225356640455e-03,5.491013880062105279e-02,1.036467559117109638e-01,1.095865061370626392e-01,8.065570298973989694e-02,6.951830126952204814e-03,1.496175005954225035e-01,9.074617537953760804e-02,6.529717353535385849e-02,5.428392458843124546e-02,7.131795984253316671e-03,-4.079375463160894028e-02,-6.232542542266303331e-02,-1.796986121332045522e-02,-7.169895897648335958e-02,-5.331259498717615813e-02,-4.414432459609460985e-02,-2.658411312554778781e-03,-3.554140715895302838e-02,-3.834359234725892573e-02,-4.046834797974460662e-02,-1.026379014611553814e-02,3.354263400543291973e-02,4.631252010503542765e-02,3.346075735704328192e-03,3.035868444772313324e-03,7.087715689298329513e-02,7.539780623877016807e-02,1.022680665343044665e-01,9.562091244330168938e-02,1.471125421532252231e-01,1.048904855966327210e-01,8.470946081207925138e-02,5.483692777672655866e-02,1.117604520246601313e-01,9.020208155813233541e-02,1.214586100147836689e-01,8.442653630489102556e-02,2.394240966300092283e-02,-4.922444370939552810e-02,-1.114220220795456434e-01,-1.374466103389363272e-02,2.753216678519510366e-02,1.753145879908284133e-02,8.706505120518622659e-03,4.638497917223857736e-02,2.487547609624449901e-02,-9.815909938604137387e-04,-5.942799581700020095e-03,-4.175599572445606866e-03,-1.827602547501326266e-02,-1.019363434594998917e-02,-4.437034754153963527e-03,1.049279844320254000e-02,9.591078155786893211e-02,8.229629208515458483e-02,8.927548431172918630e-02,9.427154075639375408e-02,1.576637805011839033e-01,1.107613671045491605e-01,1.059018303483153373e-01,9.706864236376634356e-03,3.558682429923563928e-02,5.741839663651728681e-02,-1.558416068802145026e-02,1.813158285265884526e-03,-6.413197089202436925e-03,-9.633011019298551303e-02,-8.846879181105382628e-03,-4.178639604356418347e-02,6.376380017793849275e-02,6.812466884325091288e-02,6.810610540182675254e-02,-1.509368259097860219e-03,-7.687758689978617908e-03,1.596236883259760653e-02,4.245906610535714332e-02,-4.983831954605610903e-03,-4.191775912379652747e-02,-9.662849361106628371e-03,8.097582383983205345e-03,4.288452493930134529e-02,5.400262247957001577e-02,2.397173014906426453e-02,1.249791421949474346e-01,7.661830636023922447e-02,1.025639885180856525e-01,1.003354778136272968e-01,6.812548313319602422e-02,-2.852911542470376940e-02,4.305400559383750284e-03,5.942666322732330364e-02,-3.335602303079149983e-02,-1.380892362695663967e-03,2.882175218999373165e-03,-3.874463864348884345e-02,2.587536737852308075e-02,1.125044977606866059e-01,1.171996808333440332e-01,8.590016784806543682e-02,3.741975212504727172e-02,-5.293713918687626210e-03,4.199689846053641235e-02,-4.545786387459132410e-02,-4.872630797427149330e-02,2.320551173178956109e-02,1.469270833793905918e-02,1.087780415764913640e-02,3.143668039597109776e-02,-1.512345473173905448e-03,5.619476888330601771e-03,5.438869423961918692e-02,5.399808179379570611e-02,1.242115909408079283e-01,6.707305870579512164e-02,1.555600537468928846e-01,5.419303716964767731e-02,1.608238911368837024e-02,-8.983388979296987042e-02,-3.573693725936544219e-02,-3.393496288303796821e-02,7.114592198901052711e-02,2.640451270788845423e-02,2.153325004506298490e-02,1.111158593352274682e-01,6.413954530885400407e-02,1.233072430049380885e-01,-2.172748059639983444e-03,4.177817354800440752e-02,8.450898747561488497e-04,4.589295844731544616e-02,1.921649382334564282e-02,-3.690498079699211509e-02,4.925013088293888480e-02,-3.711478981958672707e-02,2.023796324568604907e-02,-3.764041566924523213e-02,4.832305467863248077e-02,2.540005475174738139e-02,4.454687261827017936e-02,2.696307387971340341e-02,7.664966657220276258e-02,1.013796979171162072e-01,2.638030467931839346e-02,-2.156204667736986644e-02,-3.643445987975441058e-02,-1.358577278959069157e-01,-7.286800543768366667e-02,-4.505377142053990092e-02,3.411790440440723438e-02,4.365109731321414714e-03,4.254681325341649195e-02,1.032418232092970900e-01,2.351774595398962997e-02,2.023953354392404869e-02,3.639285017430165386e-02,2.417705961848557253e-02,-2.721065049827920204e-02,1.447284908787809139e-02,8.707885840855709991e-03,-9.972253760701751957e-03,2.872053027675000592e-03,-4.596304714374204597e-02,-4.656631766563718022e-02,-4.699145879451728514e-02,-4.235397183640871727e-02,2.375349197362215323e-02,-1.443811045006296485e-02,6.509376896580791605e-02,-1.731332439231401954e-02,2.723728029700723738e-02,3.575406007234962786e-03,4.494584889297091601e-02,2.176340014678945431e-02,-1.927306033223025183e-01,-1.120486715912897419e-01,2.498825671558034100e-03,6.907029868410483053e-02,2.795915996915776872e-02,2.994341108182484862e-02,7.520166627628910305e-02,3.302278941910913312e-02,6.680701249417685117e-02,-1.032706688627651678e-02,2.228035931475058282e-02,4.880884140734097904e-02,-2.677682269649772975e-02,2.625312721063086108e-02,-3.033106227263875423e-02,-3.110131855557607405e-02,4.129447330004656913e-02,-3.210269507500886771e-02,3.672517049310457249e-02,-1.259360194939527361e-02,-1.415634092723242095e-03,-1.439972035691002017e-02,1.837794825513855423e-02,2.149056895832590977e-02,-7.985169269728835536e-05,1.221544354450634501e-01,3.548189004240249328e-02,-9.291543288918412136e-02,-1.630075632541625186e-01,-1.780255221463866999e-01,6.727540790353543632e-02,1.176113346869437221e-01,5.840482200792162376e-02,5.383749272489714993e-02,5.848296217436614727e-04,2.942964357707123293e-02,4.197167584227449316e-02,5.525427364301917221e-02,-1.785556621665995367e-03,1.923690071486200762e-02,7.841338161996719638e-03,3.270132836742777049e-02,-3.588802276066837410e-02,3.803307096419926425e-03,3.503573063796529535e-03,2.392659361737524859e-04,-3.627360064093863162e-02,4.612488134754078040e-02,2.244603526905339375e-02,4.691102348415864681e-02,1.189199768590792211e-02,6.344070725231633345e-02,1.062023456839824437e-01,1.492062803547158367e-01,1.316531780195582535e-01,-9.193628557317384820e-02,-2.315950717425853678e-01,-9.068747023949333408e-02,6.212601802399066175e-02,6.106882698020073968e-02,1.152054167967571652e-01,3.763409708270362003e-02,4.706470944085867913e-02,7.539878412488906778e-02,3.337519801014075804e-02,4.449135597537626913e-02,5.191360264569742228e-02,4.315051966689381624e-02,-1.268564102581717229e-02,2.200318478194086824e-02,-2.442875908909625249e-02,1.123898556233491469e-02,-2.126050654751735630e-02,-2.892399228007853408e-03,-2.992450584294249760e-02,2.999887986635744672e-02,2.051682673652405892e-02,6.378360986939383970e-02,4.493537161663496704e-02,1.283950870438653989e-02,1.011223656575097885e-01,6.956784878598361310e-02,1.991561827125970519e-02,-1.068357920074581580e-01,-2.056608109593426881e-01,-3.697133654024092886e-02,9.920895905969422113e-02,9.836168496152097873e-02,7.350760320703352002e-02,8.904463363022326050e-02,1.841624118371661123e-02,8.213946350584780398e-02,4.371194362130308847e-02,-1.023826205003663600e-03,-1.350264943482672175e-02,3.642036503590033447e-02,-3.891448489695040897e-02,3.589409841346366536e-02,1.231966111183531443e-02,-3.958950428942575872e-02,4.750580478439032917e-02,2.105750919883640770e-02,-3.847564411655662875e-02,5.534602401370885411e-02,4.186465637916137600e-02,5.789569517294473888e-02,3.307588296056886840e-02,2.494391923882331372e-02,8.987576701804080026e-02,1.072930930441632347e-01,-5.844192844840270231e-04,-2.023874212535203554e-01,-1.333876775158235328e-01,1.516246378472247379e-02,1.614121206928864627e-01,1.453511513902745744e-01,7.711500770413834416e-02,1.432381492957322533e-01,5.429855663995892395e-02,6.846219656962004851e-02,3.786287482763369544e-02,5.586526063692304894e-02,4.832501030558985361e-02,2.478604354995386436e-02,-1.177891382920908184e-02,3.631821241010141366e-02,-4.715863634994783837e-02,4.394410013244230695e-02,4.171073944574945030e-04,1.818645233365425926e-02,-2.741913822410148652e-02,1.355479424855856110e-02,1.268948735434506647e-02,7.336611306826670842e-02,8.566278577120152449e-02,7.759405888941435514e-02,1.734268069781415844e-01,6.844259697615352744e-02,-2.451491960813604459e-02,-1.540632421897840387e-01,-1.627489611426113925e-01,7.825724070661302378e-03,1.230744713027713683e-01,1.203065329983109832e-01,1.385488371858319689e-01,1.239558990017580326e-01,6.466067381565195060e-02,6.295993194382397407e-02,-2.025895195177906949e-02,-5.861103611555033496e-03,2.341828454618017502e-02,-3.126094146385269279e-02,4.490955320270832718e-02,1.552855865125096768e-02,-4.200827177801333412e-02,1.255588052714820546e-02,3.990713242665496624e-02,4.831030774041371084e-04,-3.450807867278246621e-02,2.737865621472085342e-02,8.229003658822625633e-02,9.750203142170725534e-02,1.372391121847882367e-01,9.828329759670149934e-02,9.106449708791743147e-02,1.271171346675229463e-01,-1.900313357907068221e-02,-1.966110678263656153e-01,-1.531005413670438464e-01,1.001573609326984471e-01,1.880356605352514199e-01,1.725770351474132380e-01,7.669556565416869864e-02,4.843889763256863101e-02,2.297282233722414829e-02,1.028877829560728846e-01,1.984501218278172940e-02,-1.136430942631540611e-02,2.548608421453332426e-02,-3.244073176926126623e-03,-4.342263234890014756e-02,4.536705908508695262e-02,1.082750610521517054e-02,-4.798306290961741605e-02,-3.567522820038029202e-02,-3.056747167658752790e-02,1.466882590229627581e-02,6.911304942240326099e-02,9.166443338265765906e-02,7.186386499932886918e-02,9.545808612434243667e-02,1.550844568979514726e-01,6.564487585853850948e-02,9.380606221798518107e-02,8.865039840586287981e-03,-1.861831124733006881e-01,-7.429728019965728403e-02,7.023893561945461494e-02,1.179988974902332621e-01,4.959249455079621505e-02,9.345947910174455531e-02,9.614195801354884219e-02,7.159145954524168132e-02,1.354451916935817679e-01,5.557706901834610913e-02,6.338053251181771652e-02,-6.249962433369434488e-03,-1.574529511170746215e-02,-7.528222223455248441e-03,1.280713055188553717e-02,3.036690871582002627e-03,-4.396982845765691483e-02,4.700886668606996110e-02,-4.028440314058916172e-02,-3.515835734893780345e-02,-1.731392342532235562e-02,1.210821620124351156e-01,1.148759755443952563e-01,8.570760146785524891e-02,5.493870588324803461e-02,8.417501403283847439e-02,1.436759278550588104e-02,5.781417201909466036e-02,3.902921496226826291e-03,3.953045551849192207e-02,-2.665348504451443942e-04,6.965674057496071270e-02,1.324930918748029318e-01,1.114828438854371384e-01,5.509218287514851958e-02,9.925517537297205706e-02,1.162963136925083130e-01,1.745970344942424785e-02,2.219258862133601656e-02,5.753463680372166572e-02,-4.403406175379311754e-02,-4.876668320633494036e-02,-2.130454277247959688e-02,-1.919352027358739443e-02,3.224221530335859287e-02,-4.684109547353055431e-02,4.688547774887202868e-02,1.198638244331490590e-02,6.695793159201716971e-02,2.847254107540016926e-02,6.616806665606704552e-02,4.464758893489415015e-02,9.673395861976644139e-02,2.020090430015736294e-02,4.986644971845674568e-02,8.405696771193416073e-02,1.138340803972314880e-01,-1.462881573984046481e-02,5.371051507408942938e-02,1.180616818718270844e-01,5.432800921043384745e-02,9.136179468969080064e-02,7.936712497918621545e-02,6.569308713324206739e-02,5.377826106517324262e-02,5.407144325881668018e-02,1.309339007851098406e-02,-1.488486889848052164e-02,2.185441252309087661e-05,-1.270108478341327486e-02,2.968152749558042314e-03,2.913600663669908830e-02,3.937727926456517646e-02,-4.146160269250732944e-02,1.943981074393446792e-02,-4.319901508871863000e-02,6.074445495222511454e-02,6.391110987117297471e-02,2.935708788870493302e-02,4.459979638964559068e-02,-3.118772056467891338e-02,-1.510494990657403362e-04,-2.436352929766141470e-02,7.061347400330596213e-02,1.352092475970162466e-01,2.205458657639598405e-02,1.054635773378648916e-02,-1.512773945692531818e-02,7.390326626886151162e-02,5.913986547210314804e-02,1.219142884853475217e-01,1.000816176436778171e-01,8.294160632971667169e-02,-1.440525342613142162e-02,7.144057308994485045e-02,5.878040124174738201e-02,-6.238157097707038024e-03,3.782071279643285655e-02,2.470437138518585818e-02,2.383389874139341114e-02,7.003045672241928199e-03,4.734734789936605182e-02,-2.731209463506715368e-02,-2.587700754231301616e-03,5.136305453563236312e-02,-5.369225437499684783e-02,-3.698988015930636253e-02,-1.428096177482238681e-02,-7.412627322490757120e-02,1.464219830776210436e-02,6.303831310226770679e-02,6.159746992619935524e-02,7.411859978899041496e-03,2.771303924273168726e-02,-5.533529717912188950e-02,-5.937595629464875041e-02,1.646511782855928502e-02,2.488075733013592541e-02,4.155005045898417688e-03,3.203402706950277123e-02,5.702482050242210082e-02,-2.538073895609422106e-02,5.380598394695548792e-02,3.529160800714188639e-02,4.762381172269492674e-02,2.829422647510706004e-02,4.767508464336947527e-02,2.694734776697613188e-03,2.585081901199691445e-02,-4.559335088687000576e-02,4.274670333485121321e-02,6.036634279419814467e-03,-3.204060384073686985e-02,9.838985379575638027e-03,-4.022802316393309097e-02,-5.144927232237483244e-02,-9.838026233458089381e-03,5.711981882137018296e-02,6.828357915297787739e-02,6.859544537766237848e-02,7.938520228591458561e-02,8.211669629321817487e-02,-2.185905096855936258e-02,-6.945068860365576080e-02,-1.135182445351765324e-01,-4.036050092521439175e-02,1.567551313427591880e-02,2.232867852880480661e-02,3.107009416907096071e-03,3.628216929088994708e-02,-3.623430715728137574e-02,3.675459181904336403e-02,-2.931216348443047709e-02,-3.236752779818348469e-02,1.198797383077012529e-02,-3.385167799898482210e-02,-4.486469751162645153e-02,-3.395821539598679190e-02,3.325706662114819717e-02,-1.599037199107294915e-02,-1.071850254927378919e-02,1.174379429943761717e-02,1.595442645312844868e-02,-1.659168706974984905e-02,-5.486544002435134008e-03,7.126260892729888163e-02,9.678848922864823068e-02,7.336548183524622957e-02,8.018042186731451360e-02,5.576000090385900554e-02,3.143942925046391140e-02,4.370899890004083937e-02,-3.368206469122220909e-02,3.673087713446190200e-02,1.178386634831355383e-02,1.978058558234719808e-02,1.884713662529683613e-04,-3.199624585872795635e-02,1.777613641497000421e-02,1.789539529303886892e-02,-2.216377412079003836e-02,3.933167366734192927e-03,-2.408988494622430615e-02,1.361895207072225111e-02,-4.174677581504061818e-02,3.143029073183029043e-02,9.900932806269696282e-03,3.429675412507930676e-02,-8.701223863288799938e-04,3.278633067769089887e-02,5.057307398927872455e-02,1.281365294971576266e-02,1.893097577553342009e-03,1.401089773787932667e-02,5.715323081163484198e-02,3.188758975447073679e-02,-4.559052993328266933e-03,-2.190950466179222064e-03,3.947853978489928445e-02,3.228153554482104948e-02,-4.802620883963428650e-02,1.569243051962243563e-02,3.309598442715607630e-02,-4.632192384640027721e-02,4.332728937823616261e-02,-2.529205652691480719e-02,-4.318327321203015157e-02,1.810170685027741311e-02,-2.438681208138646778e-02,1.191855536531474108e-02,-3.125415539175668833e-02,-3.844329168826202126e-02,-2.249491279053126430e-02,2.600193437282162512e-03,-4.210089019013058681e-02,-4.163939806933832088e-02,-3.067678049207676894e-02,1.031935935084992047e-02,5.084208416529925612e-02,4.683835730241285578e-02,4.484906317298655021e-02,1.347292128127430474e-02,5.053953203785045700e-02,5.054633909923970242e-02,1.274412756478644076e-02,-1.396786578029957614e-02,-8.266694631480107566e-03,-4.820058322942341600e-02,-1.392227272563495606e-02,4.136173792166914637e-02,-4.997862699902048955e-02,-4.536925437609164863e-02,-1.491647407913638569e-02,-1.410602549664469185e-02,4.171492646197455523e-02,-4.722061660890230356e-02,-4.300799055557169570e-02,3.790973482499460090e-02,3.376573375531040366e-02,8.187141084965751658e-03,-4.881782705670148492e-03,2.459819283476669116e-02,-4.171832589453409318e-02,4.503662685894012363e-02,-2.534082605298792687e-02,6.969910643636210469e-03,-2.190886070467576181e-03,2.963404446140853465e-02,4.957858808658151956e-02,2.598840592327365112e-02,2.012496506644945865e-02,4.327266226874593516e-03,3.934754012719127864e-02,3.301502740950548308e-03,-1.040503121824142008e-02,2.299759223881951350e-02,5.435383828536839192e-03,3.852312877362010224e-02,-4.291314034569059660e-02,-1.696007123113189158e-02,4.237626907772724938e-02,1.334606381931342789e-02,-4.667311381134982284e-02,-2.593460017913762350e-02,4.248224011970123948e-02,-3.068554110519904413e-02,-1.591282628556139889e-02, -8.543545784150165245e-02,2.428880657408348520e-02,-1.957975192079776383e-02,-7.539461172423336799e-03,-2.800719844089731916e-02,-4.102063571335314018e-02,-6.351470180584350977e-03,-4.149919286766051707e-02,-4.799949406782540173e-02,-3.780924984881914308e-02,-3.643599299683678711e-02,3.648040068230251620e-02,9.029766631803361199e-03,4.733861148992528356e-02,3.443480409980102797e-02,-3.169952215159306530e-02,1.751087344475835139e-02,-2.531158025871534101e-02,3.145260545111125405e-02,4.726692442576398145e-02,-2.258665924340562403e-03,-7.165810541846825976e-03,-2.974732367672442562e-02,3.327344273770277416e-02,-4.456647620202367627e-02,6.539881977739525620e-03,-1.269890369902883925e-02,1.123316039585917775e-02,-8.876329614494887776e-04,4.479996179025307057e-02,-1.872649623293101001e-02,2.096570531839285489e-02,-3.732422564160658290e-02,1.905632441269371202e-02,-3.811104005199986156e-02,-2.567504541505129245e-02,-4.153797096460951771e-02,4.348834291639386285e-02,-4.093735561107031407e-02,3.285901928939857775e-02,8.742222081952473467e-03,2.155056605616843812e-03,-5.002098600140381796e-02,-9.795198471835782003e-03,-3.470825463700100144e-02,-4.945602075162651434e-02,8.923230608900184491e-03,4.225600249482625720e-02,3.100192937496869250e-02,3.864798583509179708e-02,3.910287442241829059e-02,-3.036873730154354689e-02,6.305831355988736342e-03,-1.081779405288866430e-02,-2.708728742388767652e-02,2.016547879564768719e-02,1.736515000714025647e-02,1.557269141184333683e-02,2.907048957567208436e-02,-2.854318723996623897e-02,-2.486975995131052164e-02,-2.214615406011315527e-02,-2.833561613299825921e-03,2.927898953459669162e-02,4.660679674523791893e-03,-3.010454684081721732e-02,3.217088244845509037e-02,-5.359630663198896444e-02,2.279823404300782702e-02,3.746346179518848796e-02,3.125310177056856570e-02,-6.873515598799581280e-03,-2.892387947892816058e-02,-2.517436961349214103e-02,-7.587985979515913908e-03,-2.667224987399273613e-03,-2.495357805133991899e-02,1.474490199757931032e-02,-1.424988873370984163e-02,-7.096369212688939318e-03,-1.314953120737618990e-02,-4.151717632247745732e-02,1.678438941406752705e-02,-3.665843453371901012e-02,-1.022419006782258194e-02,-1.686374257817910977e-02,-3.727587406274829318e-02,-1.702017199183717550e-02,-1.239385664944993304e-02,-2.639931044667330473e-03,-2.279668378838559800e-02,-4.657380835985666656e-02,-8.410430670081231810e-03,4.637841572007985608e-02,3.532288625599697834e-02,2.054691633151676036e-02,-2.436292474377595857e-02,3.706995396673806731e-02,1.840292337443730220e-02,-4.778520312889934091e-02,-9.704373654486932177e-02,-4.001372854402067414e-02,-1.444933991769662140e-01,-5.644225431488050782e-02,-1.476621038095831950e-01,-7.708519579095196583e-02,-6.205287268706489306e-02,-3.262763151038312881e-02,5.121440210451713888e-03,-8.272683185139829976e-03,-4.517544102807618395e-02,-4.041187230986020840e-02,1.125285991103093519e-02,-3.513454379144344275e-02,-3.026158907517367824e-02,1.211319720766382974e-02,-2.031415204806792663e-02,2.329309328961831974e-02,3.916132985042820869e-02,-9.891738417988855947e-03,-1.553555950242374237e-02,5.858557416228832998e-02,2.506078368986378903e-03,1.101630525544335798e-02,2.038114812810925755e-02,-2.879605148980506069e-02,1.341278493037372475e-02,-3.710173475284190420e-02,-1.058947809681230236e-02,-1.862640749722132422e-02,-2.821846641409985271e-02,-9.095860708066652589e-02,-6.761081077042133125e-02,-7.970516045640163583e-02,-7.300785762728542738e-02,-2.456161602233512820e-02,-6.825686997085984170e-03,3.845423076346934921e-02,3.574909215819786767e-03,3.562903491522316501e-02,9.550620005812013313e-03,3.838333766671782332e-02,-2.350676581868253040e-02,-2.779382511118049306e-02,-1.653424311804160482e-02,-3.955986246421687447e-02,-3.133666876155477565e-02,6.967089944558604864e-02,7.146058887163987683e-02,7.989683624189493349e-02,1.692134159160650977e-02,-1.953361619967216092e-02,5.593358002095898118e-02,7.148096086700012064e-02,8.557417255442767434e-02,2.725578967205401909e-02,5.527780991102806268e-02,1.005504746303520769e-01,3.508343962328249604e-02,1.996637965827383066e-02,1.311996317796523814e-02,2.536306966706977639e-02,3.995450673149507359e-02,8.462991651423640294e-03,-2.945729410669146661e-02,-2.384164723260874877e-02,-4.061812815752094408e-02,-4.848469314969659771e-02,3.703206451094613605e-02,4.125054379526073289e-02,4.307770026518974171e-02,-6.423608918240751586e-03,-3.484263277161576966e-02,-3.137501491785942703e-03,6.163542815764274513e-02,8.391069875262192890e-02,1.172161965496920089e-01,5.978044187038146495e-02,3.011827711775033611e-02,8.226550777391780644e-02,8.031466022971361918e-02,3.684662745961685137e-02,7.237631584477070834e-02,2.573556706077101755e-02,9.472301994531662217e-02,1.460368114789298288e-01,1.647013602298365020e-01,1.196941462725934213e-01,1.186659687800532270e-01,6.454272089112883526e-02,6.688906823801159252e-02,9.315530281047641747e-02,7.494794702913336326e-02,5.845138960131770339e-02,4.930454105913235213e-02,5.775031762767723897e-02,5.076378199041044897e-02,-4.696779503127049976e-02,4.123780035803750743e-02,-3.263904431957161210e-03,2.963811221337848273e-02,4.799284763948251896e-03,5.557117955082286481e-02,1.885436742232020737e-03,4.874452978067044667e-02,7.859883842960702083e-02,6.144643498847002921e-02,-7.105227361330931912e-02,-2.711916071113875878e-02,7.308510514624069754e-02,-8.306619898918926603e-03,-1.084775229964977765e-02,9.550299601309995834e-02,9.209066149616727814e-02,7.267233380530824238e-02,1.352664091047744710e-01,5.143091773213206985e-02,1.109388618029435170e-01,5.256656724623661597e-02,1.420710240528499091e-01,1.055359579971439227e-01,5.445261026116755138e-02,5.772544874866267217e-02,-2.325797779159077209e-03,5.485658536516975839e-03,3.054472825134504910e-02,-4.390854249378728369e-02,-4.706471164101633242e-02,-1.061095730671482266e-02,4.227159562300115275e-02,4.568472162019388688e-02,-2.167111384769312629e-02,-4.193457496122694750e-02,-1.965016049625045377e-02,-8.192859660309101399e-02,-4.131350322563579619e-02,-5.952671189180554212e-02,-4.145250623523502424e-03,-9.846773129511789124e-02,-9.485782620999586717e-03,-4.016245768544248612e-02,9.370829483093125190e-03,1.552478262292054587e-02,6.315575776091163218e-02,8.812727586301120908e-02,1.113736245850716206e-01,8.737509256513305289e-02,8.830321219856811232e-02,1.140102159793457137e-01,5.258915978367399019e-02,6.136990867412277922e-02,-3.935292175456519409e-02,-4.310562993342355320e-02,6.779255658599520062e-04,-4.581046642175984340e-02,4.645947727313212011e-02,-2.977479615927107123e-02,6.413405891773614476e-02,4.355406116300552383e-02,1.045437201853025196e-02,1.851215765557087667e-02,-9.581095337241275767e-02,-7.040308483590268507e-02,-5.267562303310731331e-02,-6.673187572883620966e-02,-4.340323740622482884e-02,-7.555218991347568969e-02,-1.067200445314416823e-01,-1.120670685656420112e-01,-1.789590987290816740e-02,2.174106846516615441e-02,4.099675726982949381e-02,4.573221316252058105e-02,1.195620245910472557e-01,1.646146669729358081e-01,9.695960439243331286e-02,2.334309508706742392e-02,1.081537743451245481e-02,-5.478893376064910420e-03,-9.184927736422597230e-03,3.184715094717179007e-02,1.853957561603473969e-02,-1.742473818982456096e-02,-5.936326155576568397e-02,-3.935926635002169084e-03,-3.642384826135685455e-02,2.747204425455685925e-02,-3.832040121069026778e-02,-9.150846143514201891e-02,-1.326855745455353675e-01,-1.490183774042104503e-01,-8.113225380939784181e-02,-9.880621010120348158e-02,-8.360735837849810059e-02,-1.329523424399708109e-01,-1.218816922824886018e-01,2.492986428961297199e-02,3.464971231974291882e-02,2.131550242873947801e-02,8.911012047227934163e-02,6.797733815305143090e-02,1.069066131171606260e-01,1.335152034491719764e-01,1.184989778333793431e-01,4.070329245682712677e-02,-4.643081047058987554e-02,3.782329038630267287e-02,3.203326061633327698e-02,4.586610262390784787e-02,2.745775937107002018e-02,-4.019472589445780009e-03,-2.922266993613786834e-02,-3.995497876471955367e-02,-7.472777434942136365e-02,-3.779120202712781679e-02,1.282605006234161481e-02,-1.637630374344299991e-02,-6.304340561118526587e-02,-3.853008422040608144e-02,5.934933537027640982e-03,-2.309315787246968288e-02,5.828541115354878878e-03,-3.743249204925302998e-02,-1.809824824204573496e-02,4.619413655348379721e-02,6.746620091303973110e-04,2.589273293084102048e-02,4.064433262906812921e-02,8.030287779722145025e-02,4.573424743934918768e-02,1.139938240072970767e-02,3.375426655819342703e-02,1.790976404616957186e-04,2.175006662781015995e-02,-1.091243482107196773e-02,4.859341927091694741e-02,6.030935662513246809e-03,-3.362045352136751319e-02,4.042489686427357121e-02,6.395044484161486846e-03,2.562700224303108773e-02,-1.760174297095617622e-03,7.540080456960873874e-03,3.759572162313440987e-03,-9.271120385986755461e-03,1.231688490138284527e-02,5.210439445307100091e-03,3.243371365148847718e-02,6.640189929946313518e-02,4.886663187516861878e-02,4.000916599429145404e-03,1.781889086341976666e-02,6.243007511545935195e-02,1.684266546399058612e-03,-1.548980901770395310e-02,1.851421479152428468e-02,3.895029595898969604e-02,-6.222648628648497215e-02,-6.697834749001821408e-02,2.396943007511132678e-03,1.238896954812774252e-02,-6.050636087611748620e-02,2.192967277586027608e-02,-1.009998784806471345e-03,3.953797864568316112e-02,-4.936373640653168166e-02,4.113813264054859420e-02,4.960424773440531843e-02,-4.033788839147823407e-02,4.422578324966029012e-02,1.851059485599408638e-02,1.492612067205252753e-02,9.300393991157228021e-03,9.019714632260085463e-02,8.999243066411308223e-02,4.285826550101713012e-02,-8.492711829002377172e-03,8.457573450859728892e-02,5.747505288910156190e-02,5.830821804525359447e-02,-1.413346964005151750e-03,-2.433044037671322317e-03,4.155515703911377007e-02,4.911812940519538762e-02,-1.727193061661382034e-02,-7.283424784046309275e-02,-2.540139005361179148e-02,-5.212800825495799567e-02,-2.799686804327205375e-02,-4.945813144287414947e-02,-4.427629514494312718e-02,1.160615548747792776e-02,-2.237980785378490545e-02,3.983435050590458659e-02,-2.539361434188901548e-02,4.328765705182273382e-02,2.323659564660016455e-02,3.864232594723255448e-02,1.884376607413745797e-02,2.283637641666851070e-02,4.213595996231721957e-02,8.960300651807064087e-02,8.670291495225547485e-02,1.341824150640285804e-02,1.203582949254771717e-01,1.508254996766235645e-01,1.525709547147553469e-01,2.972912946190092373e-02,-6.493418804348873030e-02,-3.421399707663523582e-02,-4.044148193980592887e-02,-1.976172532057529629e-02,-9.490929449382985716e-02,-5.299876173153528214e-02,-2.180026073472306203e-02,-3.853824282999866041e-02,2.088130266983770009e-02,3.994337416203535412e-02,-5.323187179823924906e-03,2.289607759670321194e-02,-4.204969471301039929e-02,8.351375180830712674e-03,1.061395976670095193e-02,3.985120923049403907e-02,-4.737788517934059945e-02,-3.698757403501272412e-02,5.153526462383433565e-02,1.007036338763018096e-01,6.582484938981335298e-02,1.714152617149326263e-01,5.360566490736604767e-02,3.311472341682074327e-02,7.469024387357275918e-02,1.658529452150130368e-01,1.373623249950291503e-01,2.698999301198753281e-02,-3.713403756717083976e-02,-1.039487665868395194e-02,-7.143959653843885704e-02,-1.315271870495121898e-01,-1.190812633556272426e-01,-4.345973735040183084e-02,-9.974015448121775762e-02,-6.281906335786847928e-02,-7.982651737542839632e-02,-1.998978229140137633e-02,-9.019081508686776702e-03,5.971331713104372635e-02,1.817131487726056371e-02,3.763423033381915750e-02,7.014754784135365795e-03,-4.518686952427233838e-02,-4.864089222232861887e-02,4.234759530113717252e-02,1.963586244624673099e-02,5.181920680533061430e-02,8.637452423622744846e-02,2.339309689561980266e-02,5.351435664980391110e-02,5.443632789716588288e-02,3.720918167645428237e-02,4.159239115119261337e-02,-3.293301840896978999e-02,-3.309696910300045924e-02,-6.085875393341067668e-02,5.323031140109948239e-02,-1.595713740839408909e-02,-1.332536568248621767e-01,-1.077889129198848911e-01,-3.662962827149043865e-02,-7.939440530127713294e-03,-2.570070254064945464e-02,-1.803742996074439095e-02,4.534636938053566123e-03,-3.389731830701087079e-02,2.209467583327431872e-02,2.841843218325011688e-02,2.297507661947295610e-02,1.758325136342497874e-03,-1.067713461151703624e-02,-1.783521770879318777e-02,-2.586203857781345979e-03,9.866150248942553991e-02,9.312367511295255307e-02,4.061173695399758476e-02,8.759192349797585708e-03,-4.167281028459803721e-02,-5.735425840928815716e-02,1.074232075550031560e-03,-1.753915882618398495e-02,-7.809465612328202189e-02,-3.655917300209997334e-02,-1.252321638831680600e-02,5.598761876385323355e-02,3.242653158463806862e-02,-3.201573305874661629e-02,-4.787334291452962493e-02,-4.618449478329775953e-02,6.701963061106495922e-02,2.115228196361001664e-02,9.916925632762557674e-03,-4.621851837665068991e-03,-4.208652392538178404e-03,-3.839561739739852375e-02,-2.923081838253685158e-02,-6.408625196890262166e-03,8.058144946030756928e-03,-4.125784265899812980e-02,-3.885402834898483981e-02,7.027246651795358845e-02,9.394493842204237888e-02,8.516981925046721025e-02,2.672365858692507534e-02,1.683138141225016399e-02,1.381058715540695904e-02,-4.267288849245529092e-02,-2.815176727199899739e-02,-6.110738241035106044e-02,1.055293859700928878e-02,-6.550336479138429979e-02,-1.014234720353944935e-01,1.951505682769267419e-02,5.779835263329249559e-03,3.257022116349194644e-03,-4.356635767847764906e-02,7.799438013887674548e-02,9.160309832799834462e-02,3.279133145821550022e-02,-1.434748432978647306e-02,2.610327735108500941e-02,2.495324976404377990e-02,2.297434573270798475e-02,2.637639632095205300e-02,8.456046967833120986e-03,4.102713040047299697e-02,1.598659357387309521e-02,6.991136378590160315e-03,4.915778897457798863e-02,4.282041332952317425e-02,1.121953398471891294e-01,2.697869545017856849e-02,1.667206389858318788e-02,-6.183973097056946061e-02,-9.056456354864161895e-02,-1.324859609582908493e-01,-1.451644867039246500e-01,-3.298708688690032281e-02,-3.089305466494559824e-02,-2.928627115982142780e-03,1.495645629786847980e-02,5.350029017690284203e-03,2.866257424604198856e-02,5.892708914585489260e-02,1.086680114361985305e-01,6.556429002679992069e-02,9.213073104994876084e-02,-1.408909436589281770e-02,3.958647604768120165e-03,2.081900538720833291e-02,4.475523673490805487e-02,-2.573726933186485516e-02,-3.927102431982577857e-02,2.553988847027438558e-02,-2.112217567428875328e-02,-6.531555456218454160e-03,9.726174859825789665e-02,9.683257871082145973e-02,1.381559962381567197e-01,9.914620005668192682e-02,6.950311436646978980e-02,2.063506284828725904e-02,-1.103440611903749868e-01,-1.570391656691026705e-01,-1.442424623921527427e-01,-6.766428074187230690e-02,-3.337904277625107496e-02,3.784907390169715835e-02,9.193476169175857082e-02,6.255015340921703249e-02,9.676634843575060430e-03,4.581239684039320470e-02,8.829030691310647827e-02,7.832183387176087919e-02,8.935288078835292025e-02,7.023435692851724699e-02,1.118815311905341399e-02,3.735259507544100299e-02,-4.625319581359248200e-03,4.243583543068611685e-02,-1.579930265068217599e-03,2.396320828614098564e-02,3.380152678987597553e-02,1.280080756200557834e-02,4.107486081050342602e-02,9.789840464568622114e-02,9.226107683430853634e-02,1.185177240024199857e-01,3.285022746289258111e-02,-5.499694621230225011e-02,-8.172381321003406585e-02,-1.180051654605703132e-01,-1.216250483852910347e-01,-1.116013204136492437e-01,-2.027720067020679154e-02,6.033951002560410809e-02,1.881260647892632129e-02,5.395666104507157446e-02,1.273726521651182865e-02,7.480318808334403269e-02,6.659726649248738639e-02,8.199945116549987867e-02,1.042316912982596266e-01,2.059151458956448230e-02,-4.016005373877024054e-02,-2.734449697730183260e-02,6.710398156980861700e-03,-4.970471889329679954e-02,3.971589757786142538e-02,2.806549708981367908e-02,-9.320126925073019680e-03,3.900773656110529536e-02,2.110501253824139875e-02,2.396255830434266751e-02,5.269960293508327981e-02,6.015120001673110450e-02,6.036124510229623485e-02,1.050246652424606346e-02,5.455502731265022415e-02,1.410300967278114125e-02,5.313661610216834780e-02,-3.717216311863111300e-02,-2.222389780782588285e-03,-4.617396173455886460e-02,1.743357714844944589e-02,3.805848994248407086e-02,4.414102178356934386e-02,6.293003503921196229e-02,7.581576683971255615e-02,6.323556045115988344e-02,1.814680432552559508e-02,8.389524769734861120e-04,-1.122009167099350876e-02,-1.619140183886080137e-02,4.976363939576440576e-02,3.188214350921995954e-02,4.002647493243052801e-02,-3.219101562695418639e-02,-3.082188461264906421e-02,5.123212016089860599e-02,-3.125594725811114971e-02,1.514719231899778681e-02,-2.695786680159828821e-02,5.249343443329596709e-02,-1.168223153079228291e-02,6.203407412122799447e-02,6.513614160121038166e-02,9.513972442767015814e-02,4.839565147130971134e-02,1.320971151143121580e-01,6.160491936830933546e-02,6.301159639663110601e-02,7.180520353771824293e-02,1.057238709851290315e-01,1.489016144043593323e-02,8.505245048420669030e-02,2.024830714244351196e-02,4.323836402341517393e-02,-1.733033816876122096e-02,-2.545171564357783661e-02,-2.010096429343273539e-02,-1.427476806370423651e-02,1.449795220084575120e-02,4.125992892569493864e-02,7.818075620979560159e-03,-4.456146691659765291e-03,4.064088327242650067e-02,2.493701506341784030e-02,1.132127240031323770e-02,-2.841364523387695726e-02,-4.029438042943594978e-02,-3.319711355708770267e-02,-2.426297435934667013e-02,2.063363778167537355e-02,2.764212931650599642e-02,3.538546915287785893e-02,-4.191221572062609618e-02,7.046203039583563699e-02,1.149041448562588413e-02,-4.799532444639042182e-03,-1.923768443221597971e-02,3.008074925013315415e-02,1.000267620257166146e-01,2.459068422691985598e-02,7.380835305462880858e-02,5.168206040657070260e-02,1.671845827306957244e-02,4.201002555507857977e-02,-1.719283596556181459e-02,4.773413732790764141e-02,-4.860938477997890639e-02,1.470620750291663781e-02,-1.796359494691793929e-02,-1.385670232564489845e-02,4.370969016222307768e-02,-2.507722739564606507e-02,3.558369784365164861e-03,4.487997939865834285e-02,2.378257520837697564e-02,-4.303442568342907837e-02,-6.850174138503362098e-02,-4.496555813853345129e-02,-3.664401744608823674e-02,-6.096960445218820718e-02,-6.198252859025830952e-02,-4.064926279596119130e-02,-6.897926781117633133e-02,-2.942892229731033579e-02,-5.654006114082444495e-02,-4.228710449768980500e-02,2.012744482595545462e-02,7.813614358903266457e-03,5.068464206898377206e-02,-7.674209263164957252e-03,1.037532767808290596e-02,7.457723860695248883e-03,1.172014752458983011e-02,-3.029618382338227292e-02,-1.559003116623616098e-02,-4.637739476484299683e-02,-1.767208965180309954e-03,-1.494650920980302583e-02,3.413682586408470221e-02,3.533043048548140802e-02,1.813921747579412894e-02,-2.658649889244547176e-02,1.688995779370531646e-03,3.160461674661728393e-02,1.860419163668632775e-02,-5.783983447415935036e-02,-7.311609849200419176e-02,-2.563290639092562218e-02,-2.198117459596116152e-02,-4.487934669967151048e-03,1.097397327633457473e-02,-5.112887751962354871e-02,-3.250258015699174913e-02,-2.837519043205198599e-02,-4.683824067023727167e-02,2.183450256479026186e-02,-7.808285343762859203e-03,-2.648393263716028109e-02,-3.022246592414833469e-02,4.098887171165183085e-02,1.317944174790448841e-02,1.855964827261145922e-02,3.584191211313841885e-02,4.075075988390268467e-02,-2.037601627117127320e-02,-4.916351194226460664e-02,3.068261872755942421e-02,3.670103277531436281e-03,4.996743869598618826e-02,-3.316995710152687016e-02,3.134192282181613026e-02,1.127878852055132566e-02,1.942575062262965821e-02,-1.465819119234674540e-02,-3.620639011503999638e-02,1.245037134012466455e-02,-2.554423794597113564e-02,-2.623232153467746144e-02,2.472348236799217641e-02,-3.187406443805291395e-02,1.964636836081836563e-02,-1.071789875513996966e-02,-3.265609723655255731e-02,-4.036029482590711148e-02,-2.258733765606722038e-02,-2.674237680191452610e-02,3.699161551709262419e-02,4.641372913860669636e-02,-2.874416121245536651e-02,4.619738242830094543e-03,4.340261122633660984e-02,-3.180658340885424151e-02, 1.454519737180595511e-02,4.359616115601343267e-02,1.067047927948748531e-02,-3.207506546318653062e-02,1.024788891092370813e-02,-3.725073579720995787e-03,1.312478030492683634e-02,-6.695674210629484757e-03,1.630461767837040887e-02,7.160960005381709903e-03,-7.250176947048894704e-03,3.932708177519540771e-02,-4.810478517678626331e-02,-2.074811280126215296e-02,2.883832149494301722e-02,-3.171165255983497688e-02,1.475364770834229622e-02,-3.375433170973163310e-03,1.874469038000234344e-02,1.744862714844538920e-02,3.308158623947318744e-02,-3.822670735805810960e-02,-1.296324740883954968e-02,-4.638378137386892086e-03,-4.076056859814072841e-02,4.630142874483592075e-02,2.211346223884266826e-02,2.616293449880885413e-02,3.645694183377583275e-02,2.539378386937124477e-02,1.002721379710395933e-02,1.713318880504602348e-02,-8.721283409903489436e-03,-9.193763782852103217e-03,-4.703913622960531615e-02,4.741852065081912648e-02,-2.804398232580350772e-02,-3.113383739482601664e-02,6.563707914605566851e-03,3.285015469244085174e-04,-2.605995430819168721e-02,-2.852888859091906593e-02,1.433172911378492037e-02,-6.081944419850553347e-03,-1.572152653523322188e-02,4.024995811580918403e-02,3.809105709242973509e-02,-2.861713833333750373e-02,1.817584816054219898e-02,4.542491494298737942e-02,-3.774998502216514451e-02,-1.111482967517314624e-02,-4.090962482343285522e-02,-2.352129097327759766e-02,-2.533364401244765640e-02,4.084562310664525964e-02,-4.040317729616639542e-02,-4.687688050604861545e-02,3.772222991870752273e-02,4.758079983816983216e-02,9.877067138026128512e-03,-3.547377284611701737e-02,-2.136023868704577458e-02,-2.422054625107800119e-02,1.352597051755234647e-02,2.044380404654319583e-02,-2.477054306255467575e-02,3.809993791061095508e-02,-1.883391862099443453e-02,4.525703637992772865e-02,3.464879800528187169e-04,-7.056689017445928053e-03,3.157602107007950742e-02,2.218623620462932544e-02,1.453547069951180264e-02,6.434836923403823572e-02,6.767400453554490991e-02,-2.593785278941107206e-02,1.049274400157380882e-02,4.253470128504795861e-03,-2.605132356690943729e-02,-2.190318791802851189e-02,-4.383026365350304460e-02,3.194114233168506012e-02,-1.428184483301391666e-02,4.793895943201090248e-02,-3.336785552673766919e-02,-4.627337276677266631e-03,1.238888810322309741e-02,2.382968640453034248e-02,-4.521486747125546407e-02,2.789813504284797963e-02,3.673256698464365255e-02,3.084288930531339443e-02,-5.273869461434330108e-02,3.018699781118673250e-02,1.730252740037003037e-02,-4.952368893454876450e-03,6.337683770382952775e-02,9.136147411330274026e-02,1.208380933603019347e-01,1.473303436046744241e-01,1.317939804870710829e-01,8.118243940822526816e-02,1.443358844911700190e-01,6.512159722974460163e-02,4.766480054833856228e-02,5.019346818825639461e-02,4.283434677605062885e-02,1.313992108113853918e-02,1.602093853899196063e-02,2.634225281878821434e-02,-1.700928814869604594e-02,4.969158361195578910e-02,6.379985827644638063e-03,4.826378384541631095e-02,-4.749417224502672230e-03,-2.644191270464165550e-03,5.161982898517157581e-02,5.415545690963818881e-02,-2.882680480510873069e-02,2.690611120923318625e-02,-2.972730840465039048e-02,4.761327862556643392e-02,4.903172249346385986e-02,1.266363006120606038e-01,1.346956341334587526e-01,1.229412770153228279e-01,1.984984177626671065e-01,2.177049189050779543e-01,1.985474280898205657e-01,1.270342355366165799e-01,9.405554796872879486e-02,6.113269846451438450e-02,6.643819203749075364e-02,-1.569646807372757080e-02,-1.001353947402813631e-02,-1.274739232359253099e-02,3.219902198258353665e-02,-1.122459558004033908e-02,4.352603184449098384e-02,2.962502128743567387e-02,7.513899665986645271e-03,-1.653646772021765549e-02,-3.813685395084897341e-03,2.097983031276503749e-02,4.539843279321455899e-02,-9.162744479259136293e-03,-3.536841995800423660e-02,-1.629076290092332582e-02,-1.426712341057871127e-02,8.384523903564806979e-02,5.188139252530133555e-02,6.773255739740452475e-02,2.143655500171232076e-02,-2.914240255719739714e-02,-8.908813209401069202e-03,4.590779178510213943e-02,6.151535854607884102e-02,1.157074522296396984e-01,1.351964290991970463e-01,6.755375184017062967e-03,2.417988200027277809e-02,1.977858194731795666e-02,-4.848262876615037215e-02,9.530507391668913142e-03,-4.879823717669022620e-02,-1.608559228942401526e-02,1.051046807387746862e-03,-2.504593947524600545e-02,2.144438597179311456e-03,-4.280026046705051601e-02,-1.992173414195982234e-02,-2.525950129150074039e-02,-1.527387221453413782e-02,1.572159451028082300e-02,-6.995634085122497126e-02,-6.124212525718021605e-02,-6.837274752646504972e-02,3.412877401780529778e-03,4.198210688331586310e-02,-1.795044206700379882e-02,1.977903343522977378e-02,4.537233492844343352e-02,-1.363291710452930409e-03,-1.048662822729379100e-02,-3.357652671078314305e-02,1.247376640320751844e-02,-7.471999379015097087e-03,-4.979646498722398174e-02,-7.675931155688889285e-02,-4.819643432944237943e-02,-2.251409855075442099e-02,-4.295559277405763127e-02,1.877704111933979278e-02,6.050735673903579435e-03,2.061550207404884080e-02,-4.774787692626280416e-02,-2.409774873990336991e-02,-3.813173701673226723e-02,-2.166769922157532266e-02,1.573145891961367018e-02,-3.463975782121182789e-02,-6.374186140015852819e-02,-1.320198823603135202e-02,-6.553395355484215035e-02,-8.262814019848162272e-02,-9.345297949714571895e-02,-6.479198797388270592e-02,-1.431379338995510953e-01,-7.390933477180491873e-02,2.994810804099993715e-02,-6.413152738346487858e-02,-9.173132970483541260e-02,-9.683474712452096178e-02,-1.107115864848217807e-01,-4.529234554004207824e-02,-3.412901005369939345e-02,-6.691688663975363383e-02,-3.241648812989735007e-02,-9.787837128776896711e-02,-4.442966044841559908e-02,-2.049491665650386013e-02,-7.875760454650902742e-03,-4.670984840108471231e-02,8.913782572877247679e-03,3.521814707953874191e-02,2.129267966761074198e-03,-5.653876415157525065e-02,-6.070717014672071671e-02,-1.400229188766313922e-02,-7.568248878246047751e-02,-8.021987433389587974e-02,-7.061333330179579704e-02,-7.685247912283835192e-02,-6.649202612201494944e-02,-1.473081992692819864e-01,-4.907076526840953301e-02,2.287123359788970425e-02,-5.513712360782958843e-02,8.064767615510356688e-03,-2.937956002594633090e-02,-1.191290400667269767e-01,-1.111311610424337570e-01,-9.136728184618113369e-02,-1.393567145497716375e-01,-1.579645100173013850e-01,-1.266342424216743423e-01,-1.330757373167212043e-01,-7.980757094117763017e-02,-4.512988214310310886e-02,8.341633645449680889e-03,2.257997335894844360e-02,-4.554766120233432608e-02,-4.820703595764878197e-02,2.950759202098445985e-02,-6.632790713562226881e-02,-3.182000171631942792e-02,-6.891811670659929445e-02,-5.361438804660632884e-02,-9.441469378583396133e-02,3.285076992724129084e-03,3.481181587372020325e-02,-3.926535347318275276e-02,-1.075205746031701742e-01,-2.690946670448218260e-03,-4.594358024465308027e-02,-4.829616345902610491e-02,-6.520227229207074815e-02,-1.159129403023859278e-01,-1.372118723084187475e-01,-1.782887658166701639e-01,-2.367708424810786583e-01,-1.984922637228294928e-01,-2.293491759345162029e-01,-1.729991017355525795e-01,-1.501223033809725160e-01,-8.184134631058578857e-02,-6.133004758928758959e-02,-9.014934906901804143e-03,2.758806155899271029e-02,9.507821983160934243e-03,4.312399129724090591e-02,-2.103635908084736800e-02,-6.589179917652611407e-02,-7.096596630332036720e-03,-1.690886200377495971e-02,-4.125446345759370415e-03,-8.392087078496680841e-02,-1.549843728992811483e-02,-8.679650421186365858e-03,-1.322539357810842420e-01,-1.115986702664109598e-01,-8.277824069399516982e-02,-7.054521038986021064e-02,-6.174421087381154472e-02,-8.290923700636398247e-03,-1.291660499224459024e-01,-8.778806315723811093e-02,-2.018887804471982128e-01,-2.290472766643803504e-01,-1.527666254624404085e-01,-1.427095597344320288e-01,-1.544488135327090894e-01,-1.041633873453419318e-01,-2.173668329122827644e-03,7.783803022564128246e-03,-2.289859226152089061e-02,3.910842499561534291e-02,4.004020019400349184e-02,-4.550856571138678364e-02,-2.664177978601497965e-02,-1.300048375261184455e-02,1.471566388087937848e-02,-2.949486005483626869e-02,-4.816018873356973234e-02,-7.899831359873769887e-02,-2.003104738988532862e-02,-6.721117269999644928e-02,-1.058612779181516278e-01,-1.530039959190103716e-01,-1.897804042702833094e-01,-1.555637863208861882e-01,3.342713727932852125e-02,-1.498786107231808717e-03,-8.306779209883770332e-02,-8.943111721077386111e-02,-1.848943564567877007e-01,-1.804073908335283860e-01,-4.467344619495374619e-02,-5.754113955863792568e-02,-1.046595926486752204e-01,-5.093517320175551533e-02,-3.143890224567519407e-03,4.230471059056530037e-02,-1.929416717341254917e-02,-3.442467657835467792e-02,-3.128959996148782119e-03,1.839299112870633468e-02,-1.453535424398169629e-02,1.157319475589062112e-02,-7.412963755265877808e-02,-2.865777454909746585e-02,-8.977693402404357537e-02,-4.364869409823720486e-02,7.415393481686188490e-03,-8.411268410942325524e-02,-1.545587187544942009e-01,-2.047168980903787128e-01,-2.400909746073578432e-01,-1.245309889251145219e-01,8.650812978168816170e-02,5.579679831733023315e-02,-6.686041585846622115e-02,-8.616813848969855083e-02,-1.040639123096834401e-01,-9.494120950763738909e-02,1.058539194706832332e-01,2.318413260037177626e-02,2.294011161583792840e-02,7.514872940286806448e-03,-3.462546764337582489e-02,3.982769248667721723e-02,-2.330752666058739236e-02,9.879181013572289893e-03,-3.791617655192274644e-02,-5.790783259403728400e-03,-3.203806159624023736e-02,8.181472227995164812e-03,-1.099234157453787136e-02,-1.546688784390651619e-02,-5.206177850765006387e-02,-3.390183585635402758e-02,-7.574086438219033990e-02,-1.271273622965570504e-01,-1.379514066546561057e-01,-1.354800027886101654e-01,-2.038540410610704123e-01,-2.377308190451168576e-02,1.759390145625558954e-01,2.933654809670128982e-02,-4.419992923622455966e-02,-1.739925375137988950e-01,-2.748724722392279288e-02,5.556320876137039663e-03,8.601066988383342105e-02,2.923635881721241628e-02,-4.773568700221960531e-02,-5.227030622041399510e-02,3.699437852470016663e-02,-2.307666963677597674e-02,-1.633800180701607463e-03,2.762840699386037713e-03,-3.448886968760232069e-02,7.948287159040855199e-03,-4.035131288384498360e-02,-2.705947146963835759e-02,3.143237059006410289e-02,-1.052340362494577630e-02,-4.271969565284472470e-02,-3.121301759423778660e-02,-9.155578057606793274e-02,-2.274845851330285426e-02,-4.455709501578534321e-02,-1.097376599827000060e-01,-9.216024957137190776e-02,8.709494732192445132e-02,1.182194824882058376e-01,2.213794064526677582e-02,-1.556906397523357966e-01,-1.006757063456667073e-01,9.344170003196108909e-03,7.176249089726975672e-02,5.274437223977035405e-02,5.364344557514460002e-03,-2.760900162798091487e-02,2.462372323724622974e-02,-8.945847107742041678e-04,3.932561257055554316e-02,3.002869788638286991e-02,-9.027333846238980164e-03,-3.791232688007276780e-02,2.598786959750513936e-02,-4.963031570269420961e-02,3.352678941944509106e-02,8.758375723667759932e-03,-2.837773684151871298e-02,-6.054964229196944242e-02,-3.329519178149763139e-03,3.580032500129665812e-02,1.173672442458013887e-01,7.062420643642268459e-02,-3.316113282127591128e-02,6.543522625279336868e-02,1.964203584054074470e-01,1.542916833327235282e-01,1.021417102821932654e-01,-3.657201138269144947e-02,-8.296489419057652415e-02,-3.457081953468463947e-02,-3.805829711490262696e-02,3.371268877427064520e-02,-1.271849508536469775e-02,-5.172812189444318462e-03,2.180303949508744388e-03,1.202813923824074677e-02,2.537434682397121666e-02,4.061476627097193592e-02,3.224633786748744291e-02,2.493666444759104484e-02,-1.163987496008630357e-02,-4.605996878245672806e-04,4.163661450873222536e-02,1.634798943522697279e-02,-7.675901843170725158e-02,-5.140411563124111516e-02,-1.161431525450256318e-02,2.019008910089129145e-03,1.625540331559898188e-01,6.770508101471248152e-02,9.344884908631416465e-02,1.796056169202774611e-01,1.891254959604813657e-01,1.264089818893525952e-01,2.039261197630380055e-03,-1.320826965854072221e-01,-1.387590485228370196e-01,-2.420933967895530156e-02,1.682575823553606343e-03,5.348099017323740961e-02,4.501912457609876482e-03,4.252294901440747954e-02,1.390824827246308487e-02,-2.392965790188150005e-02,4.339646775633650838e-02,-3.487816571576122376e-02,-1.752432742695311102e-02,2.342079663760486541e-02,-2.260103382431322139e-03,1.995195515001347945e-03,-3.322870919794314402e-03,4.482581245841903844e-02,1.622849257092683767e-02,-2.009710266016222560e-02,4.433879102241152989e-03,2.476168242944175660e-02,1.072358532901127176e-01,8.908734880451806004e-02,1.272775726678388175e-01,2.185471508871559831e-01,1.903812934485647201e-01,1.079849992999974279e-01,-9.812282181888384858e-02,-6.719147692105788272e-02,-8.719632582766358164e-02,2.856441712810020572e-02,9.628996426918146057e-02,1.133057208035464919e-01,-6.996661910555298418e-04,2.449217698837566695e-02,8.710960817902541065e-02,3.174886399528600162e-02,5.302483004180499199e-02,1.923880833805398372e-02,-1.430995781129579258e-02,-3.535265387897018607e-02,-1.063449371735334520e-02,1.615306414026812867e-02,1.084943721945789280e-02,1.349772715207200012e-02,-4.703228647245895171e-03,4.684604968669736635e-02,6.859028603166396343e-02,4.360827839866825845e-02,1.124899610680078488e-01,1.985436598935216568e-01,1.666590765609741454e-01,1.973981842673026010e-01,1.567707411724370281e-01,1.042354475083778070e-01,3.261194714415724394e-02,-2.034456300480224061e-03,3.134877489485583812e-02,2.545474198788592532e-02,1.117828061527014888e-01,1.924796601295519424e-02,5.265310254880348206e-03,5.051446837295250902e-02,5.504643041567954670e-02,7.905152009152908998e-02,2.344293963590283678e-02,-4.375291645264509782e-02,4.833627837800662241e-02,1.408087819937350882e-02,-4.248944843474894428e-02,2.881854910187645752e-02,4.044683778688635406e-02,-1.905867203178580188e-03,9.167184283133332501e-02,6.857444568306966803e-02,-2.906259385667513823e-02,2.865387946843184902e-02,1.044858789578643893e-01,2.095811572146956958e-01,2.293718723564003303e-01,2.183461725183888091e-01,1.204547136623141668e-01,6.960675920265525785e-02,-1.901007241891147087e-02,9.655754291338508599e-02,2.858918929310423282e-02,2.943086215055365495e-02,6.319281110161759866e-04,6.694199842295783798e-02,-1.273734584008552259e-02,5.056974612604717839e-02,-2.396856300259354172e-02,-1.444260374955223629e-02,-2.497232358925206147e-02,4.541172833444410972e-02,-3.984414892678606046e-02,-1.073890874641082738e-03,-4.679277442314432739e-02,-1.666268167392179894e-02,-1.872722036986045752e-02,6.351038052469623954e-03,-2.372091542284718302e-02,-4.529735949979556836e-02,6.540147983340114692e-03,2.567550452045282497e-02,-4.544154401318752437e-03,1.607316309401548571e-01,1.853852788110854355e-01,1.742333970103992491e-01,8.500882060253386885e-02,5.270416763075357752e-02,-1.003609422998627369e-02,5.452291739081972094e-02,2.123137906655780949e-02,1.076952459463776691e-02,2.760838838617984264e-02,1.140366523516401749e-03,2.609855919820816550e-02,1.657097621392731104e-02,2.266620712743679794e-02,-1.553158714103519862e-02,3.213045235390002419e-02,-4.318868107580896981e-02,2.082363268590001204e-02,-3.358784631030621581e-02,4.110803997109738206e-03,-4.519624706438224448e-02,-4.213163962681963637e-02,2.573781480347634570e-02,-1.884240723050093630e-02,-7.556965359153372530e-02,1.830278957522857991e-02,-2.551018972219759595e-02,5.789998416487106281e-02,4.440380785489647653e-02,1.025552585218716534e-01,7.700996971417754799e-02,-3.155201480138056930e-02,-6.813723819257483730e-04,-2.147448669324035150e-02,1.068291050367692341e-02,1.373285264769079188e-03,2.920553034531008299e-02,-1.158822268722773871e-02,-1.813101194058029664e-02,-9.552271329364930494e-03,-3.144360218225294989e-02,-1.561022766071117757e-02,-3.270518096303307726e-02,2.377592132704416453e-02,-3.018586080265002469e-02,2.780328279474811315e-02,-2.279340004404032533e-02,-4.554535351294060341e-02,-4.766470268830803186e-03,-8.594912565415663633e-03,1.848455469648042915e-02,3.075744481102641106e-02,-6.485160881489186735e-02,-1.508003084591700779e-02,1.881716125211719756e-02,3.313015643643914526e-03,-1.395950597951248484e-01,-1.960714715661912855e-01,-1.619707787873502225e-01,-1.974892764027836312e-01,-6.682756782867660394e-02,-4.326906626827154573e-02,1.202483518784931010e-02,6.209432093864937496e-02,-5.121314686948653938e-02,1.300411218416317599e-02,-7.639019642703209767e-02,2.474157906783165661e-02,1.589030733620494518e-02,-4.341458638665824515e-02,-4.160842602069851626e-02,-2.353721613472543189e-02,-2.338057430765244638e-02,-5.096618467506384975e-03,-2.225733909084620654e-02,-4.339915654171723480e-03,-4.404301615754340621e-02,-2.741364309405557205e-03,4.232546274299622824e-02,2.012468127932550907e-02,-6.470578665310872633e-03,-5.931360512857230399e-02,-6.307649651213223518e-02,-1.474362504799495710e-01,-1.860662075918549374e-01,-3.078310721894906843e-01,-3.346707662122342941e-01,-2.526185189935813424e-01,-2.028914256199320365e-01,-8.491317026367557752e-02,4.384510132797414224e-04,-1.617189797670285853e-02,1.205513754280289340e-02,-1.065331261390045289e-02,-5.836456586630683549e-03,-9.144122030517897641e-04,4.644051230020417378e-03,4.674791713456546635e-03,-1.149372307337325795e-02,-2.608392233719999606e-02,3.121661096448609396e-02,4.542865820501451601e-02,1.465266457089284269e-02,4.652291964706371796e-02,1.250874025985988791e-02,-1.418398945216358190e-02,-1.062997960478912797e-02,7.333106089637668641e-03,-1.525950855272322024e-03,-2.619818698321407444e-02,-7.034300693606330979e-02,-4.343776112846044202e-02,-9.723486352143240197e-02,-9.893397548499974214e-02,-1.564797052782462006e-01,-1.687742378993292158e-01,-1.533252894893993579e-01,-1.149968202912295540e-01,-3.309405023796108819e-02,-6.335087103175723877e-02,-6.037494518120815196e-02,1.107643778767845345e-02,-2.965062092469674879e-02,2.706075516047634286e-02,-2.304603849126624776e-02,1.265166649015718112e-02,-3.485350786827974556e-02,2.413609896055052273e-02,-4.395032262518437649e-03,2.728863181927976278e-02,-2.061446964825156686e-02,9.349260017675012358e-03,-3.047128471325035934e-02,-3.016103446811180949e-02,2.150312959698057885e-02,-5.363388168659447702e-02,-2.882971824701650084e-03,-4.455632162965908472e-02,-3.526381709958324034e-02,-9.172843461376957441e-03,-9.891870574484649958e-02,-5.094746182480248964e-02,-4.643479101478675125e-03,-5.190896211530537235e-02,-5.704248387587838170e-02,-6.541965056051306238e-03,-1.604295148217061914e-02,-3.199370013955476350e-02,-1.941452555643019551e-02,-2.509080770338046815e-02,-4.453953735507268016e-03,-2.016257803527450598e-02,1.115859194472351278e-03,-1.056453459407444978e-02,-1.831133765846031103e-02,-2.559848145430202587e-02,-4.515610513939103537e-02,4.317030623090345465e-02,3.614567917845611100e-02,4.078713455745865135e-02,4.560169049908165129e-02,3.326565100656736496e-02,-3.905428684203805095e-02,2.464978115930661819e-03,-8.019535615038332274e-03,4.017169015279525163e-02,1.920350112621817956e-02,-2.876334529471958473e-02,4.834583207469512860e-03,-1.608327479810878549e-02,-5.623490930640415858e-02,-5.166291512442156703e-02,-2.688298669234397142e-02,4.829657537564394088e-02,3.407353501080961217e-02,-5.330100352350477730e-03,-4.082236151514317263e-02,-2.576092830754734067e-02,-1.549426222520818366e-02,-3.781424259530764831e-02,1.780813946599088538e-02,2.931832885926485832e-02,3.047684818782495086e-02,3.862789203030556062e-03,4.265373847439561661e-02,2.868850497655318910e-02,-2.965171925590489796e-02,-2.328859904846130105e-02,3.574898811227487927e-02,-1.327901804828018895e-02,2.613901577965392631e-03,3.355458717361186477e-02,4.024677964088387710e-02,9.347121651794514097e-03,4.924911352582919677e-02,2.958114909329713840e-02,5.152399347490742125e-03,-1.251875207052287158e-02,1.822594683067625329e-02,4.029218390678997175e-02,6.869711083954084324e-05,-4.413782006909804968e-03,-3.374275039203574605e-02,-3.995777747595441985e-03,2.037835272161159922e-02,2.257916960468871193e-02,-3.789897381377446695e-02,-1.623386673338983455e-02,8.432959210471657752e-03,6.309990230984184600e-03,1.879714958808839653e-02,-3.957303148419229200e-02,4.016203200087614666e-02,-2.376093958758129787e-02, 3.361022091549806939e-02,4.548304968570869578e-02,4.298964933440600766e-02,-3.955358830237831747e-02,-2.932925479399766180e-02,-8.783669834089985473e-04,-4.199168763148986017e-02,-1.837540947959348525e-02,-4.788138122061407626e-02,1.945825324869079886e-02,-1.401411293548315840e-03,-2.472760460369939628e-02,4.475143677386521357e-02,1.328804237257544263e-02,-3.470518003116053463e-02,-3.450302199348889709e-02,-5.405548384072214607e-03,-4.533022715331305741e-02,2.929610434494026028e-02,-2.848907123526148860e-02,-3.234889506313969043e-02,-9.594488530287118011e-04,-3.059266402088705109e-02,-4.217723866430801716e-02,-2.398348975140063288e-02,-3.442807506801703193e-02,-1.420364569288601331e-02,2.794275464235949913e-02,3.769920993394984543e-02,2.791402230204222124e-03,3.232994075737290196e-02,-8.126745064118125195e-03,-8.736472357308101844e-03,-4.598009574961675616e-02,3.234458294107088461e-02,-2.749166338027186907e-02,3.369058498262558765e-02,-8.336440456065540017e-03,3.340472306356434551e-02,1.267991698404914887e-02,-4.870043254254018128e-02,-8.439129394373870441e-03,1.144549362834458572e-02,1.796704612787160260e-02,3.818827377113066107e-02,2.023193215272001480e-02,-4.005310391317422683e-03,1.218910716245735423e-02,-4.308313569906040141e-03,-3.708196436215981800e-02,-2.715519317532218146e-02,3.917293812346779591e-02,-6.139289750582185845e-03,-3.316774606290125160e-02,-4.248196200940610595e-02,4.897536852723154144e-02,4.366430492355743986e-02,-2.321180768069740566e-02,3.509884398909839109e-02,-9.597760640151081768e-04,-3.290854996438614954e-02,9.254113097492119855e-03,1.356360784454484214e-02,4.270564009253538518e-02,-1.774381532210363155e-02,-1.631877341214992699e-02,-1.495063501509989040e-02,-2.570792650859387782e-02,1.583706311308794024e-02,3.028920242530012616e-02,3.509525428400111363e-02,-2.002746546916295278e-02,4.115658814107132912e-02,-1.575179956868756267e-02,-5.518897209315849067e-02,-6.288817368314014722e-02,-1.443390002846969659e-02,-4.092328552551668941e-02,3.151167246251364989e-02,-8.398103266609929091e-03,2.708678734536115393e-02,2.478690441313120829e-02,-4.239424675645067642e-02,2.558322895548095777e-02,-1.704373669541967701e-02,3.165609890004555949e-02,3.003935666633830714e-02,7.067793074903037931e-03,6.046006920737069523e-03,5.258739807694978730e-03,9.757223825710349685e-03,-2.276680546387579301e-02,4.070969083172203823e-02,-3.207254550538195942e-02,-6.837709155788351811e-02,-5.119135230142593702e-03,-7.418302221029546110e-03,-1.562480890614631728e-03,-1.901655373172284752e-02,-7.054704167759272282e-02,-1.028572646015185194e-01,-3.655889331352334126e-02,-5.622124722965980009e-02,-7.420028042963890125e-02,-1.100904845420812017e-01,-7.247884925605627138e-02,-6.289423508957212028e-02,-2.042282269816190002e-02,1.252953877126467691e-02,-4.825142674815633553e-02,2.665157092590214605e-02,4.246233620113774865e-02,-3.863841154797321986e-02,-1.005273321369327955e-03,3.122193443054198381e-02,4.515255463986844742e-03,1.432022752717393432e-02,-2.040124636266513539e-02,3.946346429371139913e-02,1.919289603126761445e-02,1.319442903250450487e-02,-6.226895485899776317e-02,-7.720751216212747015e-02,2.136346215351252534e-02,7.071683678549114949e-03,-8.392913976089949601e-02,-7.716520351102754138e-02,-1.458660325990079609e-01,-8.478574078726165697e-02,-3.442842519861299966e-02,1.549937715287868882e-02,-5.869619935639221880e-02,1.550931829397617263e-02,-1.100211826670592988e-02,1.799418375229343628e-02,-3.287525654564087130e-02,4.265913493364201226e-02,-3.237331872529814608e-02,1.994011172196399895e-02,-1.230313322389486874e-02,4.482221096133696958e-02,-1.891633821649877506e-02,6.583308450781158450e-03,-4.073777563230632920e-02,-1.687685910794992084e-02,-4.473711720488181276e-02,-1.620312027130860200e-02,-5.377668931304663280e-02,-4.232877456310862874e-02,-4.259493627352153866e-02,7.767791220368813927e-03,-1.102831024374376356e-01,-1.638559809332700012e-01,-6.476012861189688052e-02,-8.567735712375683377e-02,-1.424933775955010973e-01,-5.565733922555228530e-02,-1.350076475854198044e-01,-4.167160209317917474e-02,-7.595164107260408970e-02,-1.292343189392169966e-02,4.186753448412143530e-02,2.285444103033631297e-03,4.669861374570680873e-02,3.896734899750751990e-02,2.446702925801095066e-02,-2.909430613418365064e-02,-2.852117841943006479e-02,-4.139069183131387913e-02,1.458948365162480998e-02,-5.331930171908902394e-03,-9.697052818101389859e-04,-3.962011801350243112e-02,-1.821500118904701565e-02,3.784517038923907589e-02,-4.639690549107348960e-02,-4.012390940387990795e-02,-8.644256569580540187e-03,2.128059560164059782e-02,-6.323898300700916963e-02,-6.996005588864991076e-02,-3.134850488390882040e-02,3.897472846379591762e-03,6.998483325411895134e-03,2.014785747325544343e-02,8.260644434715921913e-02,5.275077323798946921e-02,2.904796876797062499e-02,1.376932660172296152e-01,1.056955978933241530e-01,4.991671578696784545e-02,4.300879592872861729e-02,1.805854889743487707e-02,5.789701686929206448e-02,1.541617423499631358e-02,3.395355816687700007e-02,-7.841353960324169703e-03,4.032392489695366122e-02,4.398243772927261375e-02,2.295367340113029647e-02,-2.945309043571997867e-02,-3.900977195720556345e-02,-7.412566706912647463e-02,-3.642653921510553838e-02,-9.105343363473937524e-02,2.754523442194316274e-02,-4.248195795991595303e-02,4.563368879951487482e-03,-6.767181282605967685e-02,1.018999983964054279e-02,-4.546749344519799944e-03,-6.366664674412832181e-03,5.194936185572973653e-02,2.364051579124110125e-02,1.184608340059567673e-02,-1.037585625115287728e-02,3.750773211578519589e-02,2.500682426622758206e-02,-2.239009744071835425e-04,5.221165437984890551e-02,1.364182571007897249e-01,1.318865204503752997e-01,1.143775253576280460e-01,2.698561461314187213e-02,-8.199630186058171760e-03,-1.984831351640022057e-02,3.233961581871061530e-02,1.817424157279578720e-02,4.877252234476179421e-02,-2.837870359792456915e-02,-4.554913804349618178e-02,-1.419783498781188036e-01,-4.429037246073865008e-02,-5.576463209206504457e-02,-3.307007181125955902e-02,-4.611160688116312106e-02,-3.311363910449221376e-02,-6.450242537937916909e-02,2.631282945902221893e-02,-1.601459525293959241e-02,-3.916491604129365006e-02,-4.586283151506354711e-02,-7.358413209440033131e-02,-1.550386645476145575e-02,6.043189356625749270e-02,6.070563353049903549e-02,1.066083217748210570e-02,6.670935397972616032e-02,1.573021149755316761e-01,1.258504439901028671e-01,1.731703043945625742e-01,-7.101368703274654054e-03,3.663714164188254518e-02,4.529024937061447431e-02,-5.230133547690076629e-02,-2.469957265145691916e-02,1.868667095294044428e-02,-1.863775063674923821e-02,-3.440547262639282594e-02,-3.742781044882894509e-02,-5.544404780023121787e-02,-6.352645982036779493e-02,-6.855088211862182812e-02,-4.965957858233777805e-02,-5.104271970022587063e-02,-1.263668110035106318e-01,4.509095253614571475e-02,3.985675351870290178e-02,-1.420164269915981207e-02,-3.500992769769147028e-02,-1.001236430561775886e-01,-8.348773619541914603e-02,1.288967120924355315e-02,-7.550718850510862445e-02,1.435754602885780168e-03,1.313205771400872135e-01,9.033792820894569198e-02,8.816064973172388353e-02,4.738541632589530345e-02,1.226325720479095639e-02,3.576513125748045918e-02,4.854775370437316995e-02,1.094316812057852424e-02,1.947457706200128938e-02,3.123107610066743617e-02,-2.907656652343634796e-02,-6.080942310450496158e-02,-4.177911435304992871e-02,-3.201148161527989089e-02,7.508069733690305586e-03,-4.365964845731151039e-02,-1.207361080558155483e-02,4.701238876021934798e-02,6.362919889949358865e-02,1.554779507724414478e-01,1.581556310756181416e-01,1.966823014456008101e-01,1.385542965404897540e-02,-1.101980754563937209e-01,-1.110063104619696400e-01,-1.079762510204639731e-01,-1.766632250024405271e-01,-1.003921389206883508e-01,-3.917576921861969791e-02,7.633948101908154260e-02,-3.478701457060585076e-04,-1.164338497711072534e-02,4.610759331813676226e-02,-2.467008766938686565e-02,2.369757230676219906e-02,-1.332835453168592504e-02,4.054111794174639072e-02,-4.030064833672148544e-03,4.072753462838651917e-02,-4.815331053636355552e-02,3.863555857478814110e-02,-1.465849899372673008e-02,5.000549068910791969e-03,8.559213212274875693e-02,1.070620280664268814e-01,8.797873480435489113e-02,1.943045070724069845e-01,2.775964551341654762e-01,3.486241778571786964e-01,3.221903935468188318e-01,2.932511917883477356e-02,-8.784659835427335861e-02,-1.353763543202450396e-02,-2.012699145592116434e-01,-1.851946717636410167e-01,-1.556887369867913651e-01,-5.870868501974987885e-02,-1.773283008253359258e-02,-5.155302811485358572e-02,-1.767736335918082546e-02,-1.486581355327545699e-02,3.656628025108202285e-02,-1.951145082508648487e-02,5.101248757270790413e-03,-3.281168421969601900e-02,-1.897648586917988212e-02,7.852753119477702548e-03,-3.907250047903398395e-03,-1.244601614518262012e-02,9.438515401751747941e-03,7.395722841578890316e-02,7.824554387053966886e-02,1.059099699526273031e-01,1.373510648587558391e-01,2.187136481463179405e-01,2.579174330586681552e-01,2.735182641758800992e-01,1.556596365036142515e-01,4.335812097010150606e-02,6.256079383095095037e-02,1.554221852459296803e-02,-1.118103599470065684e-01,-1.572844813726790303e-01,-1.320295511709092262e-01,-1.130298489316004934e-01,-8.849866998779457039e-02,-1.747753353224809972e-02,2.048485019618803346e-02,-7.728389695763788168e-03,3.755926537438132595e-02,3.211061210372512242e-03,-9.314094528194774569e-03,-4.556412772222282782e-03,-4.725601892603288612e-02,-5.271065479445617014e-03,-1.910254561185000324e-02,-6.549691395067253064e-02,4.324405492378451121e-02,1.381806885563338335e-03,5.034050685372551404e-02,2.867255376805731559e-02,6.427972556754836531e-02,1.980820773421190784e-01,3.111787601118902735e-01,2.480524347071951519e-01,2.189678797255619480e-01,1.607496429395765536e-01,1.511238030841998425e-01,3.487362985005302077e-03,-7.321991721879080040e-02,-1.699984715483798814e-01,-1.513661571643673265e-01,-5.818529745872623449e-02,-8.083692920628518519e-02,-4.217445061558951214e-02,-3.003431508002669253e-02,-1.705655274327959672e-02,1.630851845991196369e-03,-2.773117708845737259e-02,-2.238574918710759670e-02,2.095977317829264552e-02,-4.235150852627866773e-03,1.172733971766813307e-02,-5.822946735987096639e-02,-1.107106172618994161e-01,-1.179400847190380380e-01,-3.416313628043688572e-02,-4.855685248019737769e-03,4.930934340124416837e-02,1.204407686778029146e-01,2.267167163310979949e-01,3.495728467542368323e-01,2.619560671879959668e-01,2.205083478433435829e-01,2.146188402952615149e-01,4.280698700945647500e-02,5.641536006264594172e-02,-6.479480583536369187e-02,-6.862701083299015126e-02,-6.019128198776012989e-02,-5.688156121457010189e-02,-2.337787661203729814e-02,-4.838725583437857025e-02,-8.736678470914973141e-03,4.146283385922681919e-02,-1.498484826822297361e-02,-4.019899940497189544e-02,-9.899462861797179991e-03,3.446454229134104930e-02,6.636814193361739375e-03,3.545154815531322001e-02,-4.532312769372698336e-02,-1.087407088820114831e-01,-2.616510206124162408e-01,-2.489944348976871058e-01,-1.456704203943237352e-01,-8.004988889340494684e-02,1.480368428718469281e-03,1.262716777179319905e-01,1.473610368072272303e-01,1.090739884278909277e-01,3.505125331719646103e-02,-3.405476281621904605e-02,5.711743811837028534e-02,-3.839071619471485369e-02,-1.266542835832334679e-01,-1.334748234996093429e-02,-7.596883515747658577e-02,-7.809975169994658184e-02,-5.561511344172179183e-02,-6.306581797602726913e-02,3.297190311883913677e-02,3.966840711557262367e-02,1.223716952698814669e-02,9.353735850829526799e-03,-4.893633633791250048e-03,3.298633599726347870e-02,-5.004956189416842963e-03,-1.962252439318678057e-03,-3.666340956337956619e-02,-9.897056742187725076e-02,-2.162127891739580865e-01,-3.109200768083451583e-01,-2.986639891993710938e-01,-1.745507576221587420e-01,-1.985686444576950094e-01,-1.280651480111055784e-01,-1.675165656835229250e-02,1.390190310529744629e-03,-4.149646814171983888e-02,-4.290239462252575658e-02,3.458684082192695769e-02,-7.296795163822131225e-02,-1.381598326192819692e-01,-2.690856719098531913e-02,-5.609510462861355684e-02,2.179631088678027611e-03,-3.646261168084193732e-02,-5.939937977220163812e-02,-5.282906041541336056e-02,-4.960982968958666667e-02,-3.083581321560561334e-02,1.428928868589621204e-02,-1.696417184266561101e-02,-3.726583168152949876e-02,-1.065542540508329639e-02,3.835409759291137470e-03,-3.050290289235465385e-02,-7.140708091565808879e-02,-1.178657690433106836e-01,-2.955621206321041861e-01,-2.930024281977809952e-01,-2.197692648264853998e-01,-2.253354499801876465e-01,-2.303242985886502781e-01,-1.307564829116147354e-01,-9.482727613133745681e-02,-1.402903052164879982e-01,-6.941616005251641242e-02,-3.399949831781049620e-02,-6.262991782306655264e-02,-7.827778018326506104e-02,-1.835433121866017481e-02,2.995234796507014689e-03,-3.653416182677818314e-02,-1.132309450591515582e-01,-4.477818862218521656e-02,-2.991133692998327112e-02,-2.454924401762113156e-02,-2.415253264199162045e-02,1.555822476472140670e-02,4.200108484298134548e-02,-4.047761399521392772e-02,2.713182726089954921e-02,1.978163169947580804e-02,7.376376280653637943e-03,-6.816100647081990704e-02,-3.500315276973885864e-02,-1.776939992388175682e-01,-2.339306924450092751e-01,-1.982323000191911766e-01,-1.996416146046924578e-01,-2.321617201654825324e-01,-1.481902813597441859e-01,-9.427971592222725294e-02,-8.744151979280241627e-02,2.558343094584874036e-02,-9.113021918994945042e-03,-6.845061845894178862e-03,-8.146565788010826439e-03,2.453632233648312365e-03,-2.856185053980142899e-02,-4.456085139037046366e-02,-1.045608358090209661e-01,-6.854789814048296848e-02,-4.078277560933406959e-02,2.734438332900039625e-02,4.113293587264868489e-02,-1.875352389404795483e-02,-3.583667549684191322e-02,4.618635492801368564e-02,-3.235396368728948868e-02,4.746181467819086952e-02,-4.889768903130990024e-02,-6.307105092049680728e-02,4.217536380095408301e-03,-2.858185024458330045e-02,-1.742541919588411203e-02,-1.176882903353498322e-01,-1.625888055211225092e-01,-2.169478942895273488e-01,-1.286573568171336390e-01,-8.174917817514787410e-02,-1.723174751962771103e-02,-4.554299046330378964e-02,-5.635852708305968961e-02,-4.628421548670778179e-02,-4.891769073606507673e-02,-6.448771047476692386e-02,-5.511349905491915585e-02,-8.377043292928101903e-02,-1.045986357177446369e-01,-2.103284562611886649e-02,-1.725042539995629703e-02,4.340370477194370469e-02,-4.737940483041325201e-03,-1.571212490659878308e-02,-4.206198399738680233e-02,-2.743829097550311638e-02,2.373390676240919039e-02,-4.278172462080468558e-02,2.655157375449688356e-02,-5.940518471505619458e-02,8.016943863105370494e-02,6.227405724721915559e-02,7.525698656534007824e-02,-8.040169240382577520e-02,-8.994153481033981268e-02,-1.179698310407057277e-01,-1.583486243525588644e-01,-7.768031190921181883e-02,-1.066605098280033609e-01,-7.953782742853164611e-02,-5.179011769191126102e-02,-6.973698913111718578e-02,-3.897507117287742073e-02,-3.315656509720114192e-02,-9.356771564676757968e-02,-8.382065338349414807e-02,-9.465290987583600824e-02,-2.075901574862512936e-02,-6.178194764091769070e-02,1.186075400427058675e-03,2.831344084873256561e-02,4.521594959374634903e-02,3.669394558295784037e-02,4.402799155026312222e-02,2.339635441447735983e-02,-1.357597634259000889e-03,1.784352814204826637e-02,-1.340868681063715675e-03,2.767847723866228085e-02,5.071234777699992063e-02,7.352325837962363220e-02,7.826568259456180565e-02,-7.032779831828392392e-02,-5.635342315878390240e-02,-1.104737647628303149e-01,-6.951845310136157974e-02,3.391828905183436049e-02,5.408975071450859706e-02,4.954208417675153020e-03,-3.064980896871493526e-02,-3.974997664969165401e-02,-9.059749476941103552e-02,-2.448747393858063601e-02,4.022903751119182893e-03,-5.568935113478880317e-02,-4.967893831493556955e-02,-1.546979194502526127e-02,-5.855481972732619333e-03,2.925356783621411993e-02,-3.723697831583371726e-02,-2.227931489604216900e-02,-3.570183605708610736e-02,2.032321265710833672e-02,-2.640541121317199411e-02,-2.151175811023415055e-03,3.638744242829880082e-03,5.416525670938004099e-03,3.096267744578615894e-02,7.777441406857008022e-02,-1.574856972438274522e-02,6.004195715834379637e-02,2.396911755718049777e-02,2.666780246883303923e-02,6.493306316358085639e-02,-2.785914151390401355e-02,5.876530078317802192e-02,8.939691448352411751e-02,9.134299078803403971e-02,1.171396944347878610e-02,-1.380331159826478880e-02,-2.082965211267543554e-02,-8.191111899022775547e-03,2.965753118589869314e-02,-4.114115080461621526e-02,4.151749134178255030e-02,-1.990085778251535556e-02,6.956320220823965228e-03,1.685753600673527142e-02,-5.263097890931711653e-03,1.969307517363962437e-02,-5.220995782137205672e-03,1.269559754974055807e-02,4.913480282426513357e-02,7.236699840631008462e-02,5.919179353661242066e-02,1.177580444609522964e-01,1.058953779860539596e-01,6.151582244609760108e-02,9.951548165074673713e-02,7.013053529115166607e-02,5.965733493699499485e-02,7.368338900871311548e-02,1.441238265153272358e-01,1.639517849283060325e-01,1.183519714812429485e-01,5.307594259734522285e-02,1.604506517562982607e-04,1.554858084177930012e-02,3.366082407276576455e-03,-2.238599049258816615e-02,7.397877028214645649e-03,4.743618980929292100e-02,1.278292948665026019e-02,2.482801585692080704e-02,1.824035065940644851e-02,2.172633931444598043e-02,1.692173445960624967e-02,1.269400559363714764e-02,5.240307688216693655e-02,7.894753437127761952e-02,7.606175001714879369e-02,5.933555344519068908e-02,4.125412798707891321e-02,-3.065536338727155048e-03,-4.449647578084566478e-03,-1.798557045211369911e-03,3.794076055855258311e-02,4.099300973029841588e-02,-2.956204528309109170e-04,5.617273658590047833e-03,4.806745938347745800e-02,5.189034991301313265e-02,6.892234581731118692e-02,2.892124800389201181e-02,4.122686753406338417e-02,-3.405131763540777956e-02,-2.466364632528579570e-02,-1.100756854003531737e-02,-2.633897423825035111e-02,-1.337981141429720258e-02,-2.120780249363917250e-02,-3.434155734895888434e-02,-7.047459856359059027e-03,2.029060979421010158e-02,2.832946436758722319e-02,2.023891968260770058e-02,-4.011025839443647933e-02,-8.679906048276384012e-03,3.389414291150943254e-02,5.609479098192692026e-02,-2.267464190845035199e-02,-6.865759779336010060e-02,1.338777830900855781e-02,1.202590744763711722e-02,-1.075302701071370257e-02,7.742166588489563482e-03,3.324793923281818987e-03,-1.281835044187422563e-02,5.332128242275445580e-03,1.198405712783746045e-02,5.601619241060584210e-03,6.061748391854590579e-02,-2.501446303700781155e-03,-2.991763439492242660e-02,3.608387470092987159e-02,-3.426601709260565509e-02,2.021389567242124971e-02,1.688346577847717883e-02,2.567231463987602880e-02,-6.805326290919656851e-03,-1.247771759284978937e-02,3.933948910068207905e-02,2.963325621183564296e-02,1.072617870336266266e-03,-4.427632409113617384e-02,4.192279562028412843e-02,-7.267673455801038074e-03,4.307827679155993780e-03,2.158166604711789921e-02,2.794190851177178261e-02,-4.178367436890868120e-02,1.890581528639989975e-02,1.572796478435344730e-02,-7.342158936263741553e-02,-6.921522653446574025e-02,3.314664285835520335e-03,2.244034967589414453e-02,-1.327087035996835605e-02,-2.181261468972215192e-02,1.044616868631304679e-02,7.605663499065076077e-03,-2.960248531006106146e-02,3.701855836329486643e-02,-1.627351611277340349e-03,4.538948995733192715e-02,1.045059311864381113e-02,-5.908351984642380705e-03,-1.453766209726027603e-02,1.645521965174914780e-02,2.356515795515551348e-02,8.496105346739293851e-03,-3.429056032066130077e-02,1.956774624078476410e-02,4.612506449928224783e-02,-5.050468589140870435e-02,1.744053841992296988e-02,3.119673436072229605e-02,-1.165433887212085663e-02,4.652074495341508228e-03,4.047601066844811607e-02,-1.403626481963437048e-02,-3.791878803149210941e-02,3.498116167183025482e-02,2.448901487870338168e-03,-3.171197926585851007e-02,-1.000638541994652332e-02,2.157665365560293771e-02,1.060537900052064067e-02,-3.988620920919822010e-02,2.902773398416286232e-02,1.991169386995286783e-02,-7.187677512914360245e-03,8.806826888531481268e-03,-2.663082763751763171e-02,6.146682866144045909e-04,-1.018035217860411429e-02,-2.100365060214922849e-02, 1.324119233964415610e-01,-2.457796612218181645e-02,2.119961585520863112e-02,-1.326689685328295149e-02,-2.593896578410238851e-02,-1.050585377368745688e-02,3.127168297202115310e-02,4.701420465514039027e-02,1.414397130938312153e-02,3.419918063461661883e-02,-2.551413697448080831e-02,2.874449296930350894e-02,-2.598301903678469638e-02,3.531594086808136079e-02,3.997009508373540465e-03,1.058831412180445686e-02,2.761893116226053768e-02,-1.190739323852225973e-02,3.337175676084867815e-02,-3.112349141369138636e-02,1.940281823997061506e-02,4.645131993893927835e-02,-2.328230600108943671e-02,-3.678919047205395781e-02,3.800128279137728049e-02,-3.287902699621488012e-02,-3.329219318042040548e-02,3.755416400228782370e-02,4.630541081587462304e-02,9.066620692829228945e-03,3.355777135625687135e-02,-3.239927657636461344e-02,-4.235581551475144091e-02,3.030674831473224862e-02,-2.676508719416885798e-02,1.501813811396567055e-02,3.334832624756976782e-02,1.372041187729659828e-02,-5.826691226567301540e-03,-3.159107787594186458e-03,-2.702963444863498710e-02,4.294400787131542885e-02,6.129623247654644898e-03,2.468766003887918128e-02,-2.142622441427126032e-03,-6.504957379642368337e-03,2.922713307987516787e-02,4.007783476964226627e-02,-1.459699627577080300e-02,3.134505299156878366e-02,-1.431964453421748218e-02,-2.872663328877427327e-02,1.357495252368315364e-02,-1.332735419041444075e-02,-2.160953757856650878e-02,5.909166784607532141e-03,-7.412248545368371744e-03,5.047766241112985885e-03,5.712140650752338400e-03,3.947024541179987300e-02,4.659015657977008673e-02,9.107597131462710771e-03,1.854956561021060824e-02,-2.360966764307103130e-02,-3.544562797547980149e-02,-7.558887509488410039e-04,1.137562247917871250e-02,-1.133833202731170803e-02,4.830156788551613622e-02,-4.494654302024635867e-02,8.620574944323989436e-03,-7.254192312837334615e-03,6.268331878047730954e-02,9.335415913737411808e-03,2.785597481199946976e-02,2.291862440051644842e-02,5.769718439210663047e-02,6.400916384858551522e-02,1.750307787142517044e-02,-1.050823649791461818e-02,-3.612670491944158704e-03,1.233452639869195983e-02,1.087289200338575901e-02,4.746228929868435975e-02,2.065131240777437482e-02,-1.329430552083421535e-02,9.880830889732877820e-04,2.070097860469405360e-02,-3.925673300340920546e-02,-2.369916513627244939e-02,-4.997859020296133159e-03,-1.901329999491215006e-02,-3.257384666318856314e-02,-5.684328771288295334e-02,-9.122423485873050464e-02,-2.660157964197343641e-02,-2.441981696590101239e-02,-9.726651912475523312e-03,-5.244835966504748231e-02,4.161354161909491117e-02,4.011787214462417261e-02,1.301815513626385923e-01,7.800019983257273914e-02,6.437240847689500167e-02,1.187370749404636910e-01,1.160857531477879623e-01,-1.909651787527425057e-03,5.211000270307496879e-02,-4.939799261759802995e-02,-2.933788663456641382e-02,-2.478369983239814278e-02,3.456058684251037127e-02,-1.577370058809728776e-02,-2.471261760382828174e-02,-8.599636872686944322e-03,-3.532023210330470508e-03,-1.928949997533143876e-02,9.307478997797180922e-03,1.933521681345860832e-02,2.315893222408193369e-02,1.502738554514595690e-02,-9.525537285697157491e-03,-7.675822660451732393e-02,-1.456851473995836831e-02,-1.944384443542398686e-02,2.324516695211281334e-02,-1.593777408789298286e-02,-1.884071073430776053e-02,1.100753188673190414e-01,8.401668339283679954e-02,8.438935134623257173e-02,1.710309668227994184e-01,5.967758886374144311e-02,4.011506882746909003e-02,3.367303485997043960e-02,-5.278056115986294074e-03,1.835684070921747221e-02,-5.910483121566651940e-03,-4.812115411184462316e-02,-2.732190337805081790e-02,-4.412244989565908271e-02,4.297795732524002654e-02,-6.976690666432083798e-03,4.273754181051464540e-02,1.708908731338910914e-02,1.313462161165819889e-02,3.749900318527576298e-03,3.985074266303825080e-02,-5.111721396362640946e-02,-1.238770631349911215e-02,5.602375580952431711e-03,1.902490174192825872e-02,-8.746246090434318943e-02,-3.899701189167768811e-02,-3.190737531804011679e-02,-9.846924413577663737e-02,-6.935588979407968091e-02,-4.718155586802622731e-02,-5.871418697049584495e-02,8.115475447954059729e-02,1.604294026222493064e-01,1.078812227933376861e-01,2.391512955595173628e-02,8.252030588189977756e-02,6.353252960163882634e-02,5.496488031500349619e-02,2.570624058155071556e-02,2.565940026017708361e-02,4.314440963632913684e-02,3.273317173982992490e-02,2.676820779105790193e-02,-6.407849508672458505e-03,4.677445653658360292e-02,-1.836063498686863480e-03,-1.483414469424694385e-03,4.019656927215512626e-03,-4.393645358911140580e-02,-6.081402937020607968e-02,-6.946400047945612555e-02,-7.659697196403213171e-02,-3.400375001198323310e-02,-1.593679147111176642e-01,-9.652992184233935569e-02,-6.118910902789204131e-02,-1.677557497676147313e-01,-1.946831211389389860e-01,-1.123891462280885850e-01,-1.307777838457662399e-02,7.325326372697546495e-02,1.969359629177785953e-02,1.590142588843983457e-03,-3.489595439408250260e-02,5.207393746941932355e-02,-6.984746717445639366e-03,-7.444803496980741987e-03,-8.522633053763842281e-03,1.762366241785373253e-02,4.082003958620464279e-02,-2.305784098225147766e-02,3.610410752785576938e-02,-1.760292084899701959e-02,9.868329363091652567e-03,1.659677606080466050e-02,-6.201989268981079884e-02,-8.398993098123781753e-02,-1.051451953936551748e-01,-1.449400819875782676e-01,-1.695171512274854242e-01,-1.561678790647580417e-01,-2.395472917879147567e-01,-1.628479224179126550e-01,-1.498636338488379127e-01,-2.284768160867179376e-01,-1.973151785206166409e-01,-2.060862935940973029e-01,-1.147527861727832138e-01,-2.000430517245828724e-03,-9.618386730497566553e-03,-4.662589305568958647e-02,-1.613514887226994918e-02,-1.401950284458675783e-02,8.530509770240715314e-03,2.795105807428662978e-03,-1.137570845676275089e-02,3.665711895772446466e-02,-3.850454963166539957e-02,-4.267933290026726389e-03,4.150406657072678446e-02,3.326100044130886335e-02,3.530195787239442939e-02,-3.426049727374413933e-02,-1.015090703617770596e-01,-1.964947557159052172e-01,-1.854525217026314898e-01,-7.538363045106258320e-02,-1.447794174684703949e-01,-2.318540767410068315e-01,-1.275375245347599718e-01,-8.878692024294798646e-02,-8.407185438077398321e-02,-1.009695966534788908e-01,-1.356806154775136164e-01,-1.545668539533771035e-01,-6.670909410206855850e-02,-1.309352237016712939e-01,-1.823375722010731892e-01,-1.929894999435161351e-01,-1.412191360119464389e-01,-6.016350894121372250e-02,-8.086478825958003103e-02,-1.363792599338818634e-02,-1.268897564661908284e-02,-8.706855337190247401e-03,3.248988540948478942e-02,-3.249260330173141254e-02,-4.031921966061304680e-02,-2.558887333559435595e-02,-3.474971754503541205e-02,-1.319671450353302189e-01,-8.595601957123417958e-02,-9.410710478019092273e-02,-6.333013729512049217e-02,-9.968247578871460013e-02,-1.161858814620920638e-01,-1.709865005623238676e-01,-7.594970530818249965e-02,-5.241460127493790394e-02,-3.219285623166606020e-02,4.509079122576933017e-03,-9.886072462214973156e-02,-2.608595672840100521e-01,-1.213441741668617457e-01,-2.433759928178350351e-01,-2.812680745091818424e-01,-2.885624788802333418e-01,-1.952784841646446334e-01,-1.091112615002007291e-01,-3.451362853946930015e-02,-1.512101840016631844e-02,1.339076057106885695e-02,-9.113358775795152300e-03,1.998493421143655857e-02,-4.250076332243128696e-02,-8.705721706062796370e-03,2.286050011120476649e-02,-5.183222555447221554e-03,-6.449507230302156668e-02,-5.052885075456226699e-02,-8.851466291785650697e-02,-8.484996561203717036e-02,1.023450439518874995e-02,-3.379662922031065331e-02,-7.637456285224751952e-04,4.896698065862971350e-02,4.036327489239236593e-02,1.198692492889575772e-01,1.293426254869521619e-01,-1.476889984131863343e-01,-1.789491630935258759e-01,-2.757565851310853633e-01,-3.488334206152443606e-01,-3.525247767894152395e-01,-2.244048564385528466e-01,-1.560927926168331481e-01,-6.860940153670370967e-02,9.891580014761768708e-03,-4.826504624645435587e-02,2.560941329218721987e-02,3.786273854222602098e-02,7.564589660477447075e-03,-3.575573440444271278e-02,3.153628024938798236e-02,-3.445095685281599623e-02,-1.909815499117568233e-02,-5.898968080801821057e-03,-1.619890262246660023e-02,9.295707386193795968e-03,-3.195017698537600676e-02,6.377790373012755254e-02,9.466534454798532575e-03,-1.111240648611752820e-02,3.664075500928965640e-02,5.940745059841282677e-02,2.189901716137948595e-01,1.293011660084124603e-01,-9.628997533687062849e-02,-1.548424429274394276e-01,-2.238424377108479968e-01,-2.325046004787979237e-01,-2.779987027288587931e-01,-1.592685469110465823e-01,-5.907051763805908767e-02,-4.781056872340466030e-03,-3.488618201706581573e-02,-3.292453225643559591e-04,1.040447001455886093e-04,4.155095968542046880e-02,1.969984888121287248e-02,4.684073970108090790e-02,3.033329772592005188e-02,-3.555421916742569632e-02,-4.028063755851080119e-02,1.307770811168116470e-02,-2.018224391711718330e-02,7.272521080755134371e-02,6.619322617761427829e-02,4.230433550488352928e-02,7.096063163994933976e-02,3.311942523233689373e-02,-4.884078927980069901e-02,1.322127525529283310e-01,2.598888814563473648e-01,1.254691221459212080e-01,-1.798959499128908318e-02,-1.558436083971747321e-01,-1.877519585558719006e-01,-1.644625615831970811e-01,-1.005497073143252901e-02,-1.801029727002771350e-02,4.037622236318848951e-02,-5.334418935734432793e-02,1.854315552305967063e-02,-3.531205736637069853e-02,-4.866815382607369428e-02,2.650674864353536053e-02,-2.016281575767295969e-02,-2.749196840355656868e-02,3.087367009586788197e-02,1.009758034589711487e-02,-4.535026652463786112e-02,6.363989448259642356e-02,7.219122981033243569e-02,1.179555403996666030e-01,4.001177432690478791e-02,1.850364214460982204e-01,1.803923246198082253e-01,4.437181986733367001e-02,-2.847042860048977844e-02,1.672362233985623947e-01,1.725034968121003653e-01,1.546427293847519313e-01,2.597415410496956359e-02,-1.097188660372474950e-01,-4.905719292359637246e-02,3.615448771006972428e-02,7.089181094248679649e-02,7.127124134830098434e-02,1.271551023301076278e-02,3.438081693108031855e-02,-2.404547427494412373e-02,-9.754934359927022475e-04,-2.100873629226183287e-02,2.953620507694566799e-02,3.912887070888869390e-02,-5.132804785725419983e-03,-4.853006556479027428e-02,-8.923839503716692739e-03,-7.697437478251355084e-04,-6.332624838830283251e-03,5.208181093661706784e-02,8.663533688827050605e-02,6.320218585873334238e-02,7.220900046716847986e-02,1.478358952072314492e-01,6.244805119540968591e-02,1.271742650849277435e-03,1.483549177938257857e-01,2.064057729309654032e-01,1.581720729936233472e-01,-6.769516861649156614e-02,-9.201065422367099220e-03,7.473459816707948844e-02,1.302833740090777181e-01,1.344323206468387710e-01,1.308326952372326768e-01,4.836251216770067612e-02,3.023012038231704529e-03,-4.984558712746058398e-03,1.977099799162687285e-02,-2.543753835819934778e-02,3.360501010862375348e-02,-8.138089479710675089e-03,-4.589804123440190120e-02,-2.772711457021240916e-02,4.449239394856055463e-02,4.617122085143517130e-02,2.951780233265324099e-02,8.354664635053206390e-02,1.006811620590324641e-01,3.923352064897130120e-02,1.658152316044588792e-01,9.116298285871664298e-02,-5.311383716977814695e-02,-4.584186815472262450e-02,1.677349543280113875e-01,2.238277727003147588e-01,6.533057870361731745e-02,-6.827512357381812502e-02,-3.481862022284210739e-02,1.022649520121448330e-01,6.756911859919198515e-02,1.845214440547390533e-01,1.399956594530358533e-01,6.788788329039804892e-02,4.361892719362629733e-02,1.538828568919254139e-02,3.365472539100099192e-02,3.022841383123969772e-02,6.696135676679745852e-03,3.122338370076055414e-02,5.483812073507302043e-03,-9.660957985020432806e-03,-3.820769438036604460e-02,4.006247540681819042e-02,1.037035695931362751e-02,-7.477262209015951566e-02,-2.626233273760127454e-02,3.986389562437005207e-02,1.080198827546985652e-01,-5.566469884693180104e-02,-6.650479727254908491e-02,6.805550929209036592e-02,2.262877239226964432e-01,2.291862719833104856e-01,7.080901381838626378e-03,-2.011836521083391616e-01,-1.285434052799155347e-01,2.134898588382438261e-02,1.131494203854568614e-01,4.166084505179035863e-02,6.875600046362026485e-02,2.754511579192957943e-02,-4.319570803214464738e-02,1.471315073817018593e-02,-1.632339235806312856e-03,2.662624505290648452e-02,2.893545240918231343e-02,-2.406304908936986175e-02,-1.331984586784486224e-02,2.513051758376733807e-02,3.396395364374442914e-03,2.876413981787215648e-02,-7.203785457201888898e-02,-5.053015117026966180e-02,-6.243620666195050239e-02,4.524818281005481974e-02,4.331410610903597622e-03,-3.126190429194497522e-02,-4.327391610302576408e-02,8.319244374837383993e-02,1.656616191529364235e-01,1.289730067115092138e-01,-1.054675353510650948e-01,-1.164860831221845167e-01,-3.778587623636898984e-02,6.739905150614872165e-02,1.425009620514213760e-01,4.828378090527521427e-02,-4.824982462788014043e-02,-8.143129376619259729e-02,-9.429166985392546663e-02,-8.246212934704483244e-02,-6.205909059828981084e-02,-2.093915092997211680e-02,-3.718060691964312353e-02,-4.155955734213345742e-03,1.645059108551664984e-02,1.065292809383494577e-02,-5.211404223112361955e-02,-5.370933758078957725e-03,-1.325709235766566463e-01,-8.064291711257595696e-02,-9.121329374157256809e-02,-8.662773741242063563e-02,-4.401238378412011126e-02,1.686714972698671183e-02,4.065672662112185948e-02,2.219745918460058060e-02,1.407322797243307499e-01,6.522185417790127282e-02,-3.644765648720934420e-02,-7.432090971161904071e-03,-6.803904301976122435e-03,1.120123589523554786e-01,7.488941056660773643e-02,4.961927092433515360e-03,-1.342718208578938532e-01,-8.360780904832627869e-02,-8.020140204018090524e-02,-5.271054134384316886e-02,-5.524752822998570123e-02,-8.331941218722639653e-03,-2.788304403032112674e-02,2.219648445075834975e-02,2.285437211305511862e-02,-5.024857631672136754e-02,2.211024022093690741e-02,-8.150069360344573688e-02,-1.030740251767705423e-01,-7.310225398584399570e-02,-9.534857062165756625e-02,-7.523560158423112099e-02,-3.425886712432071185e-02,5.298301710021954131e-02,1.115696436457180446e-01,4.275251931306602721e-02,1.329262147276351613e-01,8.596156065251479850e-02,2.285712379947535747e-03,1.016836325744184061e-04,5.872958359209825424e-02,-2.285303465036356025e-03,-2.890289871568002197e-02,-2.506620801206008164e-02,-5.644651270826457623e-02,-6.581527327764552515e-02,-2.098340313859445305e-02,1.842547327032736937e-02,1.334462466306759500e-02,1.054304604077345442e-02,1.524833375271082703e-02,4.883070707602138461e-02,2.523857491302809730e-02,-3.090433598531470635e-02,-4.181053577552468203e-02,-2.201320554654468548e-02,-8.750995121267567123e-02,-1.705473607242740663e-01,-1.622182511155483564e-01,-9.018796794958909568e-02,-2.185620687153902106e-02,4.503441667540527410e-02,1.379345706422401008e-01,1.403772832513268676e-01,5.953270798497231966e-03,6.663154994678657794e-02,-3.559927061790330721e-02,-1.586278017039480931e-02,2.731851037263213419e-02,-2.120342546275470405e-02,-1.307311849553795813e-01,-1.101342794884587611e-01,-1.202797486473500821e-01,-1.318094960220937695e-01,-4.665454647896857820e-02,-4.380245114579540272e-02,-3.933911101773258229e-02,9.562634203861278964e-03,3.891257074075112066e-02,4.927673831131572368e-02,4.837852931538451362e-02,2.010980491391390831e-02,3.911307504368963933e-02,-1.293572611188489527e-02,-1.126671329065899174e-01,-1.410813274955620977e-01,-1.253107355697843650e-01,-3.622569462248811933e-02,8.922153172922039910e-02,1.254526989373079826e-01,7.924129459965550959e-02,4.826691903130708033e-02,4.155055127052438568e-02,1.380668119114153609e-02,-1.154317397344847319e-02,1.623103923329246787e-02,2.688289693985803502e-02,-5.258544529517520522e-02,-1.040870237894113148e-01,-1.274822378767250797e-01,-1.233069896143827865e-01,-5.288540639953866196e-02,-1.137404231632481999e-01,-6.662381630282153411e-02,-2.453171117539224358e-02,2.558117236616466381e-02,-3.135709992487110964e-02,7.588723539664686546e-03,1.570885123334862798e-02,-1.533608903641767098e-04,3.565591444184806197e-02,2.620939139224106457e-02,1.482539139664027297e-02,-9.688498931332782671e-02,-2.796537752555868991e-02,-2.623782620524090295e-02,4.658228514372151491e-02,-1.241428227262256212e-02,-1.024120046716979621e-01,-1.981880491141320144e-01,-5.189817597156628354e-02,8.927093132225985550e-02,8.631270333982629661e-02,1.630467953115214141e-01,6.247918058970313576e-02,8.498179963237170384e-03,-7.020553138906306112e-02,-8.683837029785958228e-02,-4.777799376346870443e-03,-1.730346900304167296e-02,2.823061571574832923e-02,-4.029467192609947901e-02,-4.576833119076850753e-02,3.370950105639941574e-02,-4.331661872837571509e-02,-1.848282575317185955e-02,1.208418816932267659e-03,-4.031041903034337376e-02,3.649504453932973097e-02,1.729068413435286972e-02,-5.501475056318639451e-03,-4.859696912429520982e-02,-4.353020991253722660e-02,1.419637617358029437e-02,6.455588620898974894e-02,-8.030283596145247615e-02,-2.246257917427141593e-01,-2.381882932919180962e-01,-1.402586763433899264e-01,-1.526843604112700092e-01,-7.272057794413584741e-02,1.306899321954584428e-02,7.549011089501022481e-03,-7.900071596868377469e-03,-2.118250783582951990e-02,3.079658690495146872e-02,-1.338047193450294520e-02,6.323510967145526927e-03,-7.101461316139577942e-03,1.520111968123205766e-02,-1.196494817333021432e-02,4.294735492003030897e-02,1.225286211736916625e-02,1.794376083232947228e-02,3.542327008490035734e-02,4.760885235910829183e-02,-4.334503026833453482e-02,8.222325020486228112e-03,6.960518466809869796e-04,-2.889426491542117573e-02,-7.316855633494654884e-03,-2.338575263017736786e-02,-5.902857426197863355e-02,-4.662889495142563678e-02,-7.125171234428485934e-02,-5.575368396259996334e-02,-1.643261136866939198e-01,-2.320437814027673240e-01,-1.326476067818901095e-01,-9.638560564076138759e-02,-4.898588047174795568e-02,-6.159648883435896172e-02,-1.834719085241298328e-02,-2.500411009278839802e-02,-4.039200002423625618e-02,4.512162466845472120e-02,-5.548356964816887789e-03,-2.261499328190002753e-02,3.836122649501408355e-02,-9.868312992484071233e-03,1.530682532941449181e-02,5.848234662719956067e-03,-2.033306348131017766e-02,-3.260904214275706092e-02,3.549264805931569983e-02,-4.707355439527349805e-02,-1.169239459406771174e-02,-5.352415074825014885e-02,-9.039071015621121669e-03,-5.380265279937319206e-02,-4.799618395185305947e-02,-5.185532826757079800e-02,-1.071327291591225028e-01,-5.478191907633242486e-02,-4.683469043754445726e-02,-6.132619727604519261e-02,-6.170599226337834114e-02,-2.342551609520535441e-02,1.735765022104882385e-02,1.122544414337390065e-02,-2.481173091719698215e-02,2.008202544504723158e-02,-2.069855769305212895e-02,2.538561057773567470e-02,-1.710228060958807195e-02,4.773019544498024319e-02,3.895630428481983154e-02,-2.686180170062750852e-02,3.732786676707330886e-03,-3.703118492879418217e-02,-1.215483694221469735e-02,3.309735136505741193e-02,-2.433377264080125238e-02,-5.062059074251786667e-02,-3.364210722830332512e-02,-6.716339259364591252e-02,2.534179316556682202e-02,3.244801493618505034e-02,-7.253228037220730423e-03,-2.184480244141668095e-02,-7.086674940882038698e-02,-1.657922797432060530e-02,-2.580040463261654322e-03,-4.542151236481223320e-02,-5.176383245028613050e-02,3.181592283509093733e-02,-2.755225697692564868e-02,2.147910090871043079e-02,-7.652368988764906427e-03,5.575063365128534072e-03,1.185498925096974132e-02,3.743941114097090739e-02,2.468993933375185357e-03,-1.139666703423006938e-02,6.616058177891612213e-03,7.918753657621922792e-03,-3.808853632452877114e-02,-4.840127231359112048e-02,-2.600101176906686323e-02,2.402795030834181667e-04,1.118632018242769754e-02,-2.155923421237333770e-02,-3.178678623183606167e-02,-2.435556078237102393e-02,-7.224862264973142250e-04,2.650898233442802385e-02,-4.066862420226633607e-02,-1.768300955286739029e-02,-1.334449276021944415e-02,-1.849137082404119989e-02,3.306406486713200227e-02,-4.021582919868765815e-02,1.765664506836018069e-02,3.453988350129466502e-03,4.759743471384740576e-02,-9.904272394829612136e-03,4.188157999733053277e-02,-4.562067170223740864e-03,4.509073164377135068e-02,3.003314617356554750e-02,-4.511894025190918422e-02,1.256650162600882192e-03,-9.158689224636619441e-03,4.812225729485784809e-02,-2.055153473713468293e-03, -5.763159934978380472e-02,5.604774192456696280e-03,-4.437884448119647912e-02,4.676249150869660198e-02,2.654573303528078021e-02,2.391125032587952670e-02,1.522988555900009477e-02,4.277847851159544135e-02,4.668731997823118152e-02,-2.740432140502446767e-02,4.692956291555269721e-02,-3.905104940024176768e-02,3.508024065199807917e-02,1.214682713331729363e-02,2.329721461532882620e-02,-1.579380360033041247e-02,2.811525732924334553e-02,-3.828078692575932751e-02,9.039243252785857108e-03,2.919415108332497344e-02,-5.052159799781429095e-03,-1.278632597206568605e-02,1.174833646715502111e-02,-2.175665541715310347e-02,3.070952492451012317e-02,-4.103585044350058220e-03,2.911531628507166292e-02,4.982652945159908586e-02,2.760921161893957476e-02,-2.061173735586806569e-02,-2.926158510587688680e-02,4.445609893345080221e-02,4.816676103314791735e-02,-2.582399649840379230e-02,3.248853843223066529e-02,1.187963033955535819e-02,1.445916193459842458e-02,2.943169120151428730e-02,4.299782861920184440e-02,4.570055731906375734e-02,1.941525459153524077e-02,-2.886651020566809167e-03,1.458797212804364583e-03,-3.875908622468038356e-02,1.667781859509985184e-02,4.452352569629639684e-02,2.364282608892453313e-02,-2.928103606691509139e-02,-5.828293864055866802e-03,-7.987314353640764808e-03,-1.761277019704132751e-02,3.914393912034552780e-02,1.202554742872846694e-02,-4.149456920253452585e-02,-4.186950997841030336e-02,-4.860090634621842126e-02,-4.080422023857628588e-02,-3.878742622913612659e-02,2.725058079774926589e-02,2.543049574144273794e-02,4.278025795438099299e-02,3.029402964543688459e-02,-2.814668813152096036e-02,-4.907179983774199311e-02,-1.006485130955111357e-02,8.487522062301487702e-03,-1.286209233243098410e-02,2.429642900844390663e-02,2.686448150671400404e-03,2.842742311498884511e-03,2.072646943181200366e-02,-2.513183059043250234e-02,-1.841703800287214018e-02,-9.965436014591029165e-03,2.378158184823249074e-02,-6.213551375101052099e-02,1.530411644806854189e-02,3.631301871295191525e-02,2.663065973447548487e-02,-2.172711727958311426e-02,-4.248147902047458985e-02,2.802252693572571118e-02,-3.461267863407303802e-02,5.740263805863766999e-03,4.821995289574405874e-02,-4.646932729961636421e-02,-1.192798888528445733e-02,-3.889322512457715764e-03,-4.446387822265599615e-02,6.851788645519205079e-03,-1.068626151737618601e-03,-2.249724571610054943e-02,-1.150793212744313440e-02,-2.710702908183919985e-02,3.308077626687511152e-02,-2.108170721467919617e-02,-5.995317231492424629e-04,5.521244307008081088e-04,-3.963522953654790432e-02,-2.731800762319321063e-02,-5.156901687958943825e-02,-6.698524356974895622e-02,-4.394180791573010919e-02,-7.992957093398671276e-02,-4.222831962467573329e-03,-7.773073966547086600e-02,-9.903307464981694723e-04,-5.809971856560694481e-03,-2.546814313800932483e-02,2.474052932125860027e-02,3.381909283760280160e-02,3.896567957061597420e-02,-1.191050343625784519e-02,-5.530764906651365609e-03,2.815132841822981513e-02,-3.903853794136449840e-02,-1.668837728537229947e-03,-4.004589580400323007e-02,1.153723737080224188e-02,-1.914200554656715278e-02,2.061306378706049061e-02,2.668622736235622128e-02,-3.321460840266779457e-02,-2.360092735154364300e-03,5.004776592355717271e-03,3.211749392422792726e-02,5.770200487170528553e-02,-3.053662570500994926e-03,-2.495275264119835301e-02,-3.751631347571802305e-02,-5.928624439487333725e-02,-8.742023374451506068e-02,-3.005490353909918283e-02,-9.527115968887699127e-02,-1.395997007053794391e-02,4.972629925730220890e-02,-4.641179967739944567e-02,6.682777008665877899e-03,-4.716261532809212093e-02,9.226726747019207975e-03,1.739409133785871364e-02,1.880069450808793952e-02,1.839578783649244154e-02,-7.351411868905109726e-03,-1.827625587922986766e-02,-2.999652648382904532e-02,9.314643991159925890e-03,-1.430929009125731302e-02,5.269756962163658909e-02,2.351347668675079355e-02,4.033172733789790014e-03,-1.748388809359769161e-02,2.801633812632254444e-02,1.395835184436515150e-02,-5.061406308651114280e-03,-1.723392883526535940e-02,1.322168104177131980e-02,1.198710185622000463e-02,-1.059817895730084426e-02,-9.174909269947899293e-02,-7.774259295944534187e-02,6.397898760969024726e-03,4.145136140792572005e-02,-3.115580792916237182e-03,-2.072582033167918308e-02,-3.243638433390779591e-02,2.690349289932922675e-02,4.491379385290666243e-02,-2.468415030069311122e-02,2.008171255549782985e-02,-1.908248460536946661e-02,-2.135803893613206356e-02,3.204997602318852140e-02,5.645084801347542008e-02,7.186971360092639372e-02,-1.038247403930309815e-02,4.680531694179026342e-02,3.235405821671091114e-02,2.373416494643488389e-02,2.013284602565340239e-03,7.373838106247285196e-02,3.985123566460403721e-02,5.137061999140120350e-02,3.866579790121634636e-02,2.852338693259841643e-02,1.604786202087033209e-01,1.128480264909888786e-01,2.427234429053595419e-02,1.683027686255976138e-02,6.230420140621781983e-02,1.052779446905318175e-02,7.912723133020914401e-02,5.919309058927543082e-02,3.174906749515932214e-02,2.651515993396438842e-02,-3.211237159275803082e-02,3.272234130755252712e-02,-1.590776943191762188e-02,3.288369999502077645e-02,-4.277577767843677992e-02,-1.233370471909458164e-02,3.615824485128230070e-02,5.041462857151340904e-02,5.094167413705637248e-02,3.713618356954131745e-03,-2.100126634851970375e-02,-1.309598095557515211e-02,-2.725377479379396256e-02,-2.699276094250885674e-02,2.200710639240377464e-02,5.000494177129617690e-02,4.536957119248653802e-02,1.438372953100870710e-01,1.774569247689008478e-01,9.282133353948583687e-02,5.713101092025348222e-03,3.992343163676696088e-02,-1.033192450323482114e-02,-2.420701262452639238e-02,1.019947721018324427e-01,1.040512651254817539e-01,8.114734597576524211e-02,3.722554116671563523e-02,3.396221449901541678e-02,2.452040715706811994e-02,-1.353167607364258451e-03,1.457124254068117852e-02,-1.272887369025713089e-02,4.620302543282929497e-02,-3.630936385729355981e-02,-5.950054896378633579e-02,7.228833061621775871e-03,-7.688578912215768280e-02,-8.995592015950829023e-02,-6.462216345461453291e-04,-2.123218398313492933e-02,-3.344275334533827054e-02,-4.143317845857363152e-02,5.172825870873557635e-02,1.055917517328173044e-01,6.866539871607239831e-02,3.767200003464367397e-02,-5.183409770541115569e-02,3.746737337980556720e-02,-4.694000513297173771e-02,6.227285316935699672e-02,4.174564845240866240e-02,4.137658161916464572e-02,3.519124540695030279e-02,4.001770171058125630e-02,-5.620154368832396517e-03,2.197800786051861202e-02,2.590053397697476834e-02,-3.765205781337386398e-02,1.693017149831556670e-02,-7.270885453559206187e-03,3.473149690680282786e-02,-3.806066176414985014e-02,-3.386885649557060552e-03,-2.026640703162260054e-02,-1.667491192806304021e-03,-2.853726043625978703e-02,2.676748393465654477e-02,2.013319669975632831e-02,-4.429303848547100353e-02,4.240891099301528216e-02,2.193290411408869989e-02,-5.328184176361576430e-02,-9.002648762198037224e-02,-1.204845281811161017e-01,-7.777147614829456324e-02,1.140839361693305083e-02,-1.687414744100278544e-02,-6.338762284368112954e-02,-3.058151445020988388e-02,6.085135511114651667e-03,6.814686473614137152e-02,3.350087088118791634e-02,4.359606087105512284e-02,-4.054434968144322166e-02,1.303858167652970079e-02,4.857661775482113864e-02,-1.097772177347194553e-02,7.681422864757408292e-03,3.079106992427246576e-03,-1.901681199457053162e-02,3.403152801465181287e-02,2.064708571017246155e-02,-6.231595923609273280e-02,-1.591839846157159025e-02,-3.296278307641804101e-02,-4.011698783241800931e-02,2.266512640471533141e-02,-3.279513070106784053e-03,-5.814405838742515986e-02,-2.473160305621665764e-02,7.802107587620753237e-02,1.344284683559736522e-02,-3.961820601409521414e-02,-8.390154457375434416e-02,-5.899092101325877774e-02,-9.099727319559478000e-02,-8.938113445183793609e-03,8.043252627385743050e-03,1.029258943792024823e-02,1.194288449337584102e-02,-2.763518618519367892e-02,-2.069472084502224640e-02,3.424294356836077302e-02,-2.043027536033263994e-02,-1.451584062045015167e-02,2.779711137706330961e-03,-3.781026839805960715e-02,5.155008724080726787e-03,2.877445112984737541e-02,-3.744461876450973139e-03,-3.761049604887834602e-02,-1.566146498828210193e-02,6.806055311651504347e-02,9.705623361998561363e-03,4.068860359831596475e-03,-5.542976358768432303e-03,-2.448627220608172884e-03,1.395874384705315385e-01,2.020266824095182379e-01,4.075152960196070512e-02,-2.296273390465828831e-02,-2.483838336911808192e-02,-1.036999743415783701e-02,-5.221919134159102444e-02,-3.482708133381838544e-02,-2.904436459188911718e-02,-5.234230875211173112e-02,1.139153973986220840e-03,-4.887979987382852498e-02,7.973289960205368065e-03,1.280380396778703356e-02,-4.825731499200704155e-02,1.090986090395516805e-02,3.083666292540765061e-02,2.476094021214497384e-02,-3.705363104331803326e-02,-4.425844122288574711e-02,2.708248313524401485e-02,1.903207459858966694e-02,4.178076684154349851e-02,-1.401009710024849961e-02,-5.241659154117966207e-02,-1.367093249809894426e-02,5.041471106080843562e-02,1.074141500895795659e-01,1.834296809014205054e-01,2.373063517426299562e-01,7.829706660538919560e-02,8.583661667973847831e-02,3.294974603031482208e-02,-4.351304033063521648e-02,-7.237057114778340516e-02,-9.530155177064493499e-02,-1.160513497710277397e-01,-8.131062823740332901e-02,-2.165621852625919386e-02,2.446600348509031173e-02,-4.849225214115750193e-02,2.467517834288779355e-03,2.488077795947971071e-02,2.728491314101331999e-02,-1.607053220883234226e-02,7.974474214633589172e-03,-1.804783731641582405e-04,-3.079458326132029217e-02,-4.987847446016167169e-02,-2.521259825385724351e-02,4.936205878803550523e-02,-7.600776026929823015e-02,-1.262789172866152221e-01,-2.110466291997587993e-02,6.314838317766731379e-02,1.583518869944992302e-01,2.644510732919567730e-01,2.330846956404876991e-01,9.934082118519464710e-02,8.348213165531655211e-02,3.003857841443572860e-02,-6.380447838178884834e-02,-1.379579356099011056e-01,-1.463363721434006726e-01,-8.162431412267122377e-02,-4.490460206217327527e-02,-5.078835282403051932e-02,-1.026946361055156021e-02,3.758618143280224172e-02,-3.036643166603136823e-02,-2.399707890167005614e-02,1.199209460642573083e-02,1.713356147529447593e-02,2.548313496263188843e-02,1.512093670183976488e-02,-2.176451036291170843e-02,-1.095333875171650984e-01,-5.801345293744800125e-02,-1.962477772919330246e-02,-4.512896239024532380e-02,-6.580617414593603609e-02,-1.065256871900937055e-02,1.902171092006177400e-01,2.553136567074215102e-01,1.851589497503476067e-01,1.566234001384567143e-01,2.308195406177534006e-02,7.928144562994536224e-03,-6.434856236164773757e-02,-4.801603050540781403e-02,-8.190730348036179276e-02,-6.800973214937693079e-02,-1.068748576502910330e-01,-9.537281582739870131e-03,-1.830059285083560083e-02,-1.086331468924882880e-02,8.558331391375141248e-03,3.454763225209243893e-02,-2.677633502552110439e-02,1.752807946472166589e-03,3.596343354173843487e-02,8.445629223464813998e-03,-2.191732267788097308e-02,-4.573949995565457227e-02,-5.425382038859425521e-02,-1.131624172613916735e-01,-5.299756953299605833e-02,-4.631199211230624391e-02,-8.444472938790086036e-02,3.353821526793067387e-02,1.389452635526385316e-01,1.909082920691682339e-01,1.443249227097370135e-01,3.658681805509660795e-02,-2.023660957418862635e-02,-3.789181256825817096e-03,-5.639628611060192032e-02,-1.440831722652105573e-01,-1.563593374557520344e-01,-1.536649671652529636e-01,-5.494179878042532855e-02,-2.354090995213613605e-02,-5.304636060046110518e-02,-1.474746937420503765e-02,1.333341855142469549e-02,-2.629227094682072899e-02,6.042416924814442147e-03,-4.920970587034680099e-02,-4.692749487847842210e-02,1.039418447348820947e-02,2.333673898968733826e-02,-3.024474736630790653e-02,-5.119864124772542657e-02,-1.443395453605957890e-01,-1.404885672075831260e-01,-1.599722840920120293e-01,-8.523778912585598666e-02,3.189302920923553497e-02,6.168834901651113617e-02,9.496417992703352906e-02,2.185339424448929160e-02,1.891733069045493584e-02,-2.566998459979725686e-02,3.376158323617705487e-02,-8.855276719065650892e-02,-9.258379301863331468e-02,-4.571523470212747464e-02,-5.835035390735717614e-02,-6.278389267867387491e-02,-1.953946751736658841e-02,-3.204248361330759576e-02,-1.640670042802398060e-02,-2.857599050407828162e-02,2.960147112459428353e-02,-4.956986884553454820e-02,1.896162367463043175e-02,1.852547100197326352e-02,1.291358314589068773e-02,4.716611672184093523e-02,-1.232600890395800335e-02,-5.952577666984364135e-02,-1.266041837921569602e-01,-2.017978902608244807e-01,-9.204285923167303263e-02,1.447635623888336373e-02,-1.885848690553613288e-02,5.968969478941791446e-02,3.433184438996039062e-02,-1.211240725233080247e-02,-3.717057219381868921e-02,-1.644804264428200921e-02,1.036243168667697404e-02,1.176892755531517946e-02,-5.194101683365722616e-02,-9.048406780495328594e-02,2.401026885314042417e-02,5.722385502237387067e-03,3.562185684576792133e-02,-4.492703351643481668e-02,-2.917516502191879607e-02,4.390221193989801707e-02,-2.822532016716625819e-02,3.769166630986574285e-02,-1.068582326701283947e-02,3.680040859753562488e-02,-1.459267701020759700e-02,4.377073989192385717e-02,-2.730311567095170325e-02,4.771225925991248729e-02,-7.692304157665255659e-02,-1.322365221983433647e-01,-7.724583634177958902e-02,-3.902097389694979962e-02,4.894491906296324218e-02,-1.802756996329593284e-02,4.978892802045472438e-02,-2.685123681522271627e-02,-2.363200101913762174e-02,3.803458388628203762e-02,2.536349065089235286e-02,1.924414332589272081e-02,-3.863776676953921407e-02,2.171237721094465903e-02,1.316392594715218474e-03,6.815170056389441289e-02,-2.491835271032380103e-02,4.651006082611904360e-03,-2.504788307146530238e-02,2.276205858071103649e-02,2.481524803420384617e-03,2.144226567814565276e-03,-4.982161655476744638e-02,1.068568511357897858e-03,2.710155176985872688e-02,1.615935267741311007e-02,-1.756607621425994997e-02,8.028246452979172221e-02,2.639362912937836050e-02,-4.127613062475927325e-02,-8.389621907465708364e-03,-5.656150586649513756e-02,-1.023492105646599815e-01,-1.179583912028518422e-01,-8.069645531394900595e-02,-5.802354354200321696e-02,5.325018779724908363e-02,3.649423013845895839e-04,2.646196658436186788e-02,-3.824678355663433359e-03,5.106154846127439889e-02,4.683919165348199298e-02,3.813314420006762295e-02,7.118858403486534592e-02,3.566902467288358969e-02,4.749618019799677071e-02,3.654755698753963528e-02,-4.392155320625626413e-02,2.223805626145730630e-02,-2.971929701744000646e-02,4.976563933062332079e-02,1.961002257708558544e-02,4.024066390551007955e-03,4.874912714963666044e-02,7.003903982876179268e-02,6.558252121235294552e-02,6.319299038709055849e-02,2.050263346245648211e-02,-2.093534537672410434e-02,-2.489171425969179466e-02,-6.423292347884750064e-02,-7.366115765229122592e-02,-1.163743415856509367e-01,-2.805843656306017397e-02,3.479495463286565865e-02,1.063675157670288841e-02,4.560399323451954506e-02,8.552903852379412086e-02,8.768045455362780127e-02,4.314113123385444198e-02,1.684747589778307422e-02,-2.373223764664332547e-02,-2.197754246446315465e-02,1.769551280367671637e-03,2.358005101299845765e-02,-6.821892456170018833e-03,-2.054144247857277172e-02,-1.301201664947793102e-03,-1.055495938672496026e-02,4.932407508693942289e-02,-2.848127843165399256e-02,2.213269848165742848e-02,-2.744130347204565626e-02,-2.325203587159726387e-02,8.772201775337712393e-02,5.610707089780406220e-02,-1.326951561407281946e-02,3.269147514264653109e-02,-9.842065992700542443e-02,-3.708073450022183332e-02,3.377893884827898319e-02,-2.793099774523626760e-02,8.077364554405215558e-02,-6.849930908867815811e-03,8.223125077340799616e-02,4.415648549745543328e-02,1.210623956951151388e-02,4.309359630942612845e-02,2.576607189427445113e-02,5.810356966206337015e-02,-5.319271724280995838e-03,1.589273403986732293e-03,-7.641658640990867113e-03,-3.530135488994727566e-02,2.830881898621737114e-02,3.703929487551840816e-02,-6.744230474855159030e-03,-2.647447187383693279e-02,5.113341509224730158e-02,2.132603252439540381e-02,-1.606916020340363408e-03,-1.396039886189118923e-02,6.427682110854452888e-03,1.577789456452619423e-03,-1.126518407419641564e-02,-7.174174389893613057e-02,1.760561774417307088e-02,6.040171677118177235e-02,-4.596493109493716284e-03,-4.621268779359694046e-02,-8.687936757834595347e-02,-2.313695518674782278e-02,4.551939859174303216e-02,6.020937682500866056e-02,6.478520812254250083e-02,3.415201811173312896e-02,3.808391041411073735e-02,-2.636181355112237473e-02,2.779513753603369067e-02,-3.075283993603897953e-02,-3.998036741899273216e-02,3.204077933223700714e-02,4.558131291897568604e-03,4.645745073298720995e-02,1.965782634491516911e-02,1.084314855812301172e-02,3.912030966039826974e-02,-1.791994943372548360e-02,-2.273405138946173881e-02,-3.887131844784328522e-02,-4.549634640126967028e-02,4.744621207591991768e-02,-4.377280993348386939e-02,2.679176574915684630e-02,1.158268967437785409e-02,4.807115795848687645e-02,-2.817624276733204230e-02,1.324472320126491784e-02,3.212927798157626941e-02,1.030628764109341872e-01,2.446610898406112108e-02,7.888351835370482901e-03,2.460055254898898050e-03,4.928051412415993676e-02,6.604244748395593327e-03,-1.004551289830490912e-02,1.796861180017766263e-02,2.546457144619660579e-02,-4.284710518244397998e-02,2.529017875259917392e-02,2.403852873075330854e-02,4.080901031138084445e-02,-4.137765152490976983e-02,1.471671950790467975e-02,-2.578743181414706181e-02,2.992123576957943579e-02,-5.238898688609851945e-02,-4.534477602852219486e-02,-5.903822730161826376e-02,7.913979531669255302e-03,-5.870620013511933938e-02,2.284771688649127417e-03,-9.605902117825020070e-03,1.218549282527716868e-02,-1.103738474915171713e-02,7.634313786625381362e-04,-9.669367580279076418e-03,3.224399903665649270e-02,1.775607704335545670e-02,8.223994012335671122e-02,3.946549621994965840e-02,2.923457034630638079e-02,7.122383010842840007e-03,8.254040108838631498e-03,2.257145096282950347e-02,4.915751574710170574e-02,-4.648095640091054470e-02,-2.498236691694851949e-02,4.330845152077078541e-02,-8.065302280031140525e-03,4.818161703147784414e-03,3.477157088889813730e-03,-3.254245681085379815e-02,-2.360513108485172429e-02,-3.561331799262140024e-02,2.735752375575147000e-02,9.511454553541121709e-03,-9.033372456252884014e-03,-5.393655185243800831e-02,4.269636467928138168e-02,6.276061349057338035e-02,-2.025566580728387772e-02,3.131910303913972710e-02,-3.782327462222320746e-02,-1.338051982485021461e-02,1.647953958594746554e-02,4.536201660785239842e-02,2.262868041528705298e-02,4.250021596759525483e-02,3.979743558202698123e-02,4.029580441214511421e-02,4.154940841244117444e-02,3.028473879218473996e-02,3.886258882001861897e-02,-3.372066664985300111e-02,7.961689093527860028e-03,3.615255329147894214e-02,2.699963547515209228e-02,-2.447739089478168095e-02,7.376563578074160632e-03,-4.537034626337574372e-03,4.543371669484768532e-02,6.106004610576966536e-03,-1.006670369977339177e-02,3.102483189590879084e-02,2.934034351915006111e-02,-2.353687823958271197e-02,-1.937106789434737616e-02,-4.154587185062157823e-02,8.657264076465324976e-03,-6.465152054823374017e-02,-1.559830601465640211e-02,-1.889436955962521883e-02,-1.448645245291844789e-02,1.029521710123075702e-02,3.460640210539287463e-03,-1.420267202061939460e-02,3.613347258149923746e-02,-2.429985933261942857e-02,1.628224096083391581e-02,2.536468103235510474e-03,-9.273872963798113211e-04,1.855320533259256777e-02,3.393881899757307530e-02,4.775399726975125547e-03,-9.866821633290390192e-03,4.359238481583242730e-02,-3.572959884594072155e-03,3.835804111158021279e-02,1.182240395567839275e-02,1.678064209385943598e-02,-1.038136756258855112e-02,-3.936334261346722402e-02,-1.868081033957830900e-02,2.680095722591957497e-02,4.705278296339067412e-02,4.327812303746767647e-03,-3.610532000846095740e-02,-1.298349898891513164e-02,-4.587690463921673123e-02,1.331281398410382767e-02,-3.341163019962124087e-02,-3.327120379230850966e-03,-1.796366686608161234e-02,3.197519154610311415e-02,-9.017722343066386648e-04,-6.282728856585463595e-03,-3.517583950237970769e-02,-4.678994084011161431e-02,3.036989432944402212e-02,-2.158846156375450465e-02,2.305344988628128811e-02,-1.182997372469588721e-02, 4.732040893992076752e-02,-4.952987896606025203e-02,2.555171844388540170e-03,1.309849764244634673e-02,3.574352286980497784e-02,-4.719462148522803047e-02,2.357483648087042860e-02,-4.377664780610995149e-02,7.228245543270783724e-03,2.529681895525962010e-02,-4.501686750063310649e-02,3.928305128871557861e-02,-7.035342071973683942e-03,2.231782608970782344e-02,-3.741640884658797850e-02,1.519827366956247316e-02,-3.195044701595144143e-02,3.614451150623265718e-02,3.896477460581555807e-02,-1.253776011403117535e-02,-1.750797352561106468e-02,-9.744966160942891698e-03,3.338147116245521184e-02,1.936651666876842981e-03,-4.069496712562897800e-02,-2.449608055002352666e-02,-6.269359422648258795e-03,-1.020948352758428712e-02,2.378698538152734798e-02,-3.081003707994416432e-02,-2.548197462049591952e-02,-4.718826724802289985e-02,2.229313111512185031e-02,1.529775877916721150e-02,4.611050898700204403e-02,2.138661080933457193e-02,-6.841194064265906927e-03,-7.518369475195720020e-03,1.954696404365857676e-02,-2.633076523117325318e-02,3.627548848164809103e-02,2.720891839848342542e-02,-3.511175149441835702e-02,-5.061646381415671470e-02,-3.632308915282347200e-02,-4.634854714140265036e-02,8.515254371853651916e-03,1.374126420178063863e-02,-2.798836948568235450e-02,-8.926777475851667421e-03,9.607786154386940836e-03,2.471528570819289672e-02,3.196083789436938993e-02,4.917982173575514981e-02,-4.548023275925518194e-02,1.964218400820909316e-02,1.344945952082263196e-02,-4.632579305594498875e-03,4.312802952029251569e-03,2.407574586539963646e-02,2.363012229026037470e-02,1.235440108217034094e-02,-1.405198249220487861e-03,-3.819111760483095280e-02,4.081709795439612820e-02,6.285519940831887920e-03,-2.191156464847808863e-02,3.051838574384918568e-02,-2.234793278715107440e-02,-3.891487778124709529e-02,-3.861506840941519858e-02,-1.854937581773736903e-03,-1.527132611950633365e-02,1.191011581543669623e-02,-4.256770502635241760e-02,4.364201570780516098e-02,-3.277421698968588371e-02,-1.070303056171701891e-02,1.566914932651520750e-02,-2.980525782370481783e-02,4.046984706690001654e-03,-3.444933111983509294e-02,-3.351757155561227441e-03,-2.301567905406044778e-02,-4.516325026435939055e-02,3.975556537842575566e-02,-1.649683553870001651e-02,2.094786836625246729e-02,4.116327724842956670e-02,2.753158666607699590e-02,-9.914849869797626170e-03,-2.852852139344262683e-02,4.355422567382414428e-02,3.060884296471289012e-02,-1.623722837607856698e-02,-1.250277449470049013e-02,-2.703759394205727459e-02,3.435083125663130482e-02,-1.104756015069423107e-02,3.889734216195627620e-02,-6.474380010683067344e-03,-1.478159568788298128e-02,5.098223281874025847e-02,4.849324581094710540e-02,-3.379491817742418663e-02,7.503746083262638478e-03,4.614591972154750976e-02,5.395576518338895695e-04,1.976950704170255674e-02,-1.945678394221693822e-02,-3.506088317883026412e-02,-2.358367076486568570e-02,-1.038540187084589783e-02,-2.557977470777603873e-02,-3.914830400706569707e-02,-4.265912678968637739e-02,1.262077011334147847e-02,-1.484493838273237207e-02,-1.510597442588739250e-02,1.565132978034949537e-02,1.876807633689384427e-02,-3.907188291251440654e-02,1.386259953598529583e-02,-7.890096559783772376e-03,-5.978467799336221675e-03,-3.612597662894675987e-02,-5.842242555334598714e-02,4.362719818955567569e-02,-1.569059147999213397e-03,-3.622384819089571883e-02,-3.826520676948489547e-02,3.878518578828180075e-02,1.697107954501028693e-02,6.366516319989024009e-02,-3.118513346490178403e-02,-1.796972730889313807e-02,3.372433087444901695e-02,-2.541488582432391286e-02,2.231746535363504647e-02,-1.736680074252107409e-02,3.081420463378325980e-02,3.188292310269530416e-02,-4.484058684033836312e-02,-1.000309554378529808e-02,-1.501279330632263737e-02,2.037845508927853266e-02,-1.201635759580233463e-02,2.369353112407172543e-02,-7.710693489118697341e-02,2.343487654741780238e-02,2.448613052742765195e-02,9.246876442181287473e-03,-5.957164041242447167e-02,2.058973563786688221e-02,-1.833683681279539915e-02,-2.906457046635090372e-02,-2.049704753921884059e-02,9.220586102570184350e-03,2.541817173476639685e-02,9.623016190032910493e-04,6.309388660225170864e-02,-2.369863879297882600e-02,-1.807121711651310178e-02,2.244649688274756236e-03,1.286331154666543394e-02,-5.612558076034046550e-02,4.341138671326689319e-02,2.521619229385697533e-02,-1.916380961539172756e-02,3.319969785973443666e-02,1.462504462822478146e-02,-1.937490167256458382e-02,4.573776861852291847e-02,4.305782540896748584e-02,2.937151066266645294e-02,2.868532759926531017e-04,-2.996897047210842283e-02,-3.914614177091007424e-02,-6.632465798618987496e-02,-3.372942876279404895e-02,-7.304657772369603508e-02,-3.080720552605939466e-02,5.134422722893909607e-02,9.652348743648846152e-02,-2.255427413734153660e-02,-6.928691454555445210e-03,-5.721276537247695082e-02,2.709246495874175972e-02,8.406763367127905590e-03,-4.872006668754541581e-02,1.897482098480307577e-02,-5.579832300138515971e-02,-7.317239613398991704e-02,-1.758463662281185835e-02,3.072188782743911703e-02,2.723056335735702521e-02,2.451907827545633800e-02,1.263523183162867936e-02,2.167121882020089929e-02,-1.938868914241357114e-02,-4.028717753795452855e-02,3.011587456364391707e-02,2.106563069953193770e-02,-4.132824644414325940e-03,-2.471045327029103289e-02,-7.702051133934528088e-03,1.951638901931380607e-02,4.225104237138134489e-02,5.884351081035198855e-02,3.420441040360196888e-02,2.694926847151496094e-02,-1.368205785305205875e-02,1.645740536380221192e-02,-5.049529703630008248e-02,3.277907835402397909e-03,-4.560943364966114910e-02,2.420947006997385686e-02,-2.412923711338808147e-02,-2.354291278245040919e-02,-5.467622695104246144e-02,-8.824955970146498851e-02,-5.628131572017545242e-02,-6.288566984740162624e-02,-2.643346436415620199e-02,1.363764756423148242e-03,-4.191442035191639270e-02,-1.170767407781043989e-02,-2.884428002635087279e-02,-2.603734633047749894e-02,2.371303456693824724e-02,-3.237132989868049537e-02,1.953134006423833460e-02,2.714818152744859561e-02,6.892535619009003411e-02,1.690437939815775392e-02,-2.106264863287092212e-02,1.525148143606105955e-02,9.484866042457618107e-02,8.789830737601672661e-02,5.761536408716907975e-02,6.566315491551316663e-02,1.044264881759536349e-02,5.112113444675178697e-02,3.303498591536110918e-02,2.900293925268430419e-03,-5.152399762959006951e-02,-7.984094854137231689e-02,-4.181002054912520000e-02,-6.003547208528464685e-02,-4.012227144319315680e-02,-9.064512340498027954e-02,3.540484986665975997e-02,-3.328217157230936585e-02,-1.662348346633937130e-02,1.552625085616195048e-02,4.088283854791312927e-02,-3.563220978213508389e-02,1.090260123740623317e-02,1.818309882047959916e-02,7.885356974096008331e-02,2.954799108552707415e-02,8.021497005400128957e-03,-3.626481298302452333e-02,2.970484929236978308e-02,8.642923682518453832e-02,8.674591619543310650e-02,1.730633599677083162e-02,-4.718938251249600764e-03,1.119319397071152078e-01,9.087845142569020429e-02,8.758274598406855238e-02,4.746270089769055386e-03,4.991964374323867165e-02,5.061218401108236176e-02,3.831322654163236280e-02,-2.395776858257169656e-02,-6.255114081079533872e-02,-6.003941633610668932e-02,-1.364106907814675688e-02,1.897199489126533134e-02,-4.088994583930971594e-03,-2.106972291052752397e-02,-3.247429660521512079e-02,4.913447127933259773e-02,-3.189772771891456749e-02,-3.519442477633231373e-03,5.747792402805926987e-02,1.961666968832498706e-02,2.504119730609957739e-02,4.953636409624328357e-02,5.769036985818837976e-02,2.991353700364203505e-02,3.443986854788438218e-02,8.785666502210341677e-02,4.539433366704843237e-02,-3.816711252292802337e-02,-1.964994160158087949e-02,5.338925929993170588e-03,1.457054498915965057e-01,9.812057729214930524e-02,1.857987467444131013e-01,2.027282194583868435e-01,1.381362893616957244e-01,3.123056979945524475e-02,-4.453213703832944320e-02,5.418461020772379760e-02,-3.473324656089037121e-02,3.473127086481529735e-02,-4.757129558201081410e-02,-4.767947641724609720e-02,-3.443761253385574372e-02,-2.283972478292068189e-02,3.266227616238163295e-02,8.442017063013625144e-02,4.215993731067745748e-02,5.026225345243033604e-02,8.846612180180536689e-02,1.081809974888841251e-02,1.814801655798996272e-03,8.319804924720365646e-02,-3.099696016356767378e-02,-4.302562411295771105e-02,-1.135205979495274159e-01,-1.159600973926993850e-01,-1.321926015283109990e-01,1.167301896645672743e-01,9.187034578546442176e-02,7.937283912576817424e-02,1.155188678829920240e-01,1.684674988983667909e-01,1.557877882159678928e-01,8.777392247487515731e-02,6.088470479116022370e-03,-1.107126693307593397e-02,-2.716988189892603767e-02,1.022599496249407963e-02,4.624510359909929369e-02,7.873510358126133146e-03,-4.411766268995061246e-02,-4.882788733260904138e-03,-1.113948683711541744e-02,5.355457977355120025e-02,6.209191289150339105e-02,-1.229755804990063407e-02,6.135147749415129775e-02,-1.183411576459423957e-02,7.453369676234004870e-02,-1.746124813697541925e-02,-7.320142086788519742e-02,-8.339708001634751899e-02,-1.426372505955620928e-01,-1.528789024228653093e-01,-4.806223696427686792e-02,4.639529223536799363e-02,2.380873535890578110e-02,-6.970012695016611359e-03,4.046287957009090525e-02,1.617790176071735309e-01,7.897676424888684654e-02,8.810060980875415726e-02,2.668388869766912322e-02,2.079032752645485274e-02,-4.664216420500964105e-02,4.361443388178132957e-02,-4.470901387949552386e-02,-4.403676210441164612e-02,5.750786515923977937e-03,3.099784663768561516e-02,4.157147548889703753e-02,3.106171047495612930e-02,5.320055723548723636e-02,2.327768637032628929e-02,-2.546455672236298817e-02,-4.580970859176563409e-03,-1.001733157919842097e-02,-7.128378375457367078e-02,-1.295263275582900497e-01,-2.156643587108644233e-01,-1.927801474040821139e-01,-2.171116457276513201e-01,-8.115296914512883097e-02,-9.256122927706292303e-02,-1.021590978531192878e-01,-9.704925054221263947e-02,4.034520797866836261e-02,1.023238231538420862e-01,8.574020992239593519e-02,1.244481088987569456e-01,7.477470069262695529e-02,1.865342377104090704e-02,3.331885201238904155e-03,2.459721141078749854e-02,1.851559538546614092e-02,-3.857544295090387099e-03,2.616163913317784417e-02,-7.751389752062728955e-03,-4.458273434048089928e-02,5.988257343713222769e-02,3.513828227998352233e-02,3.867691685132398222e-02,7.915530351257704655e-02,8.023750657301884082e-02,-1.031653034693928855e-01,-1.826213640004480665e-01,-1.557220908708274176e-01,-3.017357592006669198e-01,-2.203284713716092136e-01,-1.603499456360619191e-01,-9.160768405519807700e-02,-4.243719374614797479e-02,-7.183137786190252339e-02,-7.429555654658037689e-02,2.604178728544326651e-02,3.144678654488296254e-02,9.573289048008833124e-02,8.507307718092903259e-02,3.983112881763419683e-02,3.137482073246592590e-02,2.856448904770239258e-02,2.402163175239134182e-02,5.069328460017785698e-03,4.353887198950300019e-02,1.163485394767010961e-02,-1.436913213480404267e-02,2.643462601200336978e-02,-7.446028565821555777e-03,3.878168448943457997e-02,7.557784702168263147e-02,8.147518701301158239e-02,6.207834794848082760e-02,7.586280762956639639e-03,-1.239489103922774976e-01,-1.509153230992421602e-01,-2.015797504466525780e-01,-1.793693446991858065e-01,-5.482128740976858344e-02,-2.565732749264593854e-02,6.214114866148028049e-03,-1.015124967622911961e-01,-2.284804405821944454e-02,1.058360366664654745e-01,4.933684622576392509e-02,9.051746313999296800e-02,1.336102363195434614e-02,6.226626603191130586e-03,2.791034750879106685e-02,3.990981938360412679e-02,1.073172714916499453e-02,-1.199663121292580958e-02,-7.608268695793160563e-03,-3.944228221361076314e-02,1.774113273936311561e-02,-9.003137059715584506e-03,2.539374277158074761e-02,-2.818174246624730386e-02,1.174661320441708900e-01,1.683237179035605990e-01,1.718018843577441557e-01,1.516305141006918378e-01,7.498267492093994846e-02,5.365695814185789114e-02,1.245329611862305147e-02,8.336549750402769826e-03,6.374600685548205414e-02,5.712803896817152810e-02,2.538027280100830022e-02,-7.614352642566454832e-02,7.759679086295895312e-02,7.994399801951140860e-02,7.060556227960360087e-02,-5.300061106381109659e-03,-3.684692541412911727e-03,-3.318806700573555951e-02,1.849458868585271074e-02,-3.143833571937248994e-02,-3.958132840045681944e-02,4.451224199971196005e-03,-1.044728694019077253e-02,-1.141673046534896763e-03,-2.475728757559050863e-02,-8.434500222586878773e-03,-6.516692031245298333e-02,8.824279935458185717e-03,8.986084599283146457e-02,8.504593651098539542e-02,1.721923452981212466e-01,1.048326668715412052e-01,9.445638939468860296e-02,1.047468535414822072e-01,1.380102747713519429e-01,8.893358255091614317e-02,1.542549262949730327e-01,8.068477107488823685e-02,1.126335574064425173e-02,-6.088636751271210568e-02,-2.673638865558393071e-02,-1.753786202737962763e-02,-4.983120520219003896e-02,-4.826547473519701009e-02,5.319318909573014960e-03,3.033768899345619038e-02,3.790357837339914521e-02,2.833705824564791698e-02,-2.247368203501244610e-02,-1.323993175941097500e-02,-2.499490889536984048e-02,1.038908933962177233e-02,-2.671310829659827996e-02,-2.171731121865930897e-02,-2.897503618618407426e-02,-7.029776522807656969e-02,1.160625623801216783e-02,3.382883403038653390e-03,1.189661760531419699e-01,7.377702368535422883e-02,4.554386142355883876e-02,7.017453175317167613e-02,5.936428263871527944e-02,1.299048015738661632e-01,4.051179743029332397e-02,4.469790790206629172e-02,-3.037557572518513951e-02,-7.164669621305710945e-02,-9.218426074837336032e-03,1.626094957067642302e-02,-6.147343503214290628e-02,-3.016357049882263316e-02,-2.812929747647933965e-02,-4.951472339540811951e-02,-6.051862070074086157e-03,-3.947719735166412697e-02,2.355086070922296493e-02,3.711681892736587440e-03,1.041806736085462010e-02,1.927641757920321719e-02,6.375915386450391881e-03,6.276362211038783410e-03,-5.472924248421238286e-02,-7.938772123389016208e-03,-6.185436490400821746e-02,-5.413525149993617808e-02,-3.845867494402233772e-02,1.921618343977040191e-02,6.181063160064546175e-02,5.900015617921831879e-02,-1.040442776529814338e-02,3.373780299544811706e-02,1.154445235434521655e-02,3.091715517010921316e-02,-4.703295375654907573e-02,-1.619252987609764993e-02,2.049848514826457802e-02,1.486294313221246232e-03,-4.802875253598749145e-02,-4.286268479005271581e-02,-7.381992005894448539e-02,-3.582711368930887284e-03,-2.976992277363801898e-02,3.536960336550477174e-02,2.669792218402258777e-02,3.855312889679136934e-02,3.965207769402004367e-02,-5.832641859674768392e-03,1.072613398607898810e-02,-3.481303251749692795e-02,-3.973742585078696848e-02,-6.333342458500137995e-02,-1.678499733053231621e-02,-3.512271169512580504e-02,-1.206104043644054200e-02,3.029742642465876878e-02,5.220194836907460223e-02,-2.596792655718668449e-02,7.957687321347274578e-02,4.217709234726772088e-02,3.158706905009348032e-02,-1.249651837960202155e-03,-6.696978073167676737e-02,-6.696959817779593593e-02,-6.072769576987762513e-02,-3.321221991681153063e-03,-7.797142424827441243e-02,-1.604687697835114821e-02,-5.178915725422852251e-02,1.346520181223425337e-02,-2.776331880531056340e-02,3.295680342741526270e-02,2.292841545950832782e-02,-6.193334417762957900e-04,5.437450066128036996e-03,-4.207762672471455911e-02,-3.172545812945901100e-02,-4.106777833738442518e-02,-7.180792545991429576e-02,-5.272019409120124595e-02,-1.715005047310600231e-03,-1.728759127540605315e-03,-5.059319854036078978e-02,-1.851924049492690780e-02,-2.083951054696967647e-02,5.837529552822433992e-02,5.998472826057039964e-03,3.532086759065184572e-02,1.485112511667558040e-02,-2.530187057451219190e-02,-6.484631177958601056e-02,-1.628617548117083647e-01,-2.989874506516688318e-02,-8.963505086042157510e-02,-3.916380381365368313e-02,-4.945618551278425923e-02,3.148969233663308220e-02,4.977154409359111492e-02,-1.682552885611551460e-02,-1.610763628711326875e-02,-5.813037201560468034e-03,-2.876858277756501325e-03,3.594196908143647284e-02,1.359341844699066271e-02,3.972304735431296530e-02,-2.929240478193165936e-02,-7.931187237857201255e-02,3.320061492002870929e-02,-5.842707102101460034e-03,-1.303194886852898637e-02,4.157903074789383313e-02,-1.853017789408620275e-02,-2.171105306059204279e-02,4.501092057731789081e-02,8.183112528146791256e-03,2.172822738390857780e-02,1.820577111561273720e-02,-5.657318955483889994e-02,-8.293783245146485461e-02,-6.963474098676283863e-02,-8.491831846811385975e-02,-5.657460126778882104e-02,2.897142438434959291e-02,-2.013867514903019615e-02,-1.563422256645190592e-02,-4.933916322511444630e-02,4.822338640801915668e-03,-4.077980340176150936e-02,-4.381563882699894552e-02,-4.704205361768431376e-02,1.625181346505084889e-02,-2.838766722775031351e-02,2.336231879874146530e-02,1.258646601661931978e-02,-6.627917609530641551e-04,-8.207874641017638695e-02,-4.210892816856624116e-02,2.575364529147025627e-02,-1.161751681167028268e-02,-2.627923725569787650e-02,2.009699437532564206e-02,5.317780988136513315e-02,7.816354791525130519e-02,8.599480465711330235e-03,3.249443328232588107e-02,-2.635801180904315255e-02,-2.324475429320439768e-02,2.663313191971286228e-02,-5.375100318706054620e-02,-1.337139622678783571e-02,2.517692261917894685e-03,-3.374075819509635144e-02,2.412355975355932533e-02,-8.406065974077199868e-03,-7.503740866411222343e-03,4.028412990950713812e-02,8.320540203578995209e-03,9.308039065798710820e-03,-1.899600215564879735e-02,4.587136658453726257e-02,4.494474093880783394e-02,3.238752970230891846e-03,-8.691393629961709222e-02,-4.844678236819782713e-02,-8.137982344680239066e-02,-4.854798409663054620e-02,-2.721420483531923964e-02,8.809941349320782322e-03,-1.727858946203221849e-02,6.319345549357917313e-02,2.071599506214467576e-02,-9.751152412139741515e-03,7.947067241742422627e-02,-1.793178872910193566e-02,2.263030160037900890e-02,-7.128106944706625800e-03,-1.750037452627872803e-02,6.868730134109654779e-03,-8.595805354827540379e-03,1.710000698298129104e-02,3.373418649830262073e-02,-5.111843486220494451e-04,3.182703505431346697e-02,-1.913005524392319412e-02,-4.077751377859563375e-02,5.450143576931833211e-03,-3.315493813138645218e-02,-3.870837571364400820e-02,-3.256082454162000095e-02,-2.296183645595438472e-02,9.403229919217333255e-03,-8.286765705496515130e-03,6.048173822398877908e-02,-1.511367792605358955e-03,5.281299307759772937e-02,1.656881092674728287e-02,6.176382488981537605e-02,7.033951976268836004e-02,-9.232358721907392776e-03,3.599161598127670336e-02,9.017185482847495104e-02,5.083785860526916778e-02,3.573120612735577323e-02,2.554776440064022297e-02,-8.560191518039055036e-02,-3.845947385383559347e-02,-6.005776224810542574e-03,-2.797456204572401281e-02,1.269274203745721953e-02,2.711151965232812266e-02,2.809108789186280999e-02,3.093161381615298910e-02,3.649674942463579375e-02,4.857602894642489011e-02,7.737798566206308126e-03,-2.816419875455681426e-02,-1.652132806643998725e-02,-1.943418177417243972e-02,-2.990672754862617327e-02,2.008070780146291659e-02,-3.715698816523108072e-02,2.235938333441399653e-02,-2.091227132437870409e-02,-2.930873368969979728e-02,2.374715826708250280e-02,1.352750267952892473e-02,2.476859795382320081e-02,1.784742528516855553e-02,2.186710130885486172e-02,5.801538753779317270e-02,4.235457126546191692e-02,-3.834402297074899352e-02,3.948215760941699293e-02,-4.014335562468835522e-02,-4.492081460929132214e-02,4.210632828682520784e-02,2.652752542076494691e-02,-2.290782980828722989e-02,4.780650609752921942e-02,4.416983718573569417e-02,-3.434040134736571215e-02,-3.969537602677863930e-02,3.955534701374389950e-02,2.858242616748199461e-02,-8.973346402450010917e-03,8.165718960076638611e-03,3.743754197261552064e-02,-1.997937000751084588e-02,1.135271678305609447e-02,1.688827367811812294e-02,2.626993758733963541e-02,-1.972636961624800022e-03,3.685812410609847628e-02,-4.046451101736416728e-02,-3.379052722310151025e-02,-2.590288388198851502e-02,-2.500395435712438399e-02,3.666190317697250872e-02,-2.826802787585195112e-02,-2.917738668074753433e-02,1.725776037836893040e-02,-4.807442248773191595e-02,-3.265183696670916069e-02,1.441735732754120813e-02,3.079849112468084626e-02,3.342282368720320140e-03,-2.668454862190191776e-02,-3.234423221917087643e-02,-3.838446328515045247e-02,1.070233022569455628e-02, 3.816660746766133150e-02,2.039898172481278971e-02,-4.052528528072069092e-02,-2.401893189686609212e-02,4.793843649398997486e-02,-1.698953125018233534e-02,-1.990684475620024818e-02,-6.830530756938985038e-04,-4.714974957088085422e-02,2.982223136494620286e-02,-3.467254038964794755e-02,-1.446367999368795149e-02,-3.497172348890029842e-02,4.702911531986667115e-04,-7.092539484416168771e-03,1.405304042763785843e-02,-3.162726104998479781e-02,1.672955628721527199e-02,-4.381997762532949953e-02,-2.487228345385089634e-02,1.908590616696970166e-02,-4.498051620823916713e-02,4.305209626421321878e-03,-2.056645602030139630e-02,4.922245925607025840e-02,-3.688110487707785268e-03,-3.195979218264810573e-02,1.223777987900204200e-02,-2.536967545676031138e-02,2.380740764227394501e-02,-3.129742612716160388e-02,-3.684578714607422700e-02,-4.383152065795067887e-02,3.878103253288327223e-02,4.998111146701059160e-02,3.532667746124522334e-02,1.678402101287893022e-02,-2.505260320356380785e-02,-1.838044560737083638e-02,-1.627698086601667149e-02,7.916910176999854970e-03,-3.347020446039043057e-02,1.717067364666440346e-02,-3.683480707852532926e-02,1.709848426033750562e-02,1.648390834392219131e-02,-4.078220979905181065e-02,3.204676402983092781e-02,-1.390805360223074105e-02,4.185252255420698897e-02,4.568620410121101982e-02,1.738762627650825010e-03,-3.281783242764906017e-02,-4.292425083106529704e-02,4.276451363758948521e-02,-3.945578971161987220e-02,-2.496497026307179651e-02,2.309614773624003858e-02,1.173728615543201403e-02,3.608990903899356173e-02,7.455942107015833820e-04,3.516037388261988861e-02,1.206668396036357505e-03,-4.528378052345691934e-02,-6.493990757086377796e-03,-3.285075485994374406e-02,-6.119725916482722516e-03,-1.651084938483042205e-02,9.859606267690710236e-04,-7.767062017711002728e-03,-4.146055224877623520e-03,-5.525760496066344646e-02,-4.585129615253760726e-02,6.354820140531182784e-03,-3.901104416879545931e-03,-5.586469544378575014e-02,1.429862906885408756e-02,1.709833164744478315e-02,2.630379308877402525e-02,-4.966670426201116179e-02,-4.023017983958021571e-02,-2.604041110418107291e-02,-3.898665564917663112e-02,3.080879297246634507e-02,1.706783035421817474e-02,-1.304763076764453578e-02,2.311320799696417461e-02,-2.440442048919502435e-02,-3.629876134620982353e-02,-5.637996256779263804e-03,3.144442747175200947e-02,3.769894364623061628e-02,-1.045740100741958042e-03,-9.151176029927250363e-03,2.212509450897644919e-02,-2.555034074867775992e-02,3.129122536330235932e-02,7.060916977623765342e-03,-2.787002086522840510e-02,-2.821690710968042734e-02,-3.456680170146742004e-02,-7.364117168320844994e-03,-8.410040021401547772e-03,-4.328868049561656467e-02,-1.444477386230642174e-02,-5.601450062762496074e-02,-1.019328150953345037e-02,-2.028859036210160782e-02,4.283324990302185553e-02,2.557605458007465582e-02,-4.964214254315511138e-02,2.392752147523995176e-02,-4.898371150802497548e-02,3.057060870567916699e-03,4.795126482916138577e-02,1.842841831321791191e-02,-1.253887915336404646e-02,-3.493724562570553211e-03,4.290459654574612508e-02,2.192713736599874799e-02,-5.298211151866093205e-02,2.564277012935712446e-02,-3.824848132690144425e-02,-5.150570464744871207e-02,-2.204515841208138163e-02,-9.128032971073669899e-02,-3.022264233973269085e-02,-5.062333465563445545e-02,-6.662336311394820298e-02,-5.501558368780679054e-02,5.317996472386137680e-02,1.239682924061444834e-02,2.658816275504876855e-02,-2.191465025394576452e-02,-1.383042359567150485e-02,3.794802787390923887e-02,1.721550091348996586e-02,-1.374300389311685841e-02,-2.386241614699925739e-02,-3.982399279585016605e-02,3.811376077696020104e-02,-3.042910422322355965e-02,-2.929216897894397834e-02,2.122727357248874180e-02,3.761528073734005106e-02,-2.312383730256474881e-02,6.779554281553180212e-03,-6.138688765589479096e-02,-7.192751656719955158e-03,-5.339012148465108881e-02,-3.047759538608547231e-02,-3.338353764715401573e-02,-7.358835972127550362e-02,-8.758169933580248201e-02,-1.155065663269078460e-02,1.677991523505249077e-02,6.822071312013971989e-02,1.029404524571495699e-02,-4.029152757145439134e-02,4.611568265322350813e-02,2.902119324426978217e-02,8.043123579498386022e-02,1.602056626419512755e-03,-1.666788220585150096e-02,-9.085487401486028181e-03,2.995253204971786917e-02,2.058804253500685563e-02,2.699054424590324047e-02,-4.548588890440979915e-02,-1.535752218866214686e-02,2.208991451522177019e-02,4.447464169305603843e-02,-5.958760919220628879e-03,-2.894512858382442683e-02,2.432676084029472552e-02,-2.739291306521641003e-02,-1.340768140025745334e-02,3.588495007407210141e-02,-2.918639881785474715e-03,-2.219094088750148130e-02,-6.904639804418148674e-02,4.441622811272256249e-02,2.730966951888548835e-02,9.164403256710006163e-02,2.803989138319043853e-02,-6.049800040863606045e-03,1.230208378330163374e-02,-8.682331546091215380e-03,1.091939449836095005e-01,5.419071986972542887e-02,5.260229828513766220e-02,-2.455714313814468322e-02,-6.018056239284184927e-02,-1.697463413829637668e-02,-2.667991070024342687e-02,2.155576190426359076e-02,-1.074880804227592961e-02,4.771181617751132920e-02,-4.170730620104569353e-02,-3.685724218881546166e-02,-1.099631414783355104e-02,-2.523160956727695664e-02,4.102032826621582196e-03,3.448027220555203304e-02,7.449998493982616654e-02,9.528698689218911833e-02,5.729830571002602485e-02,5.101848527849351528e-02,1.087207691082953259e-01,1.345989902314406184e-01,4.095565560975721053e-02,1.463206513831231959e-02,4.015292953736739751e-02,-4.572629313917895948e-03,5.878017698878178210e-02,1.009854441973162681e-01,4.867115893892381279e-02,4.586214048761849682e-02,-3.861463321746293198e-02,3.907176142011746164e-03,-3.921830745353007547e-02,-2.194056252028781656e-02,3.088853936882420947e-03,-2.360289956926777885e-02,4.357836769188522252e-02,3.089609946526097883e-02,2.508076007392229245e-02,2.955217263378194514e-02,5.727869773086459448e-02,8.619992602611092902e-03,1.118207214472735113e-02,5.375713641244584534e-02,2.378155316810667136e-02,1.010204526671544673e-01,8.571169662683465751e-02,1.009352277125406816e-01,7.423074492612245778e-02,5.126841687632827105e-02,3.519703719363474065e-02,4.989211544014997279e-02,1.070839864366206484e-01,1.432975846985905799e-01,6.142876792002138764e-02,9.794855008504811666e-02,4.607784040411127408e-02,4.981435875335416680e-02,1.164736788704482939e-01,2.762531436063449947e-02,1.037728237218223243e-01,2.652260853237187188e-02,3.708681947104796456e-02,3.767082819410663697e-02,-3.111884644958158586e-02,1.104575249576981305e-02,2.920967019520185823e-02,-2.861728203200082990e-02,6.933715243630951541e-02,-1.922508384119580097e-02,4.159602128475204524e-02,-5.964282083011127923e-03,1.070099493185810713e-01,2.678106298968323598e-02,-5.118945406221004496e-02,3.093615270204757781e-02,-6.688684637310682822e-03,3.203547344995949508e-02,8.418006480669235070e-02,1.827883990459259478e-01,2.418980241392394148e-01,1.485122537412551236e-01,1.022879406031470539e-01,1.666521280655140769e-01,1.218266989794696831e-01,1.497811175761795399e-01,1.136837161237811145e-01,9.547893878959287650e-02,7.591549872414071753e-02,3.777294614790321914e-02,-1.298152244330480487e-02,-4.148724412480268159e-02,4.597091817714081541e-02,3.570717016118735154e-02,2.507232063464803762e-02,3.125813222462826835e-02,1.519347215652762199e-02,1.155202334676539225e-02,1.064046037398445888e-02,5.420692262425760161e-02,5.833196662339407146e-02,4.076566853510617955e-02,-1.311273949580570204e-02,2.696902174171126806e-02,-6.641596886762218821e-02,2.510067013309787848e-02,1.095777825738638023e-01,2.032664171131900177e-01,1.656774475621516918e-01,7.526266910539250454e-02,9.523531512092139883e-02,9.851910318450303461e-02,1.227782314409088388e-01,1.119359722704860866e-01,3.412616034987512453e-02,3.444175245308556121e-02,9.511382612297866745e-02,6.271284675232867423e-02,4.240115648829334560e-02,-4.591833911033808835e-02,-2.497569946671691909e-02,-4.600004402017465743e-03,-3.731454905683034146e-02,5.786828261167871468e-02,1.704902070818616749e-02,7.585650303507532333e-02,-3.834165855207265911e-02,-3.982036053246133106e-02,3.285506498302575434e-02,1.138154757283878736e-02,-3.291908466538084888e-02,2.223811674994380285e-03,-6.114518431086957834e-02,8.437547263751474236e-02,1.655397486648048089e-01,1.752145723755403339e-01,8.348451250662555778e-02,3.553111875765022076e-02,-4.339207667768072915e-03,4.057409842860149052e-02,3.366575811350241282e-02,-3.732996750381380874e-02,-4.341897734207116923e-03,7.458650357059451452e-02,1.092227925214061118e-01,-1.979916012648665416e-02,-8.867475219543710999e-03,-2.533840520123575163e-03,-3.424397661088159073e-02,2.931971677433796442e-02,2.231788799593129036e-02,-6.361676043359180965e-03,-5.234233536622520319e-03,9.052459081840770819e-03,2.487875841245993855e-02,6.426383515073990325e-03,-1.123929794725246623e-02,-2.711526046464810685e-02,-4.586284319444119961e-02,-3.607165566481230351e-02,-1.399221050261971813e-02,3.295204345201639684e-02,1.117464368987682727e-01,1.962098232146967589e-02,-3.929293090075176853e-02,-7.702944029909349066e-02,-6.954303431725787632e-02,-3.168355638646565969e-02,-4.033177976856329450e-02,-7.204172478335760244e-02,-2.262334716232775045e-02,6.177664448327651464e-02,3.565332258622487538e-02,1.994025114079161012e-03,-7.862127951519121962e-04,4.478528766732451510e-02,-4.866595155080977175e-02,-3.881356856577145020e-02,-5.292057710276368288e-03,-4.540535957745205249e-03,2.081276860999183714e-02,-7.002213821756936123e-03,-2.879876624846464117e-02,-3.578320641952521808e-02,-2.756255602183962580e-02,-4.790721468871149413e-02,-8.582882875916070242e-02,-4.700836980988455649e-02,-5.880070517174790928e-02,2.866030454308995598e-02,-6.089305844329429875e-03,-7.050220810212232125e-02,-1.960265927433948729e-01,-1.572584674040237440e-01,-1.189361052129635499e-01,-4.602184685671799336e-02,-6.829802841829686610e-02,-1.879559321766145416e-02,-7.608151168883523115e-03,5.519505154537009128e-02,6.056831963711202527e-02,-2.307363380719195528e-02,2.002664403653747066e-02,-3.299633490903126909e-02,-2.216381606644934887e-02,1.745646001929944402e-02,-1.210533210183186575e-02,-4.381327264062016141e-02,2.720190171698643952e-03,6.411356172972523023e-04,-2.742562030396384146e-02,-1.289186947046896785e-02,-6.361418687987856202e-02,-8.095213727458079600e-02,-5.797948662476087173e-02,-3.725184853676575397e-02,-1.650990602742331004e-01,-1.130798545933793253e-01,-1.622139685174842916e-01,-2.167059158927293339e-01,-9.711905451891156282e-02,-7.780394467406752390e-02,-1.552591092387627658e-01,-5.702861084501904820e-02,6.669108724389553877e-02,-3.623559479358656743e-02,7.991096904127088785e-02,5.761826978664087023e-02,8.733525371993667435e-03,2.482587354660997780e-02,1.799532316315469171e-02,-1.732807090103356124e-02,3.077594785750997763e-02,-3.708888440480025139e-02,-3.125255773347597466e-02,1.155119134970596095e-02,3.890905719133375129e-02,-2.969055636374407989e-02,4.785418244252735709e-02,-2.606433600625025077e-02,-1.042532965326237737e-01,-5.226599620623324782e-02,-5.689585833296888218e-02,-1.726424836271674979e-01,-1.772526672529797509e-01,-1.940067530571387422e-01,-1.987155801487972551e-01,-1.698420430223172573e-01,-1.513641207763505858e-01,-1.301810268609493448e-01,-8.934436675138399120e-02,-1.824485091681242455e-02,4.842691502664825398e-02,4.984841230398910639e-02,7.411019296050776195e-02,5.090859344946201820e-02,1.422314501624546111e-02,5.229387955861297677e-02,1.762194766662400838e-02,7.605243694820212896e-03,1.938939991932379925e-02,8.741632776625637979e-04,1.695508034386655760e-02,2.582394486337471692e-02,-1.648129258718185677e-02,-6.662105626422068494e-02,-4.128501243552048887e-03,-3.019914031671249235e-02,-6.440429140331883906e-02,-6.834150286039348231e-03,-1.065013068823647269e-01,-1.018749213067502712e-01,-2.287302677983734656e-01,-2.264730318680742427e-01,-2.020477273460110357e-01,-1.568949731330822606e-01,-1.137159399957325401e-01,-1.592378019483989271e-01,1.240116307906305969e-02,3.455969685248026779e-02,3.473492942752112039e-02,6.164710564515165497e-02,-1.587650745595700977e-02,-3.451641559973364637e-02,-4.115410971715007665e-02,3.169208960420663579e-02,-2.738464803878376194e-02,2.912581202651684520e-04,-3.865630157120526766e-02,1.997912217741222574e-02,1.562546905353255633e-02,4.779748347647293227e-02,-5.277586837933258279e-02,-4.289401382552471970e-02,-4.355560683418409351e-02,-2.852795181508610643e-03,-7.489199982727974547e-02,3.341247367524063233e-02,-7.693106727950875523e-02,-8.299698638103709947e-02,-9.383577263705784877e-02,-2.235831476345776503e-01,-1.686114254522240452e-01,-1.628088814988407906e-01,-1.222703182449435128e-01,-7.679584245145130994e-02,-5.628399400410166731e-02,-2.599111814144572027e-02,-2.026539635170932288e-02,1.847320505999490436e-02,-3.321927897478104547e-02,-6.943188126240540381e-02,-6.031585597141569943e-02,-6.438208593459544826e-02,9.482653096246749028e-03,-4.949494714970124193e-02,2.417572850060306644e-02,1.796992072924466499e-02,-1.335773336472718953e-02,-4.211206358869205163e-02,4.633126433720093085e-02,2.346159066368808457e-03,-1.345438067550122846e-03,1.265073701009759161e-03,-2.251755914458561381e-02,-2.505889213469057394e-02,-1.042297107048800742e-01,-1.422170290191551167e-01,-5.776436124752816481e-02,-1.747244670937690147e-01,-1.886850545755238973e-01,-9.612376241734445215e-02,-1.389126006282278003e-01,-8.028611242569212714e-02,-5.996851249909369852e-02,-1.836286335801639441e-02,-3.782572578959344373e-02,-1.782153168070960136e-02,-1.289992240598280271e-01,-1.117276296789379147e-01,-4.088396261080594341e-02,-7.644294990184438698e-02,-5.024055257066274705e-02,-3.352889497070008634e-02,-1.074992473821655137e-02,-4.336390092269676311e-02,8.470786174897826371e-04,3.869738761936436858e-03,2.439946154257877087e-02,8.519643015758108498e-04,-1.811856062649937552e-02,-7.841111854173481166e-02,2.519556834202586401e-02,2.430213588608974226e-02,3.470395708141785218e-02,-4.328238081600793707e-02,-1.927651181090494353e-02,-5.295869408201417383e-02,-8.587147074127736424e-02,-8.335198919726483080e-02,-2.360962142146501297e-02,-6.004385644152156198e-02,-2.591906846842856327e-02,-4.997560679129797040e-02,-1.044335209127651709e-01,-1.062774146471929110e-01,-1.447784199040310915e-01,-3.043719550278953245e-02,-6.205890796987288682e-02,8.803858053382664084e-03,-3.405895929557598706e-02,-7.361415455543772468e-03,-1.563440045300609066e-02,-4.619056332945008919e-02,1.091450759593620701e-02,-2.581360268738119856e-02,3.031408155785501185e-02,-2.082340125566872063e-02,-3.232206916915920242e-02,2.469451401193266740e-02,-3.382569387255612153e-02,1.558413672564563576e-02,2.755078651519723976e-02,8.451086235797733437e-02,-9.602534896510316748e-03,2.094082256887636398e-02,-9.303710241576826009e-03,-2.909952590335281725e-02,-4.854454441869728715e-02,-1.252244567754594480e-02,-4.398412598502601627e-03,-9.891626254565799581e-02,-3.662141892480090533e-02,-6.897869179105503568e-02,-8.939358163297003723e-02,-1.167069014760138820e-03,-1.016910780767053477e-02,-1.942915767802560340e-02,2.065439947046439340e-04,4.877808964287717181e-02,-1.431334842094416498e-02,-2.229530708056646354e-02,-4.028400449005391931e-02,2.402623399799582241e-02,-4.761140430977674198e-02,4.021854973634349240e-02,-6.908213440946567307e-03,2.979027334362521415e-02,3.652208104021087420e-02,7.883770494240241455e-02,6.643215397713289616e-02,1.003592989634206345e-01,9.830935333888440875e-02,7.582589009306076044e-02,1.722514321581489552e-02,7.940542853598884371e-03,4.985362008744095158e-02,7.560192285419320424e-02,-3.236793638988259836e-02,-6.825881415859415269e-02,-6.158083336192993890e-02,-3.689737506954413743e-02,2.097381458201995168e-03,1.168750547931652305e-02,-6.546282940438492544e-05,-1.762259354675112244e-02,3.478617892792161548e-02,2.661972875596227417e-02,4.846902657330486031e-02,-5.727726605605831800e-03,1.182402165709424413e-02,3.109038808688878094e-02,-2.647458974411149094e-02,-2.454207199830155464e-02,7.328603024298091517e-02,5.251180259871193051e-02,6.134902746158057280e-02,4.364287379194391192e-02,1.641738078112872645e-01,2.111444610871120731e-01,1.506976510026132310e-01,1.128575825323207688e-01,9.585942728874040364e-02,1.349091213745695905e-01,9.296297287497642947e-02,6.515615901662996645e-02,-3.564828027790579654e-03,-1.858573468525819700e-02,-8.032497323472012618e-03,-1.715557063471198282e-02,8.463668490742749101e-03,4.117096784330928627e-02,2.875181164733689801e-02,4.661979586249075797e-02,7.255734622503838202e-03,1.815783800758222211e-02,4.476639658633752017e-02,-2.433356331394610772e-03,4.918590223952232221e-02,4.474043726673657129e-02,4.525636718014199034e-02,7.517929803272871414e-02,8.966816102167043945e-02,1.187075752032048376e-01,1.223612436998257058e-01,1.453198773633715135e-01,1.784275945493977167e-01,1.590724735964906822e-01,1.555446824379722315e-01,1.814957000893550609e-01,1.385416599868318499e-01,1.303287399071459962e-01,9.995844984234726616e-02,3.764035471455842718e-02,-1.941119515635736370e-02,-3.825116596691741089e-02,-6.314342842295367353e-02,-7.132456512903004309e-02,-7.248211997693052022e-02,-4.377059492422829406e-02,-6.254991429883247078e-02,-9.420744177503223918e-03,-6.116148214233417535e-03,2.531147799787819563e-02,-1.323305959140703980e-02,3.246982227702149837e-02,-4.569104882329252937e-02,-2.141787151212927454e-02,3.296411131385697940e-02,5.419954488056284714e-02,8.937335410535593438e-02,6.949176087971244142e-02,1.136657627403901277e-01,6.048893188016883637e-02,1.233367513151544248e-01,7.339695721543315621e-02,9.252767342930905137e-02,1.404396478398320935e-01,5.483815365618494031e-02,1.004411121468109097e-01,2.963633649786268087e-02,2.585021601850664985e-02,-2.451014424114487250e-02,8.350325706873580958e-03,-6.627034006526687226e-02,-1.210324172530603121e-02,-6.635385598341564384e-02,-2.780381231071235928e-02,-1.231095549859210873e-02,-2.140412591389042121e-02,2.000467223073097711e-02,4.081071028430256764e-02,-3.561079154742872316e-02,1.977795839429007108e-02,-1.619353538383551394e-02,-2.126811971988940009e-03,4.899454569659581621e-02,3.888375185497324610e-02,-1.940658943159512609e-02,3.903763153332229230e-02,8.501624640875826699e-02,1.130484501401639724e-01,2.882993271926972620e-02,4.492906212799830518e-02,1.421729197839582612e-02,4.563344962969191621e-02,1.028561300974215331e-01,4.042586942597057448e-02,-6.379917797251014912e-03,-1.539536809940018555e-02,-3.460981669224926036e-03,-3.057737046881724499e-02,4.581381804480778863e-02,2.036923578823592734e-02,4.216144161129442049e-03,-1.673739878509744594e-02,2.833197643066391342e-03,-4.950004729332211501e-02,4.037485347809773029e-02,1.448092941152646917e-03,7.605503168621394194e-03,4.228696377453280975e-02,-8.979080318657906012e-04,3.480759624444018652e-02,-1.513985768687471992e-02,-4.974105347266837007e-02,-3.112755394436256262e-02,1.363595163897168188e-03,-4.030065635140953929e-03,2.831843052942309077e-02,-3.150726464353217210e-02,1.787479905959944368e-02,6.016827852470916366e-02,2.163262812706635146e-02,2.570932916279601230e-02,4.149855710524951585e-02,-1.083083009844132763e-02,1.100896528817934920e-02,1.095427976106924141e-02,-4.454941403951347134e-02,1.630014803092625980e-04,-3.509523627138313312e-02,-2.706415763569100172e-02,1.685799860645610659e-02,-1.142041751840336405e-03,2.106214144481546868e-02,4.194705692156297516e-03,3.656970859542305052e-02,-1.730271668831765558e-02,1.668146782947214912e-02,-8.249840990308530964e-03,-1.738162612652330991e-02,1.351594197954686383e-02,2.332314218742602419e-02,1.424563699349705621e-02,3.525460364176646877e-02,2.519066682235375151e-02,-2.204874773925354428e-02,2.800294759244419118e-02,-1.371165600192639005e-03,3.881207603028414416e-02,4.572649708583999273e-02,4.239744272777010159e-02,1.585068961483974970e-02,2.357695490265749455e-02,3.933851034415214443e-02,1.848574724241891162e-02,-2.569843823984679920e-02,2.913673052455710913e-02,1.345746923153562369e-04,-2.175532273921753149e-02,2.482439968521579776e-02,-3.937728150081089284e-02,2.712755706259199762e-02,-1.130610287801695618e-02,-2.920666243147776106e-02,-3.086875175156847048e-02, -1.479452150547794220e-01,-4.561048319933710959e-02,-3.635205051283919853e-02,2.048028089681830366e-02,3.145647724644633214e-02,5.987135117951805641e-03,-1.493702772858471195e-03,6.485992002192041139e-03,-2.932773304704462680e-03,1.244896354179959863e-02,-3.102464540347798019e-02,1.576926465613529005e-02,4.984461320629805792e-02,4.175498757748073719e-02,-2.082883841132789071e-02,4.259264082801639262e-02,-1.214137213135556281e-02,1.905670069172128722e-02,-4.380316006369541770e-02,1.409648148270988000e-02,3.524474797196697207e-02,-1.003913757270392948e-02,2.306556859327568709e-02,3.933009657452943286e-02,-3.095339259923720818e-02,-1.204531213339823242e-02,-3.509107610116729559e-02,1.059241764498389943e-02,-7.464260644101182451e-03,-7.766799598977885966e-04,4.238030170409988473e-02,4.780899961056371550e-02,1.579118077499999662e-02,3.761329155569678728e-02,1.765581751523252751e-02,-6.114716474771672572e-03,-4.557701878755343605e-02,-9.771316124837961525e-03,5.259440160693441835e-03,3.377171652689883469e-03,2.107172964030966378e-02,2.468926749607636140e-02,3.742234270635238363e-02,-4.169042567072919064e-02,-1.428649688621212342e-04,-9.590047581423266285e-03,-4.163840693812342203e-02,-4.045041429506954223e-02,3.861621418137203832e-02,2.191564115286503966e-02,-3.085605639004932593e-02,-1.971216220533909130e-02,2.182690675454465601e-02,3.991116803667087154e-02,3.381069273844931888e-02,4.059481241000956198e-02,-4.431557050857984348e-02,-1.612406451415195757e-02,1.665493765962054729e-03,-2.550528166609788983e-02,2.697138083123554186e-02,4.260777434445355005e-02,-4.586127207965025321e-02,2.541127939946838388e-02,-1.446785719770032896e-02,2.895829291712830045e-02,-4.987681899365187244e-02,4.778484570516713936e-02,1.155731285300406856e-02,-4.187863767580521368e-02,-1.163995754101128204e-02,3.919847484042401214e-02,1.650885725179491699e-03,-1.705838320293907818e-03,4.808880141864776622e-03,-4.792635664629679021e-02,4.023667130814004983e-02,8.447601703904180498e-03,-3.957554638184788975e-02,9.979468569155690912e-04,1.204718753377736346e-02,-2.761657030086376446e-02,-5.021591157207697109e-03,8.205731360371261440e-03,-4.232054920241812290e-06,-2.462238365756007352e-03,-8.647107050036226261e-03,2.325231589931191223e-02,2.664111808225617939e-02,-2.420017998265687822e-02,1.998300391840077128e-02,-4.153479396046315386e-02,-1.721530075432408172e-02,5.782004655346281892e-03,3.062620778829811333e-02,-9.005373979417726285e-03,-5.357243579876857717e-03,-3.933547563320856366e-02,2.514941996472204455e-02,1.254045021578304537e-03,4.452198752147947663e-02,-1.031941429178766766e-02,-3.010761915746306208e-02,-2.943233566125143599e-02,2.794306450545729417e-02,-1.348276821150162612e-02,4.093713485898722859e-02,-2.364390039770239774e-02,-3.531982107263288012e-02,-2.031604061621374024e-03,-2.318966727286025931e-02,3.626593234255839904e-02,1.970712161031443199e-02,-4.132723708494954323e-02,4.068360795195677393e-02,-3.237575244405095642e-02,2.279254645678940872e-02,8.853175105247813523e-03,1.176203601818382426e-02,-4.020677361119145976e-02,2.522950701278654090e-02,3.082965026794049629e-02,-4.112837607562806752e-02,3.489067794556555135e-02,-2.779650283827957841e-02,-8.569953349002804033e-02,1.626629398678711147e-02,3.524045258484786308e-02,-5.474589583207091492e-02,3.421251333848527448e-02,-5.499699173172793720e-02,-3.458173942498055792e-02,-1.289614565097045931e-02,1.242474538626991455e-02,-4.858451273381192426e-02,1.750334725008803258e-02,7.980177619369052330e-03,1.935058478503477383e-02,-3.013450519055254143e-02,-1.741280648587489183e-02,-3.433941176899416720e-02,1.666064716387337385e-02,4.729493677387494599e-03,-1.487704849443623883e-02,1.296028130401664751e-02,8.901418249791090073e-03,-3.736993061615415807e-02,9.977741910413699331e-03,-5.268288934116831246e-02,-5.910081970693761150e-02,-5.659158496984607878e-02,1.842027624598099531e-02,-1.594021148257750153e-02,-4.784445774839508198e-02,5.159655210199615150e-02,6.678751332987503675e-02,8.060937046461458255e-02,9.449885716040379302e-02,1.244464146684462202e-01,4.359825773310391228e-02,9.567309753387369387e-03,1.500788431460069877e-02,-4.495738491468044204e-03,-2.773179738978085937e-02,2.697695321129570372e-03,8.914037059901454979e-03,-3.589673867980995581e-02,4.614856628042789816e-02,-2.787755599003820597e-02,-1.427245196427142510e-02,3.927736195716514944e-02,-4.642606927630793523e-02,1.146781031613620591e-02,4.883612962572854432e-02,1.409415253423228166e-03,-2.557956717188515638e-02,-6.454222133088498292e-02,-5.319213396089339518e-02,-6.099654612140443730e-03,7.643817228790260841e-03,4.028430017059165397e-02,-1.333552241995943945e-02,7.134387162001635044e-03,-7.703213593468104248e-02,2.211339679668879871e-02,2.855949053259849296e-02,6.680945705483919139e-02,8.987507976916521424e-02,3.928582842883553833e-02,3.386445100529426183e-02,8.335025133203670389e-02,6.090586973411327848e-02,7.523889280707611593e-02,-1.967748875703257891e-02,8.321858536405359053e-03,5.552239704865828684e-02,1.045007715873513821e-02,1.972040876281092037e-02,-3.654979905132763052e-03,-7.380548839389122241e-04,2.255619297671709704e-03,5.716752856618267931e-03,1.632853205720996570e-02,-1.477626416787321609e-02,-3.922355872745223598e-02,-7.530219793304226972e-02,-3.776786654391818803e-03,1.130243707916946463e-02,7.124484226569990572e-03,-5.459493304350854920e-02,-1.748059010323250451e-01,-1.506790891619806116e-01,-1.828914996852428199e-01,-1.764156304643940132e-01,-1.237988923077470438e-01,-4.646150970071258324e-02,1.300022982166488747e-02,4.053202825216230959e-02,5.845043865242166570e-02,3.930082796921430255e-02,3.708765721206978144e-02,-2.265827088350567259e-02,-5.730903829179113257e-02,-2.884869557235745716e-02,2.183953701760900715e-02,4.610986036178493785e-02,2.031767450210222870e-02,1.558562319435088397e-04,1.263614990914728106e-02,-3.419988679216771910e-02,2.301820343559287871e-02,-3.880415337271368725e-02,-2.129181688517754745e-02,-4.461716570981683061e-02,-4.651281056397731789e-02,-4.186876938386315666e-02,-1.647075671107386605e-02,-1.432632721862701353e-01,-1.442110253158399025e-01,-1.488848820356280800e-01,-1.442658085052930250e-01,-1.340718718637948781e-01,-1.154500361390208563e-01,-1.583692810512726257e-01,-1.292276313866406838e-02,-9.051685683635719501e-03,-1.082276981651129379e-02,5.327677215048985671e-02,6.157934536340308601e-02,-6.649453320784737276e-02,9.621033779386454002e-03,-5.032673501879440445e-03,1.258890028451362109e-02,4.423792495727728313e-02,-2.199911731725975872e-02,1.146913555878340679e-02,-3.878256300005334528e-02,-3.581491559976310302e-02,-2.568474524863608582e-03,-1.087988349891492491e-02,-1.012782166622668290e-01,-6.571389373910577203e-02,8.847514376293821956e-04,-4.042160631156618139e-02,1.723326768169991530e-02,-4.640169024349113241e-02,-1.548871475235823886e-02,-1.011963927059535001e-01,-2.100559196700091391e-01,-1.047094925967464035e-01,-4.929874353471309228e-02,-1.464166784040043801e-01,-5.042983693788138932e-02,-3.269666283235516530e-02,9.899809719175842182e-02,1.057616938148185359e-01,7.632339982939477518e-02,-2.439405972367479029e-03,-6.496195934115765735e-02,-2.761169784939691840e-02,-4.731385488408215712e-02,2.950046880649501158e-02,1.565354759222020026e-02,-1.366235775854506441e-03,-8.365820809870272434e-02,-4.515803372779658709e-02,-2.376661826097398872e-02,-5.561048767200257176e-02,-5.298752687511271847e-02,-3.677028642090605232e-02,4.160992260787214903e-02,-2.415032460929585761e-02,5.605372697804207605e-02,1.737060049615100910e-02,-8.051739778192418262e-02,-1.954211483097380575e-01,-1.728279467227948341e-01,-4.243204608689564450e-02,-9.240153437486953170e-02,-2.709525988964693599e-02,4.112524315668740493e-02,5.412563032213012909e-02,9.450769032627075183e-02,1.422868397407785201e-01,8.187282740034702855e-02,9.715781662224851067e-03,4.457686739709618151e-02,1.492108641121049455e-02,4.085617988990396243e-02,4.003715188877468578e-02,-1.414787356406040780e-02,-2.716646651319260756e-03,-7.545176702478785524e-02,-3.497653222259148459e-02,-1.552091339220725702e-02,3.828238912542934053e-02,1.413293468173079138e-02,3.018177367814891404e-02,7.351372846994244648e-02,1.503738501116514900e-02,1.185622697811525572e-01,9.258002550131738673e-02,-3.151099525672593216e-02,-1.604356494645513553e-01,-1.382496547127428366e-01,-8.253375686469877071e-02,-1.290203181278790599e-02,-7.160393653947923209e-02,-1.149278578610568938e-02,3.056850323628123103e-02,1.097832117750707943e-02,6.819260524172737759e-02,1.640402360365101481e-03,3.903457432181640929e-02,1.426197275812535713e-02,1.429247858069704856e-02,-3.505003544926119791e-02,1.700207556922748997e-02,-2.339919629328554226e-02,-3.893180718151449671e-02,-4.274651493651956957e-02,-2.899787625906400171e-02,7.888490100626700807e-02,6.972877104333313758e-02,7.829999391207070891e-02,5.409430263112145060e-02,2.188950760619085348e-02,8.223623308660867048e-02,5.963288320631388029e-02,1.619156638486458910e-01,4.759321708806349416e-02,6.922197090533781585e-03,-3.116527026618119700e-02,7.718661554936713520e-02,-6.434944078442819682e-02,2.827372945993221563e-03,-3.400416040424340119e-02,1.638827241866491410e-02,2.498799185586297530e-02,6.624918776991706171e-02,2.025954183693957564e-02,-1.414198429658768304e-02,4.493643068066303925e-02,3.806319119355378033e-02,3.269455084493937125e-02,1.655984438442795192e-02,9.991892243576362687e-03,4.461509498073519542e-02,1.166595378315300399e-02,-1.230863543713504784e-03,1.891363100236300235e-02,1.064663047120666117e-01,9.816295303773309167e-02,6.247632212828477249e-02,8.883909216756566418e-02,4.663109992041486462e-02,6.227134641642178420e-02,1.109546128041557778e-01,3.746793995612034134e-02,1.567136974048894890e-02,1.273153335737019394e-02,-4.558935985696035281e-02,-6.026251454728457496e-02,-5.719459097287324378e-02,-7.953413699261364933e-02,-3.730302123867299674e-02,1.167131675351176651e-01,6.781392647516693017e-02,6.137440556452272711e-02,6.286725596699228868e-02,-4.744143771612449600e-02,3.642306317256128328e-02,-3.308904878353345624e-02,-3.013623540832417735e-02,-1.752434670815352508e-02,9.561818502587179913e-03,-5.130660628272717960e-02,4.432545920104742632e-02,3.864812257447811095e-02,1.405827105933142029e-01,1.217654485775054446e-01,4.301561099486111289e-02,-1.209309094775855645e-02,5.328643588015937252e-03,6.502219526348458623e-02,1.106602774374525894e-01,5.452068582249888773e-02,4.759205823947823544e-02,-2.748806307712723263e-03,-8.381394786655797791e-02,-7.807701542438796882e-02,-1.160467110516355121e-01,-8.034914024904189767e-02,2.237187710940042457e-02,1.033120752324502289e-01,2.993066046757578667e-03,6.269933918917057480e-02,2.810223304991909393e-02,-1.435662536940423596e-02,-8.906282071344754497e-03,-3.054803742879337591e-02,2.726735265613421111e-03,2.951353491720419553e-02,4.003446927825667079e-02,-1.384860004170267514e-02,6.158533632099833649e-02,2.072677724710389555e-03,7.728234144883576462e-02,1.679624756375878714e-01,1.724474216226940526e-01,1.062264066065425339e-01,8.326203453915503871e-02,8.109423661294742902e-02,1.616496339585250797e-01,1.003482887813228058e-01,3.973336922857711312e-02,2.825769241885139546e-02,2.869725865779496760e-02,-1.171054318844543113e-01,-1.548110704413068750e-01,-1.400479812853157140e-02,-4.915586257592163832e-02,3.373998857988527722e-02,4.928372796726297744e-02,5.284516702266560395e-02,-2.114216386502775283e-02,-2.208611667194509964e-02,2.267388251808412358e-02,-5.630851165142655712e-03,-2.621797054453120154e-02,-4.647561207684667434e-02,1.355794451736444593e-04,-4.280392139682872438e-02,-9.904025323016287657e-03,6.936592116185015533e-02,4.708398617811062475e-02,1.487057880590614001e-01,1.245710947440252514e-01,8.195971161777031166e-02,1.633070335285912167e-01,1.789442040436557413e-01,1.437160149286920430e-01,4.040147366705858223e-02,-2.825195488034570185e-02,3.767514244266076395e-02,4.234720400694819142e-02,-7.989737299091713429e-02,-6.466813914331279167e-02,-3.593103667525957695e-02,2.216721151879598103e-02,1.507246310158184138e-02,8.939988281506713180e-03,6.474530686385600309e-02,5.399529134980343009e-02,-1.187063040691169885e-02,1.260387213360481158e-02,-2.247529692783767352e-02,2.269573283749745651e-02,-1.303809603030640224e-02,-2.119368337858185819e-02,-5.114425189819389594e-02,-3.744964158453089557e-03,1.181539844511156519e-02,-8.634128153962727578e-03,1.154323992007773581e-01,1.273013428683921755e-01,1.660960188605356547e-01,1.769857663220630317e-01,2.746660065345595814e-01,1.204386456785771636e-01,1.874099949093776044e-02,-5.342139522674187874e-02,-1.436076561825359865e-02,-9.561768696585905281e-03,-5.189496459515124949e-02,-4.171419835078572086e-02,-4.859915437555098472e-02,1.484012262914039156e-02,-4.396566493553665661e-02,1.892435412635071895e-02,3.701879323978114755e-02,-1.839785331233905266e-02,-1.217321264759023240e-02,-4.434744537294249556e-02,-3.317500380596197923e-02,5.289483292173692563e-03,-3.305449645052990770e-02,-3.627442839497840854e-02,1.468471218141706620e-02,-5.148362477321633034e-04,-3.538371084801765487e-02,-2.401102792709521733e-02,4.909525893893380193e-04,1.449786711078980828e-01,2.571062191079268588e-01,2.255315853843319063e-01,1.176648743740762448e-01,6.259997811951671653e-02,-8.135395029186222315e-02,-3.537434818045787077e-02,-1.814214700032550781e-02,5.403874552297419781e-02,-3.721164205067975517e-02,-2.120836055270761480e-02,1.298256615008379182e-02,-3.549872260034605317e-03,-4.293429692235067180e-02,-4.029382731310718335e-02,2.151395661478350957e-02,3.007254745292996592e-02,-3.421927561275542318e-02,3.522565235344628232e-02,-4.165604594777849723e-02,2.955588061158193058e-02,-3.240752409177447696e-02,1.856538430940119291e-02,-4.927515589530902240e-02,-4.234833168436111239e-02,-3.631692061904778779e-02,-5.109123548713656593e-02,-1.092859093062079588e-02,9.078716392117801293e-02,1.198428222529115683e-01,8.451942529654167535e-02,8.637515018376279441e-02,-6.847457078177525414e-02,-1.071488612884766989e-01,-9.695457663786623964e-03,-4.991912205735797581e-02,1.683925523235587848e-02,-3.881570017803161188e-02,-2.234857817488775794e-02,-5.157533395316309111e-02,-8.321002855755303684e-02,-4.374963476442457477e-02,-1.866241753570536260e-02,4.899655405477619519e-03,1.894865371260692766e-02,-4.514006793842206128e-02,2.552092532976592276e-02,4.210472459514638666e-02,-7.116740573144930693e-03,5.126474364757091506e-03,-2.133683854613774647e-02,1.850298806111085048e-02,-3.177131585341515241e-02,-7.107375483536268468e-02,-2.991201835340816240e-02,-1.688217054606317574e-02,-1.592006327650719033e-02,4.721259338179287918e-02,-1.517648317163410379e-02,-1.361646565481303486e-02,-8.570450441667262775e-02,-2.034906774498469739e-02,-1.748424114899683676e-02,3.571363470512966404e-02,-9.408583173816447223e-03,2.631192674747335689e-02,1.839314618970134402e-02,1.840192209468375154e-02,-1.286756221540816258e-02,4.077359103242551158e-02,-2.183498128105493610e-02,2.265649676795001080e-02,-1.150175347407047036e-02,1.343977125058990613e-02,-4.023352707692091912e-02,4.432610061481526142e-02,2.338646445016745457e-03,-3.682438759042505616e-03,1.088374299390666364e-02,-2.948477052122288819e-02,-4.870940270322579591e-02,-7.528465513897915351e-02,4.295530152488131158e-03,1.950649354709447711e-02,3.635584839050659545e-02,-8.719422199252004069e-02,-4.683952772130751951e-02,-6.467795195775954964e-02,-8.883038053260444711e-02,1.115216045898551750e-02,4.776165098041886686e-02,1.587884243513282972e-02,-2.316596193795925768e-02,-3.313907414709651306e-02,5.857820949571088814e-02,2.308330085585103345e-02,3.991815131356063473e-02,4.895067673207856296e-02,-8.167813055737471175e-04,3.346888857403421125e-02,1.745509612522525358e-02,3.534047289944871467e-02,2.200098008124597854e-02,-2.361147137631660828e-02,-2.675279638974068647e-02,-7.421968671931650219e-04,1.532760547710327118e-02,2.027330616174895239e-02,-3.702842722114534774e-02,-5.614971152537882176e-02,-4.370942510774040307e-02,-2.097901968616724608e-02,-2.769047175951298845e-02,-8.660372040719176157e-02,1.984420150235151337e-02,3.449672574605024827e-02,2.040046612598819809e-02,7.846158190646335129e-02,7.094072865035595810e-02,-8.709381895755551745e-03,-5.257952836701173388e-02,1.109006699385417169e-02,6.182266620876773061e-02,6.657928740478490093e-02,-1.760612101354964293e-02,2.924510916865361368e-02,4.572744513657359122e-02,4.972380418249473799e-02,7.312985363411660285e-03,1.653067989184196784e-02,1.834280318873350579e-02,1.663665118366698670e-02,-3.463786284615619215e-02,4.963124209748458193e-02,-2.710414366784293441e-02,1.110981722480306084e-02,-7.727618486633300310e-02,-8.901765308858824999e-02,-1.176076246562419714e-01,-7.896552119386453239e-02,8.122895407404720838e-03,3.173861409204607048e-02,1.075961877216455032e-01,1.083386563455393387e-01,9.984009513445896156e-02,1.224053739610683478e-01,1.169515413028889422e-01,1.578531727625332934e-02,-2.391238309153032732e-02,-1.505660075091716510e-02,2.643799858405999209e-02,-9.150114129346522199e-03,-4.220434456642591786e-02,1.169327282948720396e-02,8.919283363943935825e-03,1.667609569561431804e-02,-2.069664288670813174e-02,-4.229065332257010701e-03,-2.899348940585960710e-02,3.799384148202443467e-02,1.394382241337496775e-02,4.495166747825020404e-02,-3.405632457068745456e-02,2.044939281899909450e-02,-1.022616497740518916e-02,-2.117868578210455391e-02,-6.556113439218881622e-02,-7.176525629988850241e-02,-3.703050086668614044e-02,3.512235455363549308e-02,1.105018722523332456e-02,-6.440951674434873542e-02,-8.521543542316435682e-02,-1.212391443563266315e-02,1.151552584437409710e-02,3.460581036818246442e-02,2.481373416782148289e-02,-5.050918716568012119e-03,-1.738541426656239333e-03,-2.948872325092487950e-02,-1.368991162130576110e-02,4.066175476451850540e-02,1.542881275242696110e-03,1.694066571670300655e-02,3.135745631083992901e-02,1.885033671695693358e-03,-4.181077689836051881e-02,-4.857005351558194711e-02,-4.807177362226332934e-02,2.762110971486426980e-02,4.811252641973257083e-02,2.370543972659793636e-02,3.853031755909961525e-02,-1.556583612155052095e-02,-4.368672933510277245e-02,-1.188423955974173829e-01,-9.059012161213421399e-02,-1.118656563239062568e-01,-9.526694124539172859e-02,-1.450039490290318256e-01,-1.420866964329945414e-01,-1.265639467205404989e-01,-4.365891108018438160e-02,-9.946955034857546396e-02,-7.108461444904752569e-02,-7.073130503872354820e-03,1.153463829407666737e-02,-3.480613864017617631e-02,-1.911724729794819083e-02,-3.458618218906633207e-02,-8.710439889178758777e-03,-3.124752580729904181e-02,-1.759007091455582969e-02,-3.779776958201606918e-03,-1.737321188636314212e-02,2.840651452022949219e-02,3.367778681462728352e-03,-3.749452317911450283e-02,2.253251912266106272e-02,4.680873521852588898e-02,-9.155372770847618538e-03,3.579724610188823875e-02,-3.283136386211398666e-02,1.825495267613763684e-02,-9.327406227902618543e-03,-4.473099591191549013e-02,-8.755977922257908138e-04,-2.714799754371838379e-03,-3.805743089960872405e-05,-7.682555065932183958e-02,-1.037996050077950351e-02,2.990760194803112823e-02,3.336522982816571281e-02,-6.156144486756336826e-02,3.104068450059731428e-03,2.383699472198486102e-02,-2.915633735716876770e-02,5.895740629530241313e-03,1.279142192397737798e-02,2.131386353346292895e-02,-2.778764968912766919e-02,-4.147371289742177169e-02,2.580296011066295081e-02,-2.065623753548717634e-02,9.419481947101113195e-03,1.891195772664243380e-03,-4.131756955016670230e-02,-2.096299737096784035e-02,1.274993051768445740e-02,-7.767330757239770478e-04,-4.968633396190497847e-02,-4.488134628319303404e-02,4.329938117608610193e-02,-2.995988972612841084e-02,5.779578052598511326e-04,3.458564109036652706e-02,-2.575279556685789242e-02,-2.653450214573322558e-02,-2.796694344697943715e-02,-2.678377923129553542e-02,-5.296464306590888821e-02,3.675244574710778006e-02,-3.194239996133806103e-02,2.632767859551864847e-02,-4.026747687472608667e-02,2.562735369045110456e-02,-1.491491132359878957e-02,1.403258432628889940e-02,4.725831330715463130e-02,2.209641049319562012e-02,1.156768768555194171e-03,1.374203116746498810e-02, -8.288996812422895488e-02,3.826289318928698113e-02,-7.935347916300308779e-03,8.347810960846233086e-03,-5.692029622708170977e-03,-1.526917245811559160e-02,1.423449388462454113e-02,-4.322960119977095617e-02,-2.961202429633196312e-02,1.131814688823353648e-02,2.497228419307412350e-04,-1.028594841533074511e-02,4.529350613114754842e-03,-3.750354801259692117e-02,-6.646856881865871591e-03,-2.280472772543415058e-02,-2.199034457190343628e-03,2.896838331902072683e-02,-2.553004217963492778e-02,2.433429085877460152e-02,5.618374670611693544e-03,9.319516727040400017e-03,-3.844478276000965616e-02,4.557717681640323371e-02,3.235215245051567545e-02,9.098830180685510416e-03,3.300994949862966210e-02,1.355022102292018082e-02,1.841950161419024512e-02,4.555310898922966534e-02,-9.464947633586962006e-03,-2.391062222726760000e-03,-1.462981082911878755e-02,3.133692382242411756e-03,-4.098566160626274102e-02,-1.410624364138225728e-02,9.924378682686328668e-03,-6.405314823183391737e-03,-2.601633168087677181e-02,-3.160740404947864207e-02,1.200261957006530135e-02,1.430220744644918052e-02,3.876937050682191521e-02,4.442531404421539570e-02,-3.115177995443542749e-02,4.086790493165210619e-02,-3.481695849080124194e-02,-4.786908181072874885e-02,4.306959952931638247e-02,4.237486163183511179e-02,3.093582429882726914e-02,1.145751413270564706e-02,-6.812918035965190300e-03,2.337465379359957018e-02,5.659882345680392057e-03,7.289627817335019022e-03,-1.513268678982673116e-02,-1.339340946343636762e-02,1.248502797306626222e-02,-2.921418363687870029e-02,-9.244572302933865005e-03,-4.623269793434914288e-03,2.541548506410698516e-02,-3.780774728843749877e-02,2.094778479715514452e-02,-3.733973223128381203e-02,2.341026749504136750e-02,-3.288001169382515857e-03,8.934680480772785047e-04,-2.855824969857507015e-02,-3.080024713447373358e-02,2.978563662097079637e-02,1.803116713681050028e-03,-7.015235195661868872e-02,-2.330599443889875763e-02,1.043290943899998630e-02,-1.914628304608896950e-02,-2.324263408057342800e-02,-3.106956726535558405e-02,4.126676676138623517e-02,-4.419682599833870545e-02,-3.449144420731933836e-02,4.613621405952593457e-02,1.390507610283400752e-02,-3.736406587622338737e-02,3.227177964831279278e-02,-1.366381351830817797e-02,-2.453271197161708411e-02,-4.439537828498503480e-02,1.441903230274377279e-02,1.711364339226915943e-02,-1.182248326559854137e-02,4.194544316857665156e-02,4.979272716740259369e-02,-7.062739287614139272e-03,2.692684020772218717e-02,-1.592648433007799388e-02,4.158492944859965706e-02,1.060301311614199500e-02,-4.022150527465583741e-02,-2.214655166326419920e-03,-2.196874320916482326e-02,-1.983588505867217230e-02,-3.079876761703117388e-02,-8.428382860396479992e-02,-6.280548609879214872e-02,3.340250016177243736e-02,3.456757919387122568e-02,-3.450376671010710328e-02,2.796991737056556127e-02,2.361841897965021031e-02,7.171279650264705818e-03,4.772877490251030419e-02,2.311142915646460794e-02,2.957851404164228704e-02,-1.207351523544243632e-02,-2.433090505914742296e-02,1.971183758428936977e-02,-3.417235160092103180e-02,3.447527725939185383e-02,-1.185614940570296760e-02,-2.551035075453625053e-02,4.493460528550519140e-02,3.798787814811810382e-02,-3.487543175285230668e-02,4.175143865399577603e-02,9.157703914333113759e-02,5.314858074999307541e-02,-6.670864332459912338e-03,-8.195752769955967632e-03,3.666131008512414635e-02,-7.754204469413327437e-03,-2.213257682346419022e-02,-4.893337250360709628e-02,5.988277596648034634e-02,6.494217712971445122e-02,4.734280679503154871e-02,-2.653934704781338305e-02,1.842909124783356778e-02,4.160438126663579261e-02,-3.470933948455920404e-02,3.300852758917625918e-02,-4.086226104025866834e-02,-4.767669999470153241e-02,4.297535442535053291e-02,3.563610057726831343e-02,1.108339555890165348e-03,-4.771128058825475221e-03,8.307076866958336414e-02,-5.098256279412429620e-03,1.601968759537770667e-02,1.966509310921596768e-02,-8.930909523477122223e-04,8.184908762365591950e-02,3.973571637730293621e-02,2.871088916176033849e-03,-2.064226854908599376e-02,5.327496475898808870e-02,1.733417683651822805e-01,2.384379811777065025e-02,1.023427385694012648e-01,9.910570088354249407e-02,6.229656432072566696e-02,5.771703049750330494e-02,1.284850930314714902e-02,5.595356131262491789e-02,-2.709880122327601448e-02,-1.169832821232395619e-02,2.583622024987496102e-02,4.220730139368138178e-02,-4.698980108872535116e-02,4.668655335234084269e-02,1.374895116628649383e-02,-2.862604936740183528e-02,7.169916211625933233e-02,3.322858641373230282e-02,7.092683069072396040e-02,1.184695417643411540e-02,-2.361160099381942514e-03,-1.736893077703594371e-02,-5.527344282592687452e-02,5.759834141744929470e-02,-2.624704329551698356e-02,-3.641409932286807788e-02,-5.527831679610129695e-02,1.854524176320737974e-02,2.875180921609035711e-02,2.370223882598414267e-02,1.345110563542936954e-01,1.414681603694539491e-01,9.244082939590241021e-02,7.077209962852840097e-02,-4.521086610675466473e-03,1.576337390413689102e-02,-3.806312280819048460e-02,2.357296774092100533e-02,3.234181828734875030e-02,-4.469142265987383067e-02,3.311236582364567027e-02,6.616810229755071618e-03,-1.554392851839253575e-02,5.671530713125813757e-03,4.482383875877381935e-02,6.350274318578287558e-02,2.398897215635889188e-02,-1.309887020844292815e-02,-9.373723806824760252e-02,-1.032012180275869856e-01,-8.860082811735654762e-02,-6.151461769162556992e-02,-1.585321687504141069e-02,-5.777033482441296802e-02,-7.052417821629015926e-02,-5.087602249124302013e-03,-6.298011853756189937e-02,6.005328162832090227e-02,9.814543731152655659e-02,8.265217530096491405e-02,1.076780282442077741e-01,1.316240215736111732e-02,-5.540485824521582114e-02,1.294822217044491568e-02,-4.556320077950522934e-02,-1.454659603210107545e-02,3.807831375729796991e-02,-2.039001801064041150e-02,3.781931663569951252e-02,-2.328971621390468413e-02,3.174654428709269838e-02,5.820678560006702605e-03,1.111313310691548067e-02,-2.788440623902100138e-02,-4.515714367599675191e-03,1.533759991599287697e-03,-8.573240945128413060e-02,-4.561752746593682184e-02,-2.337889984181647576e-02,9.163139751841905406e-03,-4.203612212291399364e-02,-6.488067563230531798e-02,-3.585200000308278595e-02,-8.853777606290759439e-02,-5.694848325500263819e-02,4.680585990565543086e-02,-4.608400401000208035e-02,-1.376636518847361261e-02,3.122570047892875289e-02,-5.368333808465476642e-02,-1.671573366214519976e-02,-1.099231805794578971e-02,1.213982154005822760e-02,-3.505152509272124045e-02,8.771651221103758667e-03,2.789717384988797677e-02,-3.896337280236195078e-03,9.105590745179381953e-03,-4.506385882442244528e-02,3.098535292241594991e-02,4.721821792753621433e-02,5.613578537540881569e-02,-4.008341527641872543e-02,-8.065670612210819324e-02,-8.481073462657567896e-02,-8.817148421564097172e-02,-1.251194371255968203e-03,-2.535406353507348165e-02,2.316490960107309182e-04,-9.375163101760954076e-02,-5.446924366014520985e-02,-9.107061414617702300e-02,-4.602280131810349700e-02,1.020761528868213697e-02,-8.589409053696027418e-02,-8.067303427238051855e-03,-2.648539312985248931e-02,-6.157116031054196692e-02,-2.657270899036110953e-02,-4.878602119839609008e-02,-5.755002670646354457e-02,-7.882984644939286870e-03,-2.063181982316638838e-02,-4.313382635570078144e-02,3.228000872230787910e-02,2.726637822732300848e-02,-4.177908532686414045e-02,4.635818162633689732e-02,2.346480914973614676e-02,-2.712118770513654437e-02,-1.280644647758003019e-02,-4.087043271509392672e-02,-1.256574389534119152e-01,-7.570845699727014877e-02,-1.043473451652792705e-01,-4.204772387128091760e-02,-1.230368556526517110e-01,-4.007894096389872512e-02,1.628518728382890440e-02,-1.092270070045734259e-01,-1.065009068357150313e-01,-6.285103373303541074e-02,-2.220696300870941831e-02,2.391501858397258960e-03,-3.826555167082949099e-02,-1.542326030967556758e-02,1.012927327740709670e-02,-3.716267423267804321e-02,-9.364358767688076013e-03,4.455369151761744140e-02,1.746183264597202245e-02,-1.671621239220207056e-02,-3.345604250987600781e-02,3.856048145897812696e-02,2.108108455449283353e-02,2.206077281018497746e-02,-4.533137099666272735e-02,-5.140709031360085612e-02,-1.169112346618020187e-01,-1.476482130053284603e-01,-8.452108663704781255e-02,-1.699327708306188622e-01,-1.679360042718738288e-01,-1.647953472463480340e-01,-1.614845915573858981e-01,-4.419116834452848502e-02,1.887911114402978513e-02,-4.618464119136712204e-02,-2.110264413708328943e-02,-1.353394723198823001e-02,7.561100090340044759e-03,5.376634819559646117e-02,-5.542675439199382104e-02,-8.590035913939367274e-02,-4.650882778080094038e-02,-2.293349897744845992e-03,-2.024102398850982296e-02,-2.398721969674869059e-02,3.967097335448342699e-02,-2.273258669938612794e-02,-5.035143845207777635e-03,-4.104818736179304678e-02,-2.951464459482367256e-02,-2.697518661490150640e-02,7.039005605067504868e-03,-1.154161093860235215e-01,-5.968716273814314577e-02,-9.243610442053198928e-02,-1.714603721849831119e-01,-2.199449437388233675e-01,-2.442067515509799558e-01,-1.903430165379749739e-01,-6.403813193849151875e-02,1.055099018598767563e-01,4.459959292553922205e-02,-4.757596779968229633e-02,-1.325864397458655086e-01,-4.751504881607763325e-02,-3.707886401077575833e-02,6.969720724035859127e-02,6.708668925486291866e-03,-6.919056250012534104e-02,-1.457125243916937776e-02,-4.865679538598025738e-02,3.689415075558313828e-02,3.329584256844050384e-03,-2.166015165162151965e-02,-3.569428418405487524e-02,3.155543754235333453e-02,-2.768813530195227482e-02,-2.293653187802628321e-02,-3.867921352672751278e-02,-2.741838150006994934e-02,-7.343035476139075923e-02,-5.303907355293999148e-02,-7.957892481416549424e-02,-1.874062165312062600e-01,-2.109800178574424145e-01,-2.829494777398345318e-01,-1.884117481886338485e-01,2.845237826074362500e-02,7.853603762696874380e-02,-3.828493980153507142e-02,-1.268272914692426256e-01,-1.689595706788942220e-01,-1.230675706048554585e-01,-2.941860165396944365e-02,-6.415006614578513955e-03,-4.175588031516889315e-02,-8.757396666015267173e-02,-5.591897259280615567e-02,3.518053689624286648e-03,-4.988376446793642977e-02,4.204810269039619547e-02,-1.237091232567919669e-02,1.988149112274814612e-02,2.530170945752550915e-02,-4.661584211260717814e-02,-1.447615671253748605e-02,-3.599988035491195892e-02,-4.107427151949457657e-03,-7.292651400700693454e-02,-4.014980028258689077e-02,5.433941570857878101e-02,-8.009509443913824522e-02,-1.589377593073958428e-01,-1.620748502934099000e-01,-5.346758914199861712e-02,1.117130871749754534e-01,1.534353983166921731e-01,-4.616684190199200205e-02,-2.819395325026241572e-01,-1.112378716655336303e-01,-1.351745607789409942e-01,-9.500429639166327322e-02,-1.295018641223489031e-01,-1.134829682448162264e-01,-1.297088960936277069e-01,-5.959074368725566367e-02,-5.633658181248793473e-02,-3.761583428032250903e-02,3.980210983542640385e-02,2.183133393053794669e-02,4.076449131427185846e-02,7.373773602981456565e-03,2.733213809611079181e-02,-1.593466335040095300e-02,1.539261341511174996e-02,-2.202757293024818971e-02,9.140123105333413864e-03,9.900431554762294251e-02,1.045267975601542332e-01,-3.268536883074494442e-02,-6.148062432225218782e-02,-1.369982288818620206e-02,8.359213828131714652e-02,2.322093069277956778e-01,1.230481416199226269e-01,-7.088917835970807990e-02,-2.016495026466052776e-01,-1.445285648190831607e-01,-1.301165387733660972e-01,-1.380693524805090833e-01,-1.272209844345586482e-01,-1.639697977570493681e-01,-8.251838589795357226e-02,-1.120233455440820675e-01,-1.030352815759859493e-02,-1.101530098930941434e-02,-2.865442188040925008e-03,-1.446858079683609882e-02,-2.747894844542395076e-03,-3.255803334983603525e-02,1.172542016094636069e-02,-4.786544140423785315e-02,7.818191068053911841e-03,8.624230925097736353e-03,6.281180154023860429e-02,4.485708967296649780e-02,5.442447571053219552e-02,4.239546218831401897e-02,4.743789782728610738e-02,1.290753753280246274e-01,1.601900963387627719e-01,1.378993350838146892e-01,1.772771348557152515e-01,8.184854882471143123e-03,-4.724530179902314275e-02,-1.131830440523439868e-01,-1.128391558819702850e-01,-6.505687946433419411e-02,-4.545326007222846160e-02,-1.410049352951496353e-02,1.958010087064706445e-02,2.843764198330138090e-02,1.270490658406609255e-02,1.833927230361562244e-02,2.701733664617805147e-02,1.414240248211325046e-02,4.024746201739964890e-02,3.173166378401891252e-03,2.013083365903861263e-02,3.569699350891760922e-03,2.292905557946343237e-03,3.341320752974635822e-02,7.769197949586323371e-02,6.912397038755188627e-02,5.537624348814768060e-02,3.813311353953107580e-02,4.242174369349868690e-02,-1.772331771437190076e-02,3.347223381018412519e-02,2.154848893452932512e-01,1.889779279973233528e-01,8.624837904616677875e-02,-7.556683489152962729e-02,-5.694666707979725156e-02,-4.669761946697652960e-02,-4.003224315413297929e-02,4.472075603363599716e-02,1.139508450405528166e-02,5.588086581957862203e-02,1.274400775639107919e-01,9.479299610433897239e-02,7.937907231987258172e-02,4.392853440533400766e-02,-1.264146547218667621e-02,2.526397579679286187e-02,3.666988923728073391e-02,3.220478438828143497e-02,-3.943336094553582388e-03,6.865724542661921781e-02,1.018218221953732239e-01,9.484183703685598876e-02,6.121080546493265495e-02,6.685917270380856148e-02,1.578677685706655551e-02,4.316143396238054019e-04,1.639230807599851431e-02,1.123584378740994094e-01,2.568483647002983705e-01,9.851136596191929773e-02,4.750517363287935779e-02,-1.803757060987939108e-03,-2.159795848238432563e-03,1.215744845155601085e-02,-1.728062211085188565e-02,1.054752033824419288e-01,3.888371299959661465e-02,8.271721424622054120e-02,1.055420437803201300e-01,4.283651371549763998e-02,-1.381223392626844057e-02,-3.382894342590465897e-02,-4.040193253042663468e-02,-1.666221958707388151e-02,-1.366931966660119707e-02,-1.755973855990795168e-02,3.701439740432421743e-02,1.802945494905065435e-02,1.406297188484993410e-01,1.327187684839942206e-01,3.913086054689624699e-02,5.181295873733144687e-03,7.757834358389055496e-02,6.241399459607525901e-02,3.760895857034650402e-02,6.482378287491436485e-03,6.081413390317518680e-02,1.708681602515097209e-01,2.088331120760544835e-02,2.813476394863792182e-02,2.563195080965769562e-02,-1.041121613313297084e-02,1.018296128827326091e-01,1.394676037927527687e-02,7.443048029573264002e-02,9.718958941770305948e-02,3.643326585332241213e-02,5.748320286634001075e-02,4.638254537427506652e-02,-2.536743563024960318e-02,-2.314684117614469738e-02,5.350694777323618256e-03,-4.051798786137261743e-02,1.738197898260647120e-02,-3.477094527681347941e-02,-3.107242154656103539e-03,6.309435072160803071e-02,9.014505422924221079e-02,6.441363006788870804e-02,-1.346582412161123621e-02,5.229633546917696746e-02,3.849572146767721303e-02,-8.382550611262310630e-03,-8.144125962720896728e-02,6.512810911491753729e-02,1.074608993387456829e-01,3.248608244699791037e-02,8.464679394604847362e-02,-9.214955122759466155e-03,9.747526365196141837e-03,7.887296243814571894e-02,3.316729608038812560e-02,5.867502931631162627e-02,1.233393689755288986e-02,6.981607499790863647e-02,4.975761032366788489e-02,2.518196601956805905e-02,-4.114197229392300981e-02,-4.719369133819935336e-02,-4.769264759714773178e-02,-3.650161572607200228e-02,-7.838229040109829029e-03,-1.964808542131958949e-02,2.198543730560550621e-02,9.923888500957939174e-02,5.241759054727373329e-02,9.810688700431893783e-02,-1.775664328159456268e-02,-5.869166638445295209e-02,-4.541583148250336738e-02,-6.536468920171556451e-02,-8.119298471109503978e-02,-7.831939274843606469e-02,-1.045882266336035926e-02,-4.972486313028048714e-03,-2.433926264865388447e-02,-2.303889225454144180e-02,-2.357836207532741299e-03,-1.891138081321499381e-02,-3.059289472626601503e-02,-3.032706577894426353e-02,6.097883612497282529e-02,5.786326071604218357e-02,3.621800305512143381e-02,1.201369180991540726e-02,4.248163834695424523e-02,3.437628327124110650e-02,3.810055413522293877e-02,4.961901618690155169e-02,4.507949205456329711e-03,-4.078449739704975013e-02,1.413654987846779676e-02,3.970696509962499954e-02,3.500330799958929762e-02,6.285588322850381784e-03,-3.810638581818171639e-02,2.048649203409734845e-02,5.292507005892560512e-02,-4.489905033383860544e-02,-4.110829270304869332e-02,-7.209884168617279598e-02,-1.194602584442076322e-02,9.748287853583104817e-03,-1.365885571859595761e-04,-3.279834321074776710e-02,5.813816157532687712e-03,2.951347884001362040e-02,-2.991905166807872635e-03,-3.772561146036466917e-02,-2.476326182523753971e-03,5.266853258738432575e-02,-1.694580743118012222e-03,-4.919327209968003128e-02,-4.124920027758775809e-02,-3.378848073364378035e-02,2.254309625110664794e-02,2.936020958824452076e-02,4.319925665337978615e-02,-3.647077334105500862e-02,-4.131827477161131162e-03,9.967411266823033092e-03,-1.682397923256759645e-02,-4.495919849055852319e-02,-7.364454499322954650e-02,-6.246695868177482014e-02,-5.979453121314752539e-02,-1.211649446933077273e-01,-1.184411614391971818e-01,-8.469622312371568500e-04,-6.799037560030950222e-02,-1.043961944543599606e-02,9.303355900725965300e-02,7.133808904418381495e-03,6.239057121545109330e-02,5.146160633114255090e-02,-1.798458534507959422e-02,2.989508361413179428e-03,-1.611661074522044088e-02,-3.005990909040541503e-02,4.871505149043479921e-02,-2.073632402007839076e-02,4.192295569480490591e-02,7.062495338815602541e-03,-4.627043677052100623e-02,-2.193472142441768233e-02,2.141142997795750236e-02,-1.288868796952262301e-02,1.466463444092747917e-03,-7.694975071823975665e-02,-7.813082963803413827e-02,-1.005660447826500631e-01,-8.433989227718467763e-02,-3.429774061899282939e-02,-1.232949749968694775e-01,-1.351095368096991711e-01,-1.284441862174358628e-01,-6.064931879575284623e-02,-5.848530169634563042e-02,-7.182968180277088388e-02,-1.179426395002848051e-03,-2.124139087279811738e-02,1.233201551458334815e-02,1.687712759317092429e-02,-1.953038685600123892e-02,-8.978106106417667667e-03,-3.216473338095483803e-02,-4.465234933698625924e-02,-4.325735409225788669e-02,-1.097964483912390599e-02,4.321322524792037267e-02,2.640003946411526026e-02,-3.609052079600952312e-02,-4.184751535499552783e-02,1.841067107625819765e-02,-7.527138966579812775e-03,3.244281708142389680e-03,-2.648129339708565899e-02,-1.110434098713643583e-02,-7.593731303773691710e-02,-6.990392868738951049e-02,-7.263483499527931264e-02,-9.163482515120513483e-02,-1.403466531629557756e-01,-1.289898928107814091e-01,-7.109288191323602513e-02,-8.306491902288139217e-02,-9.772109295061885692e-03,-6.032736221932207682e-02,-5.749031755492037786e-03,4.476069689132208818e-03,3.186380863648306805e-02,-1.556489772897089001e-02,-1.187886069174525633e-02,-7.592026419995824560e-03,-6.630778704177837284e-04,-1.273474740005911066e-03,2.195021605468863712e-02,4.112166657669680259e-02,-2.507022143891773913e-02,2.123310854151132243e-02,9.992191660013804988e-03,-4.890713923507126332e-02,2.835547667526064353e-02,3.478111995198298473e-02,1.140309848322423360e-02,-4.989165938160774333e-02,-1.288516774786800483e-02,-1.452863681981803740e-02,-5.077481008677748459e-02,-1.990851349910602308e-02,-5.274477724172869225e-02,-4.238370463240718339e-02,2.722237909140245993e-02,8.955285528849405569e-03,4.488308831334570509e-03,-4.850412212317531391e-02,3.284296868283986121e-02,8.875212061811925748e-03,-4.212350726691994895e-02,1.607369621143596092e-02,8.173263004518685829e-03,1.155482049727703242e-02,-4.765091113893968333e-02,4.338686470975346154e-02,-4.913421100950411680e-02,-1.922053771755818929e-03,4.736193960161659555e-02,3.858511100025931173e-02,5.753584973361994259e-03,1.016448183184563009e-02,8.758142051910312864e-03,1.430965490748521696e-02,-2.027014809714284063e-02,-1.879682851619777703e-02,9.062336609995409048e-03,-4.992575664619959552e-02,3.531900656160872481e-02,2.726698718674397739e-02,-2.766483270072256709e-02,-2.684429725159719494e-03,3.362960301685892495e-02,3.831597828968991148e-02,3.202384844117545093e-02,-1.560408011345976523e-02,-1.084036313103840798e-02,-1.715642899268379415e-02,6.107752295726662922e-03,-4.957997488320273899e-02,3.296770321465088138e-02,-4.602942778281882141e-02,-2.700982865031322996e-02,3.474526556408426281e-02,1.236889666265626742e-02,-4.902609836120006004e-02,-2.634023469375623705e-02, -2.121033885273645656e-02,1.626429933574152775e-02,3.577429241296391227e-02,3.875104748343947969e-02,-3.488788361972397500e-02,-1.272057655215694250e-03,3.177509990444035703e-02,1.984239101928594873e-02,-1.398336204549937428e-02,-3.850334202803484818e-02,4.130106821181479815e-02,4.651429604753014313e-02,1.171799865748947289e-02,1.218963051891937960e-02,1.286582781885795002e-02,-4.778928608361356078e-02,-3.844799939179618931e-02,-1.215047161559899142e-02,3.308799885098856475e-02,-9.854946569441455639e-03,-2.464810019197537228e-03,-1.199867915564252485e-02,-4.214415930552269096e-02,3.952135958778384139e-02,1.853997590608814916e-03,-1.809103060691527598e-03,3.529523297345717181e-03,-1.144172350582622899e-02,4.051586570186262171e-02,4.286574677069540651e-02,-2.029138314040238034e-03,-3.347226018169723039e-02,-4.441548137912552929e-03,1.532150450910763073e-02,7.517701364690376753e-03,4.735639024735729952e-02,8.844473661436501322e-03,-3.770240243307287908e-02,2.312262352369098828e-02,-1.629549675711594939e-02,-6.407209519297444970e-03,-3.892107946699494697e-02,-2.344059385070180329e-02,1.937901994013463240e-03,2.944760036149448798e-02,-8.340592701298795916e-03,2.964926465579329276e-02,-2.615208214557002489e-02,-1.140892113691463483e-03,4.849815238508602133e-02,-1.609940620261851585e-02,-2.237631250110381359e-02,1.659527176021100003e-02,3.961532510890880543e-02,1.631621983812540921e-02,9.111090962570990437e-03,4.071752339647684293e-02,4.290428996331596689e-02,-3.177874315593357674e-02,1.202973700754923769e-02,-6.308710022282643104e-05,3.316010295373657268e-02,6.777231256778051827e-03,2.322986386297606898e-02,-1.840769585498544525e-03,3.863839987582311231e-02,3.272312079421374476e-02,1.482880391957138756e-02,-6.751856448836943830e-03,-1.221900049217114134e-02,1.781099339233676096e-02,-3.012823778587198596e-03,5.726987860150524468e-02,7.726438897837407949e-02,3.341991930039427822e-02,5.464283473700132232e-02,8.143037797555013240e-04,1.947496532171283769e-03,4.216316418286970846e-02,3.733070048739410736e-03,-2.083673254764036335e-04,3.543771148315186248e-02,4.289735812506387247e-02,4.998089993483631477e-02,4.946040466690954096e-02,-1.546282253887937275e-02,1.418480789125141361e-02,3.485861364423380182e-02,1.305434196540242175e-02,1.680497911316740367e-02,5.109936614464884175e-03,1.952557932193505277e-02,-3.484079991386270642e-02,-2.937536073812925530e-02,-1.099194686945258528e-02,2.774816921111148554e-03,1.116941363575215881e-02,1.340444894440989340e-02,4.295999475033860510e-02,2.001669482116834667e-02,2.611959184096665151e-02,7.714797843866301463e-02,2.508057978904419325e-02,1.004708712282980920e-01,9.423472369594955433e-02,6.604042148886644925e-02,4.056339722662436614e-02,3.164024401688321150e-03,-4.437119176044748009e-02,-1.186116024939659619e-02,4.644039269117782032e-02,-3.418200363891732430e-02,-2.804715605700684039e-02,-2.734342693646515596e-02,-4.754785778404582719e-02,-7.609655915543578342e-03,4.064616815897319213e-02,-3.835524406003616021e-02,1.907700702349895625e-02,4.156950810956636100e-02,2.170823744440592354e-02,-1.738569890595072914e-02,1.579156475147790173e-02,-3.659477965555753970e-02,-9.995513630731762966e-03,7.003307578531620115e-02,1.270883315266780819e-02,9.073307937565976145e-02,1.311992087773411753e-01,1.650471641805907330e-01,1.239790639631553615e-01,4.673742259508249092e-02,2.847020790127576320e-02,-3.581226160376602130e-02,-4.667890092961426811e-03,-1.191513460142434866e-02,9.715456302174053926e-03,4.007079793223566888e-02,4.714210076911436176e-02,-2.412187663474185673e-02,3.673892936110961793e-02,1.963777937684405006e-02,4.223053116149329267e-02,-3.506080491725691028e-02,4.527897921989913754e-02,5.032498731266390329e-02,6.826163345713173736e-02,4.336088671247476101e-02,2.866539297531511821e-02,3.984872233476167286e-02,7.749933194187338947e-02,4.069685571372588795e-02,8.110254541904564352e-02,1.758141873006017347e-02,4.157984587527201355e-03,1.994051195204499596e-02,-4.459769408266396964e-03,3.572776476696833126e-02,1.005334622220282331e-01,-2.817409836537314999e-02,1.357284909928356889e-02,-4.305980856565043424e-02,-9.393442917414270010e-02,-5.198260461943762095e-02,-6.763830492912466241e-02,-5.994135951399236911e-02,3.082529559632086677e-02,-2.023325493067934522e-02,-7.689078230093640554e-03,7.227067677173813764e-03,-3.575807690954681262e-02,1.969628138684829943e-02,-4.547451771975287438e-02,6.399105042991205805e-02,7.894235301472715682e-02,2.206467902845889520e-02,6.420820645080427269e-02,4.178278329968215105e-02,1.217435620144960602e-02,3.129844327313221347e-02,1.507458995831485737e-02,2.170821473315208069e-02,-1.482769591229878350e-02,-3.903234203734954472e-03,-7.301234648331363618e-03,-6.507134035707470843e-02,1.254325059767003731e-02,-4.114632593768348390e-02,-1.329607498218180195e-01,-2.056023562933767188e-02,-5.940985802624560580e-02,-6.357547504533075933e-02,-7.969765081443189181e-02,-5.573406494336571176e-02,-5.348771171184313333e-02,5.418160491241603288e-02,-1.444698295146981844e-02,-4.862774022522106665e-02,4.256819066488295999e-03,7.006797173086926457e-04,-1.169351503702935162e-02,7.557205695436357284e-02,7.186287540624702874e-02,3.577006118752960873e-02,1.815651175498249684e-02,-4.651389510630873914e-02,2.796232048416891908e-02,4.526689044323628508e-02,-2.848616422408173712e-02,-4.475147234484199571e-02,-3.273998832516875762e-02,3.530210231780213370e-02,-6.781567896587545330e-02,-6.129879471335523966e-02,-6.390085061556149970e-02,-6.017723597043827394e-02,-5.720569907995187720e-02,9.662410174438426994e-03,-1.416926013944407904e-02,-4.587211810006433521e-02,-7.746685354877445862e-02,-1.017781140681449092e-01,8.880674831153921589e-03,1.439055540082402607e-02,5.142256076470803211e-02,-2.548935077641520039e-02,2.935852742419525763e-02,1.055586330865711714e-04,-3.080585252934316468e-02,1.135437619663676699e-03,3.707253230035535696e-02,4.921123763455797356e-02,-1.189909457275606028e-02,-3.078653698631581351e-02,2.697883603447933168e-02,2.546335253019943456e-02,-7.592024766544896996e-02,3.900027103315720223e-02,-1.698623597455341944e-02,-1.050895140746203708e-02,-6.558377704428713928e-02,1.372840454351931076e-02,-2.653810505012903220e-02,-9.918370020518829655e-02,-2.734987748947730404e-02,-7.356633486073171913e-02,-1.149080679027486562e-01,-9.371231727155647506e-02,-1.449453976440382430e-01,-1.332303050780447584e-01,-5.511000416402810770e-02,1.296884261450524482e-02,-2.512647741178073574e-02,-3.372231349274588952e-02,-5.064716392187090799e-02,-1.076911649605009381e-02,2.092471145697000906e-02,-6.721911421527565142e-03,-1.878123971090167946e-02,2.666061879301661382e-03,1.022319342688051205e-02,-1.206536911333596675e-02,3.117164681648042571e-02,-2.344003209045382018e-03,-6.291380125091236564e-02,2.512401593083878060e-02,2.191335236392348822e-03,-7.659189411298715500e-02,-2.461213930800998373e-02,6.468302404133614847e-02,1.225717032904989102e-02,-4.949746143717587837e-02,-6.193159471966656893e-02,-5.302901848514120567e-03,-4.759363780848815950e-02,-5.286526333461556704e-02,-6.853555957374574126e-02,-9.693893828183015871e-02,-5.951189134781822293e-02,-4.054960359655097185e-02,-2.883177740412717904e-02,3.994372076128031857e-02,3.545781391725402049e-02,1.830657682431824362e-02,2.678098735514483283e-02,-2.065479216794456271e-02,-7.239754269134735486e-03,3.753250215949517458e-03,-4.207068257107240972e-02,4.032390399330666036e-02,-4.730680851222925781e-02,-1.889087528925001772e-02,-5.680237150845880018e-02,-7.172617965312926003e-02,-1.101238202369184127e-01,-2.594955154823781751e-02,7.586068154804201380e-02,1.239206292585198765e-01,1.329583217798043504e-01,-3.017170569299437895e-03,6.252834667209822284e-02,7.276771344539582909e-02,4.499863208489039701e-02,-6.014687956121249346e-02,-6.776905185776725335e-03,-7.144058012338885821e-02,-1.492781084893414663e-02,-2.913693656312434706e-03,-1.848274799525306822e-02,-3.080257712228442676e-02,3.713872064698296727e-02,-3.110991784532737836e-02,-5.431672263770425009e-03,1.717249540470365890e-02,7.244497627818342368e-03,-2.875581076991660934e-02,-3.327475704394391304e-02,-1.108554545074696800e-02,1.021968700402275249e-02,-2.959949095212002779e-02,-1.710512416478089937e-01,-1.446846140500028521e-01,-4.291138439279245514e-02,8.062536879167625514e-02,1.613698351540309439e-01,1.315942465144887830e-01,1.251309965774881072e-01,1.407179579664334101e-01,1.455025266442911691e-01,1.522204711499438867e-01,1.156526233428592648e-01,-1.496083247137144911e-02,-2.232236794405122182e-02,2.381943052142749748e-02,-2.926036086007831674e-02,7.576316559110476273e-03,-2.952611086648756697e-02,1.832167017294006328e-02,1.908009012310911412e-02,2.248712491203213454e-02,-3.137405718833281842e-02,6.483542697347990935e-02,2.646005449274081711e-02,-4.631822826821573730e-02,2.130450595046760529e-02,-2.292582315754992245e-02,-6.055344656667700776e-02,-1.614441489574888200e-01,-1.385226480576703667e-01,-1.193340676679825602e-01,4.273731531797789196e-02,1.586818856699749036e-01,2.646212062498029538e-01,1.727709574414762472e-01,1.512818307920340000e-01,1.370924452491800449e-01,8.357600004506476887e-02,7.078896971183423759e-02,7.141789120509688116e-02,-3.416969100207621624e-02,-7.612657249888490213e-03,1.773599321211298194e-02,-3.060618792404339820e-03,-2.825469695215105173e-02,1.462238511835328714e-02,-1.973160490196192163e-02,-3.251944227184601355e-02,2.250204946413115678e-02,3.898878954625756288e-02,4.698235668617881805e-02,-1.278151455960506791e-02,-2.335390469165254945e-02,2.554661468584259326e-02,-2.908197289322887041e-02,-2.630823117692253355e-02,-1.108993015124262599e-01,-2.019349730844954560e-01,-1.593801952030404478e-01,6.216617563506936228e-02,1.970975537719960036e-01,2.105906341599063647e-01,1.782482866201331451e-01,1.333115379605521456e-01,-2.163944496284970695e-03,8.315682401469250140e-02,8.600875937226154511e-02,4.773726254597504548e-02,2.217619421377824834e-02,-6.519008681313800957e-02,-7.370803217221440218e-02,3.014874162638855881e-02,-1.505631768385986419e-02,1.804863874639960064e-02,-5.953766375501476360e-03,-1.713919776162966396e-02,4.035888841849452624e-02,-1.161988962041064430e-02,-2.246852724666871873e-02,9.592836692119544387e-03,-4.334129707615978766e-02,2.886771178946191674e-02,6.450383788514733874e-02,-3.836875643883080889e-02,-1.887764234314232015e-01,-1.372399388622534688e-01,-6.659508333029912075e-02,1.074903705504277537e-02,1.354110301546061490e-01,1.696295843181505059e-01,5.263659128511468527e-02,5.469911112068212566e-02,4.990968630429110098e-02,6.847400036148905411e-02,1.035253380160081615e-01,7.047561289483310343e-02,-2.841595815531268790e-02,-3.585909640085202261e-03,-1.558174199562441719e-03,4.969026485282282413e-02,-9.273310824566088906e-03,-3.516445499352819498e-02,6.313068529273380136e-05,4.498833009454659970e-02,1.599208394872506100e-02,-3.895839268227865859e-02,4.680528685870510158e-02,8.651881450293313208e-03,-1.150790919344761749e-02,7.447680878021681328e-02,5.208672673118633009e-03,1.468913968893127003e-02,-7.758390199531493836e-02,-3.165117463829508065e-02,5.116963131300318601e-02,1.364307788043123415e-01,1.402406452129321690e-01,1.047428384373672722e-01,1.342641631791460788e-01,6.736195326674798700e-02,-2.826896144879436756e-03,1.635197555762452765e-02,4.965499128143350920e-03,-3.009538867036187781e-02,-1.815920307851422166e-02,-6.200847048358185815e-02,1.260159575466216104e-02,-2.103064983775659175e-02,-3.396297798482068864e-02,-3.288521090304213912e-02,9.747707076719167030e-03,-4.045060568752212316e-02,4.474058979807545716e-02,3.455906745805081143e-02,-1.038168979869010921e-03,-5.763379897834432913e-02,4.591975018359868710e-02,4.333377067416744298e-03,-5.408066905909531680e-02,2.200510883219558220e-02,9.827356676770566957e-02,1.385157907751610462e-01,1.685649549932318747e-01,2.622089628134762762e-01,2.082288711012110494e-01,1.107149965431863531e-01,1.096130378165733332e-01,5.774596574660859072e-02,3.863722315403814861e-02,-6.781539972731565925e-03,-2.793414143136170938e-02,4.502158705521368265e-02,2.402573500084497285e-02,-5.513808108649723844e-02,-1.311277967603196367e-03,-3.074113721789106801e-02,2.676267083377618927e-02,1.151366649787641944e-02,-2.977688370358316794e-02,-1.068068319790568127e-02,-1.714668912871934389e-02,8.653750494185997663e-03,-1.757288216818099144e-02,-5.626315243067220653e-03,-2.519293477412056295e-02,1.536000915160740284e-02,-7.146268576253739062e-03,7.353053569218327701e-02,1.061894997697011289e-01,1.790660391751981717e-01,1.977081658905983086e-01,2.701412101108578434e-01,2.134062616714703930e-01,3.537393907947012500e-02,5.962018879942960863e-03,1.218358600643350102e-02,7.761137309123795902e-02,-1.753592503973665229e-02,5.097815091452207598e-02,-6.012301452097074117e-02,1.711546317803048015e-02,3.733771924524365016e-02,-3.884436038100987088e-02,1.836819489644506316e-06,-4.071128223940143065e-02,4.610936781930530248e-05,4.828292282412693925e-02,4.584714723592932251e-02,2.649178653835911057e-02,4.340316848238814224e-02,-2.601298756845643947e-02,-6.054860525921482162e-02,-1.580116547322314990e-01,-1.729944164533575857e-01,-3.655946330589538579e-02,6.226894718747826019e-02,1.756956670175066904e-01,1.209453995215050148e-01,1.435746036433709349e-01,1.074208938649486716e-01,1.131593580459632348e-01,-2.307873781949498077e-02,-1.516372010431901035e-02,-3.409708936356648651e-02,-2.596308599946330412e-02,4.267188055476468789e-03,4.900756420538625313e-02,2.195657486539267372e-02,-4.295869157689860551e-02,-4.340397429717450517e-02,4.111847339947060503e-02,2.206188053975678340e-02,-2.284933552156905023e-02,-2.801469223946093795e-02,-4.589567023248756344e-02,3.267200206355878878e-02,-2.924664512578344436e-02,9.134007678215115555e-03,6.885236474030810572e-02,1.295258501137184180e-02,-1.478038386109998548e-01,-2.326422045743255229e-01,-1.720747881710951999e-01,-2.461698744878821135e-02,-2.391089761308011746e-03,-2.392037786883539560e-02,-2.076345205096664578e-02,9.385078900933270518e-03,5.202976836367186053e-02,7.752588232541677248e-03,6.502148087535260246e-02,5.067130726453949498e-03,-3.118565418989382304e-02,1.028683599841772461e-02,4.854794585783234195e-02,5.653428441408199501e-02,-3.932946602579852867e-03,-5.466003132226198574e-02,-1.098099715439182847e-02,-8.278072791874592842e-03,2.964588714690621907e-02,-1.486883361505567797e-02,-3.040905040637108606e-02,7.645672396915791091e-03,-2.631377937336099211e-03,6.376573940676980717e-03,-1.988967528784735608e-02,-4.159968649697774051e-02,-7.702030173620061371e-02,-7.598085660320297308e-02,-1.411998348212508969e-01,-1.297452984332347903e-01,-1.318143311532606055e-01,-1.350274524307498170e-01,-5.290571978632185174e-02,-5.851523569219542475e-02,1.027847201417054768e-01,1.402695830933533561e-01,5.179270874603735669e-02,1.679852574476610461e-02,-3.121078605169791507e-05,2.663015773951457610e-02,-2.354214745333400166e-02,2.606384893337433672e-02,3.210529388959289243e-02,-4.745257833396909070e-02,-1.770723873469588414e-02,4.433019797166399406e-02,-4.372243542596585680e-02,-1.173092108550708584e-02,1.856445432670952855e-03,-1.289067666462544864e-02,-1.374905826057572569e-02,5.825011614660630110e-02,3.662244085395234550e-03,-4.600430307064019148e-02,-5.591242349376792514e-02,-6.701325760431321721e-02,-7.704679968954059044e-02,-1.356773232549317587e-01,-4.875539722720093061e-02,-3.703259212587947657e-02,-4.338621478824677968e-02,5.956985363057252375e-02,2.155538879918703424e-02,-9.442878392861781336e-03,-4.189379076810609281e-02,-3.924756556830405300e-03,3.606812827811498035e-02,1.345970272258887115e-02,-6.789056311236837948e-02,-5.415963826485075544e-02,1.897373187156522339e-02,2.042815236139809872e-03,-2.287381065553681717e-02,3.570216047887439514e-02,3.002037837805012627e-02,-4.468044115375181813e-02,-5.898238164689553753e-03,3.806862846582285964e-02,-4.028593299989086107e-02,3.647764097614612094e-02,-4.773698346661760759e-03,-2.607921271891319032e-02,-3.956307199336575944e-03,-1.760641956323082645e-03,5.600026899018444720e-02,-3.463254976654001061e-02,-1.461680777807913313e-02,-1.535833271838699977e-02,-5.461568300445238805e-02,-1.713300197162502536e-02,-6.422821297451389300e-02,-3.309045732852098493e-02,-1.425389245344446665e-02,-2.594464793484567780e-02,-4.223867144646187982e-02,-2.962165025845510738e-02,-7.747625302488125865e-02,2.147746493650950703e-02,3.808713667787945456e-02,-2.003250125414395358e-02,1.193105566357943216e-02,-4.952362971207267123e-02,2.539366732961413631e-02,2.594030625929881484e-02,1.122681137055719924e-02,-3.664044474427483739e-02,4.195003547268293803e-02,4.906399294576530706e-02,3.190577220985640894e-02,3.782174075143866082e-02,-4.358612807298690300e-02,-1.393790115361375273e-02,-4.295899566338545229e-03,1.819921858855488503e-02,9.757681807591010378e-03,8.305823092529735982e-03,-5.801200951969893299e-02,-2.064387781805217259e-02,-4.941114909337441380e-02,-7.196340069205079890e-03,4.117914636109944182e-02,3.817864358440071267e-03,-8.539217304519668150e-02,2.418625391243028194e-03,5.840536171188234760e-02,-1.229922625247012978e-02,-4.007413368650891011e-02,-9.274514630239316659e-03,3.000815710881494722e-02,-2.058981240054722633e-02,4.082123223162352488e-02,-3.874373866400731420e-02,-2.885976150903810794e-02,1.600814646841267064e-03,5.643205317275787336e-04,-6.664907738795471277e-03,-3.671967554504750042e-02,1.817763835627028007e-02,-3.097972427799965817e-02,1.693017644944603411e-02,1.472779677029627081e-02,4.786793978938766458e-02,6.921094126562400348e-03,6.245601045941335389e-02,-3.227578063341230742e-03,3.255959053033847389e-02,-1.424283901690417097e-02,2.306139050085858136e-02,9.258598883751857633e-02,4.418672452093189151e-02,1.153552051641558614e-02,-7.173189076343051626e-03,6.902330570037629003e-03,-1.730982413526554325e-02,3.457136782058786717e-02,3.550352248142506217e-04,-4.672427208006319638e-02,-3.159508230656641464e-02,-8.277250253911593025e-03,2.455197358982295908e-02,2.902767028381600389e-02,-1.330339957491585845e-03,6.921292265430513402e-03,4.197374176152551123e-02,-9.730882961200053305e-03,6.096466862564074891e-03,3.220063476411746256e-02,-1.093724775399881020e-02,-3.070586431108329739e-02,-1.095317263969878240e-02,5.736776810425447959e-02,3.294569536051586423e-02,-1.603604570138758567e-02,6.894711049249001127e-03,-5.643345756634327156e-04,7.720831372335693055e-02,1.797354723029558413e-02,-3.139025316273739291e-02,-4.076941966726662508e-02,4.294762875774306432e-02,-1.424317329382573331e-03,-3.842226101722110571e-02,-9.671096785094396298e-03,-3.849653563609105322e-02,2.341443910312756768e-02,3.104229145230112674e-02,2.347832806120550564e-02,-3.697192651916289541e-02,3.612937850775543858e-03,-4.432866166946733411e-02,-4.007110471160327259e-03,4.975989897464450085e-02,1.329528353619574901e-02,-3.424823126363892717e-02,-1.657629548868400429e-02,2.307134179608167843e-02,3.510977360606038281e-03,-2.806625104504216831e-02,4.529202867543959121e-02,-1.431584865060242420e-04,4.219845490261251580e-02,2.642228419216085047e-02,-1.248085476715482707e-02,-3.755071496245627333e-02,-9.375916688480454703e-03,-7.742770034889458024e-03,-3.427052367132311927e-02,1.700656303593052216e-03,3.607718882375443581e-02,5.696394449569543508e-03,2.391053283448020539e-02,-3.336685464895207398e-02,-3.978896468937301312e-03,-1.251497558095648888e-02,-8.496851623173914958e-04,-1.420781260945801899e-02,4.043429050817326509e-02,1.068168833208441720e-02,-5.650025195846675174e-03,-2.881819629372719613e-02,-3.658779744254134214e-02,-4.370822234089103558e-02,4.760540374955241766e-02,-3.605447942118305475e-04,1.670048579784858944e-05,2.446657400125755791e-02,2.109487386566335013e-02,-2.217179579521892305e-02,6.085066358361110837e-03,-2.883485416444865612e-02,4.166377746452697844e-02,1.724077831968809024e-02,4.512809661092576086e-02,4.634435128930988745e-02,1.152838224506807455e-03,1.312966202662066428e-02,-2.415020803009701109e-02,2.003044818277989469e-02,1.758792964413218030e-02,2.668770946543444489e-02,-2.819426552137162256e-03,2.826106504362072003e-02,-1.362850979955439884e-02,2.830952319681388774e-02, 6.966687261255262442e-02,-8.525937962295393469e-04,2.247985178666288275e-02,-3.848732016598715999e-02,-3.403091235429805961e-02,-1.055733045231552897e-02,-4.558560102439000034e-02,3.818987495322484493e-02,-5.621778102624909457e-03,-2.943993348353340922e-02,8.621170858525040170e-03,-2.282908595105621885e-02,-2.226061304807977134e-02,-1.015044633723567735e-02,2.147732454254490386e-02,-1.901932759983989904e-02,-2.269783020075941821e-02,1.886545555099453098e-02,-8.598108439681062531e-03,-2.031093504244492476e-02,-1.094753951397225977e-02,1.208097164611382501e-02,-3.809163900458693158e-02,-3.157487280289071607e-02,-2.842124242553262237e-02,-3.139401321872410666e-02,1.981632969920919807e-02,4.538810176806308549e-02,8.847785943059016667e-03,4.062064938562177929e-02,2.463321445814395383e-02,-4.603903145287496779e-02,3.045174210386748792e-02,-4.706214316859929497e-02,-1.260496499400568654e-02,-4.950865163528361812e-02,4.118750068558811595e-02,-8.750901724516459146e-03,2.301131310565521226e-02,-2.065820896678995794e-02,-1.700299314326726707e-02,-1.698118250608946639e-02,-9.602355113253691283e-04,2.002172521895166646e-02,4.865739900963213758e-03,-2.639264559021420320e-02,9.635404962685138394e-03,-2.895408110779472410e-02,-4.892451717124578908e-02,-4.568608425239117921e-02,4.604949823891778260e-03,2.875610863176535081e-02,-4.827461521273129080e-02,-3.187201189652971722e-02,2.983860072267251196e-02,4.030226101348792500e-02,1.657891047072254653e-02,1.089830589849732911e-02,2.897957805764499184e-02,2.501750867496788100e-02,-4.779208624002263817e-02,-4.627258976729552858e-02,-2.708384280582885190e-02,-9.998797009146562220e-03,3.764709213692050971e-02,3.634464509105833629e-02,-1.267469080904057993e-02,2.975981677761915453e-02,6.460051835567449940e-02,-5.241439385996057854e-02,2.024604462251052006e-02,5.591970583386059873e-02,-3.219236821809630389e-02,5.615998979919665374e-02,-2.671004022484835868e-03,4.706054495854923407e-03,6.021672142092552443e-02,5.184360435664830957e-02,6.377377266135324241e-02,-2.941889758324182230e-02,-3.717972219113002685e-02,2.910159614084696644e-02,-2.843293558848985006e-02,4.432164572802237135e-02,-1.582322144483090665e-02,3.395497787308086879e-02,-3.184650272486636013e-02,-9.342782017256232030e-03,-3.287134489663591508e-03,4.206915118329875025e-02,2.667543361698646032e-02,-4.608506279161251468e-02,1.026312765252425548e-02,-1.785588135169777343e-03,-1.424157706679990030e-03,-4.385510081831179435e-02,-4.133079812701608707e-02,-1.717888708802807474e-02,1.728035558512545228e-02,-7.869514843054908199e-03,1.008519934761995529e-01,1.132951976589813697e-01,7.551313287010179287e-02,1.072469211331452121e-01,6.237090709960768642e-02,4.625014487306741001e-02,-1.316339082328723403e-02,-3.268986013485709191e-02,-3.310540489765805700e-02,-1.433353786666832080e-02,-7.540584656287943610e-03,3.282938432750549806e-02,-1.237016219909921333e-02,3.406291211242848394e-03,3.217575395731243904e-02,1.149463043024022413e-02,1.787338099022697802e-02,-1.550066457919760388e-02,2.778614987091145710e-02,-4.294477621320298005e-02,-1.417993238449836470e-03,-6.301464738641886221e-02,2.596199518538632595e-02,-6.798300459919518444e-03,3.555148821670027492e-02,2.008618877101672057e-02,-2.386306056484399293e-02,-8.396126569451389104e-03,5.496849398100120410e-03,5.108167690252759380e-02,3.249002301643780927e-02,4.233820232603495437e-02,7.290267273556928773e-02,8.834612122149192170e-02,-1.994384609451370360e-02,4.115168838533293794e-02,7.323299741873804704e-03,-1.748269038589783317e-02,2.986168444168578462e-02,3.321005742082698553e-02,-2.621690038393020838e-03,-1.254160339539439617e-02,1.139204018186262823e-02,-2.890203681748312534e-02,-1.077048348482101923e-02,2.692087201829942641e-03,-1.931138796022325785e-02,-3.420210278427508049e-02,-5.948704738942835191e-02,-1.496445489676510865e-02,-4.043322528458371395e-02,-3.603686942949205305e-03,-8.509961512754259105e-03,-1.395525466535621310e-02,2.352714520665965398e-02,-2.604841136441645930e-02,-2.622388816899433317e-02,-1.085505364214370272e-02,-6.953808452815650465e-02,-1.671520288927952000e-02,-4.720570295541790147e-03,-9.449917222496090341e-02,-2.202527845853554864e-02,-4.335833722913092977e-03,2.115850110447188917e-02,1.456615492329991525e-02,-5.460172259957196683e-02,-3.072666285973282146e-02,-4.779828066123886776e-02,-2.806681873742779276e-02,-4.170458048761132436e-02,-3.613731555066834050e-02,-5.465050279553125556e-02,1.095151914593204059e-03,-1.206264765247311854e-01,-5.894794155152967285e-02,-6.255145654410319833e-02,-3.899460684161406426e-02,-1.023805957323720289e-01,-1.110820957939802206e-01,-1.133823229772338570e-01,-3.602136160717660934e-02,-3.628423552774453359e-02,1.530905158251894271e-01,1.261421938952029531e-01,9.400143664845264646e-02,4.007354892649119676e-02,-1.111594016552430383e-02,-5.911154590768390171e-02,-1.167876111718883780e-01,-1.581118070229120820e-01,-1.237939223507298209e-01,-3.754852724880491932e-02,2.499017414661793002e-02,3.125746190330304028e-03,-2.732488420445624774e-02,-6.599566480355341380e-02,-8.494293022255891557e-03,4.044687814146136207e-02,4.040483019754522592e-02,-3.020534773461711411e-02,-8.157491656125459567e-02,-1.102561066302598092e-01,-8.514426249071666009e-02,-5.958159905693780067e-02,-9.720049073213941904e-02,-6.990263745523392358e-02,-5.772567392657781959e-02,-8.294644546485648029e-02,-3.060898034029563980e-02,8.394817811378242622e-02,1.795833383007093831e-01,3.067114526027062138e-01,2.022703224291684532e-01,2.277240712138398904e-01,3.785323599525022148e-02,-1.093561843321575189e-01,-1.027409737666502426e-01,-1.487319635630768300e-01,-1.077215827397467185e-01,-2.560446331607620779e-02,-7.636560949859858005e-03,-8.280861893163935644e-03,-4.507276743165261612e-02,4.239224460463668701e-03,1.558629408315298503e-02,-4.218660643010384986e-02,-4.878794519428888282e-02,-8.340635754286838954e-02,-3.585979829462645346e-02,-4.332529706010860432e-02,-4.292641285003566398e-02,-7.178677534143254602e-02,-5.990214730663204201e-03,-5.957341109038891830e-02,-5.012570231147001065e-02,-2.098601668203637152e-02,9.933201023943928620e-02,1.625583462222068842e-01,2.340873914862466876e-01,1.688011883117921941e-01,1.870552400198495502e-01,9.039597504101376524e-02,2.797167400880358479e-02,-5.025073670600395392e-02,-4.067753344108347019e-02,-8.390804300166063157e-02,-8.982199076455676945e-02,-9.051041849280225260e-02,-1.856327384855189361e-02,3.562116227011692671e-02,1.298996944597926272e-02,4.637601951819679547e-02,3.396057216894628195e-02,2.583481667826360503e-02,8.898253215069111891e-03,-5.116486982238256653e-02,-4.491407672510611820e-02,-8.057491609394261400e-02,-6.082428919641495041e-02,-6.301965793140786032e-02,5.841112291661331585e-02,2.460462511747305622e-03,1.238214058367921311e-01,1.715236441945133805e-01,1.220513519854239254e-01,1.297418349295250684e-01,1.799643639325254618e-01,3.943644076431451762e-02,-4.509339198550881694e-02,-8.753455067882802421e-02,-2.091699771457271144e-03,-2.705526725201071181e-02,-1.425290907590525402e-01,-8.421825933364694705e-02,-8.284626216845736302e-02,-7.928148705843750255e-02,5.428293898615914326e-02,-1.313176174019638535e-04,6.568688361557533523e-03,3.445670528493618989e-02,3.749769664503725675e-02,-4.788281553292492165e-02,-3.558934074722822256e-03,-1.420324702103477679e-02,-3.728432950162649528e-02,-6.260457696440346886e-02,2.107452706516202076e-02,9.079947778456098906e-02,6.047930042135962053e-02,1.300889821458334761e-01,2.004177946678872557e-01,2.312440663134342766e-01,1.389239149954266672e-01,1.527057992085057159e-01,5.387132422718323571e-02,-2.176397004367871257e-01,-2.104359768578369927e-01,-1.658153216496891791e-01,-1.010605521475953505e-01,-1.211379181035523167e-01,-1.331713439348044259e-01,-1.808985590312492120e-01,-5.556802324644090352e-02,-4.860545899201763193e-02,4.771941105581187226e-02,1.612169603025988274e-02,-3.374271010602077764e-02,2.288792610622990276e-02,5.698269827425869738e-03,4.694625602330720904e-02,-1.957373737191704308e-02,-4.982750209087278420e-02,2.357967787062463516e-02,-4.450937355633198533e-02,4.381643267637471556e-02,1.011233453569336249e-01,2.172131991669951079e-01,1.645712631376349266e-01,1.836350823808003685e-01,2.052054220674023599e-01,8.780396198299739163e-02,1.007578836926221882e-01,-1.483125780590933973e-01,-2.474186448367257096e-01,-1.488545779895336929e-01,-1.234579097329737279e-01,-6.547000458806313816e-02,-1.198794113090130009e-01,-1.058991948926483462e-01,-9.334451434507193279e-02,-4.787847246562047798e-02,5.066733363853350575e-03,-2.541720526679987213e-02,4.244693542804851838e-02,4.626864253956570333e-02,3.225454996454295287e-02,-3.343171740656163127e-02,7.753710412243333683e-03,-2.634391147496742414e-02,-6.248062918428376293e-03,-1.295805184744336716e-02,4.753287933309834068e-02,1.126475031652252323e-01,1.408968498221973009e-01,1.771267333988412740e-01,1.806983630618380077e-01,1.545568152817508867e-01,1.391325231832420406e-01,-1.128157861779247734e-02,-1.627877630916445550e-01,-2.501724763798660600e-01,-1.657508076066801506e-01,-9.116734983663603298e-02,-4.988746418821825811e-03,3.618873003992724435e-03,4.969514953697141621e-03,3.756859911095401794e-02,4.397464099966213319e-02,9.844316502707695093e-02,5.045845974558211405e-02,8.085301815042229834e-02,4.341585725856249300e-02,-3.077553924489890690e-03,7.062464670620736962e-03,1.791180681343784720e-02,-4.236805189614623046e-02,-2.015042928508821354e-03,1.944313491561000529e-02,5.370028240519702026e-03,3.265412217556556973e-02,9.598825827360667196e-02,1.055823577502462834e-01,8.115519105066801298e-02,1.718116434241161172e-01,1.206036125960919386e-01,1.344354622253108589e-01,2.579638882863994134e-02,-8.943355063957010576e-02,-1.354896758676956969e-01,-3.905243698793961493e-02,4.671427391097471987e-02,3.618607593451660803e-02,-1.277027793265367046e-03,4.191009339881782148e-02,4.985721281780585573e-02,1.080937524718463966e-01,7.538948986669037448e-03,4.472982668054252542e-02,7.114174055126448737e-02,4.539741853403920363e-02,3.310177607544306094e-02,1.113165302180403604e-02,-3.103450928916839935e-03,-1.074634660041484668e-03,-2.381837984150160514e-02,3.989978850886975043e-02,5.642526998378923075e-03,2.686907622811508106e-02,6.941209308369489239e-02,-2.939397115556034528e-04,4.392336004371374947e-02,7.373198853678632203e-02,1.465754568729151497e-01,8.839747555228925913e-02,-8.438190845821388897e-02,-9.178236214519301661e-02,-6.782212228018605349e-02,4.168407680929268888e-02,1.119182201665927801e-01,-7.105408128658588680e-03,1.726458575727535250e-02,3.596968478038087974e-02,3.558909037873392994e-02,1.228494819262073573e-01,4.839992091807499008e-02,1.199008001354790777e-02,-8.072968637081519294e-03,-3.975395084760304301e-03,4.087470902610700757e-02,3.780250794725119323e-02,3.382690746428869411e-02,-3.772402211834913199e-02,1.949779686486755037e-03,-2.758296190835780870e-02,4.485289267455859485e-02,-6.849806036499774507e-03,3.881499771696429041e-02,-6.126160667970498297e-02,-5.714738568406918517e-02,7.389364188322168625e-02,7.210812336107590148e-02,-2.188720263978911201e-02,-1.835613407962027877e-01,-2.688552888892133952e-01,-2.321163853191336723e-01,6.646646760609774794e-03,1.334399461089431638e-01,6.152259637377541918e-02,-1.137950841297169155e-02,-1.432578420757226259e-02,8.068495175889364712e-02,9.963599882298640464e-02,1.088949961797704702e-01,1.402818340956986723e-02,3.111564140133184827e-03,-4.082714809507968085e-02,2.987461186829635726e-02,-3.571310967319672042e-02,3.669625495521662562e-02,-4.894157016717892716e-02,-2.323035663719695554e-02,-2.016616034857724934e-02,3.027491204453717707e-02,4.655098945143709699e-02,-4.109969875609033318e-02,-1.286874430400296865e-01,-4.473047221128895190e-02,7.823927153321957179e-03,2.470729845704393995e-02,-7.049135712104369345e-02,-2.380964143941621813e-01,-2.044874674649287960e-01,-1.902143791275562046e-01,-1.025191745645237240e-01,-1.669072482828337298e-02,-5.986368844475509904e-02,1.572350901399878140e-02,2.878689397927157098e-02,2.788065529888684654e-02,-5.268373272817635476e-03,2.522240767094672403e-02,4.285133234772566663e-02,-1.315985297073040891e-02,1.096309572698487764e-02,-3.720516336509688965e-02,4.891305787155933449e-02,4.790369484057237226e-02,8.571043247493102812e-03,-1.500356575026869956e-02,3.641037344195089537e-02,-1.175124150301639671e-02,-5.334041485747914590e-02,1.707832980662591510e-02,-2.902266374844031036e-02,6.366447093779051269e-02,-3.401782836169685905e-03,-5.973783898442536211e-02,-5.649348940290987303e-02,-9.929593639703462871e-02,-2.224764929795761681e-01,-1.643833402198265070e-01,-6.953739922998657119e-02,1.693626783675401121e-02,4.704508679599267440e-02,-6.032294418373868213e-03,5.481968718285893521e-02,-5.799094745818307584e-03,-4.804107303088885061e-02,-3.802338776620469568e-02,-6.910836166483116938e-02,9.958530707547338587e-03,-3.451801746166525270e-02,3.435330960619119300e-02,-1.133460525383880174e-02,-1.018334746759445159e-02,3.731858887789411827e-02,3.708715840886848275e-02,-1.182746809264536951e-02,-5.901467128881466434e-02,-3.676803721712245537e-02,1.512989343534628696e-02,2.866882875944241904e-02,4.430398786573531977e-02,2.966594378463447909e-02,-8.123863972071507233e-02,-1.004805909968635863e-01,-9.270463578489633594e-02,-1.057159070843178839e-01,-9.459357022401661264e-02,6.281120237637928538e-02,2.461028009443154418e-02,5.570575131989941899e-03,6.478310364652193135e-03,1.005398549741705477e-01,-3.614830525685259338e-02,-4.750999869755617722e-02,-3.125487286006924798e-02,-3.825998366284156377e-02,-7.667897536937356984e-02,-1.261422566179688266e-02,-1.266296326310700771e-03,2.908443598276228004e-02,6.124283734744238872e-03,-1.374428260985608580e-02,7.891819225523412015e-03,-2.915121699007568873e-02,-3.556687100912042654e-02,-5.108536253191439669e-02,6.461437360459730550e-02,8.585663502831662741e-02,5.434837642808555691e-02,4.173495479469590402e-02,-7.627747471584166161e-02,5.191329235518602619e-02,6.096602031565426238e-02,6.028267778366123986e-02,-5.241080116705851104e-03,-5.929110975282071011e-02,-1.081156719487610419e-02,-8.712775093224808809e-03,3.468612218320758864e-03,1.191084364521520630e-03,-4.235075992347100970e-02,-5.315329084001003263e-02,-5.406223678087251905e-02,-2.221376646024083353e-03,-3.005859359307604117e-03,1.573727891943321397e-02,2.089951045810553576e-02,4.537681273062209308e-02,-3.224838541925754282e-02,3.376456958786210050e-03,2.084781108598507751e-02,-4.498524834533551564e-02,-6.047685874069952394e-02,-1.264595704254603270e-01,-2.648869890528413387e-02,2.230072811880982539e-02,4.906031559981610668e-02,5.922079105653760061e-04,5.823803778392130232e-02,1.184740626131960822e-01,1.450307882742569721e-01,8.454640017992431922e-02,-7.960949745533704713e-02,-4.116123498992436958e-02,-9.880891621841038364e-02,2.511644967871422968e-02,-1.056586561956519565e-01,-8.842141458017173383e-02,-4.588679034951572561e-02,1.981882395439161712e-02,-3.096050607730613941e-02,-4.773951121034283179e-02,-2.487337164688603261e-02,-2.677507238688550673e-02,-2.272437974639765143e-02,9.164963755618524277e-03,-9.847224491056273676e-03,4.048315795116136373e-04,-2.811258341269139496e-02,-6.114853870523552504e-02,-8.821574836950125953e-02,-5.184589500430628051e-02,-7.357075289378985083e-02,3.969665749913151367e-03,3.993552215488500867e-02,3.672709627453979442e-02,3.725049793274501364e-02,1.295557482971749497e-01,1.262552972006985574e-01,8.166802944228993000e-02,-4.399388519806664462e-03,-6.754486408499178751e-02,-2.227745648066227838e-02,1.550851767140361444e-02,-4.711658158750350184e-02,2.697042462437027749e-02,7.940745971360274255e-03,-1.543836414239091979e-02,-8.668434886578348098e-03,1.724621223089394320e-02,1.040992122214820688e-02,9.698901739710510516e-04,2.214836141429683478e-02,-1.501831780108674880e-02,1.135985241953394592e-02,-9.155060166897377449e-03,-1.871065003157131382e-02,-2.183477443802950627e-02,-2.238740444651518210e-03,-4.512443114345070228e-02,-7.669620838865036372e-02,-8.403943636800743910e-02,-3.994769590255504293e-02,-5.161449903904312408e-02,-1.258405764741968025e-01,-8.780858091823735834e-02,-2.579246098606254381e-02,5.554060193685276571e-05,-1.630348619159278922e-02,-3.785194468718527244e-02,4.465313372822095513e-03,4.082636011711972962e-02,-2.846104340407313443e-02,3.984556677186917167e-02,2.845924489086741616e-02,-1.669064348908208800e-03,-9.682401428980238686e-03,2.833258178280722434e-02,-1.302484693018691499e-02,-7.608507125120393677e-03,4.887650226412523086e-02,4.179664252540024605e-02,4.887570939609596488e-02,-7.806756370734302397e-03,3.115825903035298466e-02,-1.709274911069719877e-02,5.840627745891438169e-03,-6.778531432962972558e-02,-1.518262357354159542e-02,5.805323995151324273e-02,-4.176452406899834602e-02,-7.707612722427685525e-02,-1.023550702824279623e-01,-3.729290333790726691e-02,-1.366154635305595055e-01,-1.239580973951588255e-01,-9.205935710395037053e-02,-6.809396719755393679e-02,-2.694961355846325554e-02,5.183728713217905515e-02,-4.688881219356706709e-02,6.858572738181332312e-03,3.101593954385807594e-02,-3.590236728483607587e-02,1.904205916364419202e-02,2.817638416169510399e-02,2.527701713791197582e-02,-7.834996590892574775e-03,3.627715376895003507e-02,-3.578695093765230789e-02,-1.999376242693848976e-02,-2.691569580112509671e-02,-4.326255164356945099e-02,-3.886101658193745478e-02,-6.146871126230667864e-02,1.702998207161064703e-02,-4.325438674500157316e-02,5.616880838396165476e-02,3.955418492231193434e-02,-4.347281290693687933e-02,-3.345694970584690148e-02,3.149982778101369923e-02,3.933251128608783453e-02,-3.894600520574800773e-02,-1.700304993777712950e-02,2.171008840313751621e-03,4.623041499500066959e-02,1.374274331531597643e-02,-6.466504843461423624e-02,1.591093696759654508e-02,5.297732032670497693e-02,4.841902398436051871e-03,1.393129590082720255e-02,-5.256862677276227455e-03,9.355725138329851545e-03,5.828321920912385434e-03,-8.815028339832220450e-03,-9.907219883509663094e-03,-3.442013791877788359e-02,-3.315238739993128791e-02,2.845813272062990007e-02,-4.499447409111925755e-02,-5.674053220876602854e-02,-1.668345010616852434e-02,1.750503584520828049e-02,2.855157177866712859e-02,-3.450614702844537630e-03,2.721759549473391770e-02,9.264078076614562507e-02,1.162065952594901475e-01,5.721733514448823499e-02,1.610823304325423311e-01,1.368701771794861854e-01,1.728375976522300017e-01,9.786932923910693360e-02,8.928300864169577689e-02,2.069328508352692719e-02,3.254870783571383458e-02,1.680877706315615783e-02,-3.248905051701479751e-02,-2.803266578404389406e-02,1.106339511384969373e-02,-4.143342892552218104e-02,1.715708596048834411e-02,3.144116088636082773e-02,3.550933945025434857e-02,4.540330293033290054e-02,4.647043975203328514e-02,4.919999085231945013e-02,-2.025474434247570912e-02,3.919560545940950491e-02,-2.361415861019956416e-02,5.613397174536824408e-02,1.669432673791196656e-03,3.632741188735855165e-02,-2.114336533117324585e-02,6.021648590861169992e-02,6.238718803876597968e-02,5.994180289069513112e-02,-6.880793379870723918e-03,7.427180111818511288e-02,8.347613893067765828e-03,9.292261604165952260e-02,3.491976534691176859e-02,7.144118959506542965e-02,5.714732943737958065e-02,-2.802811443708784142e-02,-3.269563144532963705e-02,1.235488384117585520e-02,3.989448784684204719e-02,1.839185742497004283e-02,8.479740575367711308e-03,-3.465167646904074306e-02,-1.425864844491980116e-02,-5.446505475541187080e-03,3.265070107060850935e-02,2.114981686183697862e-02,-1.281599803769394724e-02,1.407654310801341457e-02,-6.640825941066277362e-03,6.241356740931776857e-03,3.628174164087099012e-03,1.223057756302134945e-02,-7.730651306389202046e-03,-3.477763898605607668e-02,-2.676106451255712629e-02,3.391468482029703219e-02,4.975045166504431932e-02,-2.967599109920650638e-02,-1.980330244843337209e-03,2.708293405030794826e-02,2.760753033319328364e-02,3.057163747837661136e-02,-1.216436442959485491e-03,-1.885138761481715275e-02,-2.539220716726394919e-02,2.919101058067317955e-02,-3.621273435779089056e-02,2.847355812971529010e-02,2.240099689988327147e-02,1.486520727790283103e-02,-8.055922494937459155e-03, -6.961096664982802107e-02,7.355237953466230161e-03,-3.310391045476547556e-02,-2.696994316282161006e-02,1.302009674607389200e-02,-3.983228858644487919e-02,-3.556069746988917146e-02,2.805911578772934956e-02,2.595238779078910818e-02,-2.932171558332100081e-03,2.634810429828569889e-03,3.675258807319566057e-02,3.372085687583832592e-02,4.405604398778910358e-02,1.143975179142594362e-02,-3.699736930815156200e-02,-4.688343064557579098e-04,2.212893592289301437e-02,2.748268661345582009e-02,-2.054803599735728625e-02,-2.025119457751430041e-02,2.309785499194004499e-02,-4.398232697234959881e-02,4.510344242831569594e-02,-3.793699136229845836e-02,-1.734778297374119094e-02,2.544946864637052941e-02,-1.506676386276282337e-02,-3.503244737676838860e-03,4.682534109882396933e-03,1.955073843457103000e-02,-3.494263332144921519e-02,1.346702297889096345e-02,1.512321146458175947e-03,4.439775020957922869e-03,2.189944966950814476e-02,-1.410527652202096111e-02,3.429650134754858026e-02,-9.607084460338331799e-03,-2.048578501069571456e-02,-4.549523749964880757e-04,6.066591710762195278e-03,3.716930935420008179e-03,-2.998202464393134176e-02,-2.917310495988334126e-02,3.941984670715421857e-02,4.480766667870021008e-02,3.515846798884577490e-02,-4.184603934656849766e-02,-2.728781480650904756e-02,2.107484419417313126e-02,3.347419772032904361e-02,-3.069784231942656108e-02,-4.061496284277730379e-02,4.426903826567768485e-02,3.471866991749422704e-02,-5.720058318205857584e-03,4.687731140334389091e-02,1.350824731096524067e-02,-3.497876023254888056e-02,-1.471806194924511063e-02,1.124189851890694536e-02,3.511634276026423529e-03,-1.816970240025017613e-02,1.816374289625878602e-02,4.024589318049487385e-02,3.370840646073036684e-02,-3.939817325378116436e-02,6.847520564016249672e-03,1.628530156089710856e-02,2.716914558913669647e-03,4.732385487385261380e-02,-3.155654475796265679e-02,-7.219740003425732452e-03,-3.439448853392550187e-02,-8.494152813068568675e-02,1.470948345619041767e-02,-4.861731125558676342e-02,2.389124650837193276e-02,-2.234211460228104421e-02,3.088466489668363971e-02,4.820501422552843362e-02,-4.661060208363007606e-02,4.276126608671131091e-02,-4.961214949973710708e-02,-1.502138209122815676e-02,3.256001710973326080e-02,1.217160205806974010e-02,3.314606908110416528e-02,1.752135182497024934e-02,3.452347958314995469e-02,-2.585613402894383628e-02,-2.842852939452791827e-02,-1.049387921858026262e-02,5.973509943061765248e-02,4.252956083068570869e-02,6.846298094408020951e-02,1.321695876818782499e-02,4.048583055767442790e-02,-1.160841466062237023e-02,-2.268496499312910517e-02,-4.778278312737126166e-02,-6.403465484807684127e-02,-4.259883141600218776e-02,-6.686950803126506804e-02,-9.326980455377718859e-02,-5.379255600310402230e-02,-5.659336380855010951e-02,-1.242110738560183933e-02,1.656807043265240420e-02,-3.507589080637361217e-02,-2.640804111802984647e-02,2.849365667017336734e-04,-1.089122100929980352e-02,-3.252540999612188455e-02,1.207096020164562938e-02,1.686201189139914514e-02,4.188596806332604144e-02,-2.809355436131891551e-02,5.358160214543924299e-02,-1.436906915383649903e-02,6.141967738381052394e-02,2.039903620686402824e-02,-5.147196627671187658e-02,3.310689384612363478e-02,1.543872553218859356e-01,1.408493160859917992e-01,1.841578050478790973e-01,5.948791377390593577e-02,3.062528904746937911e-02,1.498577748238774376e-01,1.260088715097788525e-01,5.478163651765316500e-02,-2.343084101502261596e-02,-1.051908021298335978e-03,4.765297266953770657e-03,-2.922566428864064106e-02,1.997631568882612713e-04,3.241947178612793190e-03,-2.082016474737644757e-02,-2.597667723724605970e-03,-1.998778764357297608e-02,-2.878277870033121508e-02,-2.832927504997344650e-02,-4.560553488679876255e-03,2.209423939162783943e-02,-3.369251223931549275e-03,3.160481135636056954e-02,4.440679008401251376e-02,4.164960505382578337e-02,1.582835813530908409e-02,-2.255720391963694088e-02,5.822912223804985882e-02,9.387464019781127655e-02,1.566165121771643243e-01,1.205086754292322287e-01,1.414081209472231593e-01,1.065015585699662648e-01,8.229860671594850519e-02,3.702374327578984020e-02,1.211592392758182105e-02,9.414930733924131712e-02,1.391381161003850137e-03,-3.961985298059025190e-02,-9.621651438210608587e-02,-1.578616720986261018e-02,-8.197236136744884619e-03,-8.544002008159837583e-03,-4.824634173074862642e-02,4.177072493820783994e-02,-1.452664691143611825e-02,2.523361816073321773e-03,1.537619091862749143e-02,1.457702004154553047e-02,4.288968434872631602e-02,9.356498277458306922e-02,4.805286002865382516e-02,2.950991829054301629e-02,-3.494822495007192387e-02,8.038173531631748192e-03,4.893312622607224466e-02,1.026970069167845723e-01,1.603516685385322493e-01,1.480450314460740324e-01,5.758693202816051598e-02,1.017424042639301779e-01,-8.589337496082868201e-03,2.603398685755139649e-02,5.556181796956164570e-02,2.489175267097418903e-02,-4.404375831367399879e-02,-1.036957726417368081e-01,-9.869550431776839827e-02,-5.442409985472178302e-02,-4.609164926306744819e-02,-1.467053769964691765e-02,1.189738630824825963e-02,-1.163497782991762541e-02,-2.167144533335653434e-02,3.727746833283748784e-02,-4.480347997164558366e-03,-4.459818743023749891e-04,3.685669856839296488e-02,5.883050083926157775e-02,6.995682972858455195e-02,1.167387699047406704e-02,-1.896324039625688377e-03,4.361808218739495271e-03,8.028740115430803292e-02,1.236265498005326841e-01,1.344906372993991683e-01,1.939954768325800605e-01,1.554894160705782846e-01,1.846329595163163639e-01,7.426557933360938835e-02,1.682941202805569858e-01,1.715171848198521753e-01,3.334602332356848692e-02,2.440367513048114639e-02,-3.557507081301643226e-02,-1.689533835664038808e-01,-4.445629930228124638e-02,-4.570331943214678283e-02,-4.949727657552574489e-02,8.619716233465718469e-03,3.457495217605266458e-02,-1.494281095527232733e-02,-7.260640944839350484e-03,1.214172193408997145e-02,3.887496634137444645e-02,8.565960223164120757e-02,8.221924315073708689e-02,5.581424362567551090e-02,9.867467320917300277e-02,-1.312882181942277024e-03,1.589168526711321958e-02,6.859624210647609355e-02,1.251810991626256253e-01,5.224658246228678499e-02,1.147555554156972774e-01,2.304603694718866669e-01,2.929540044153889355e-01,2.921959305951521424e-01,3.220076947568069059e-01,1.343978701049452218e-01,6.178804563563912444e-02,-2.595869576880470257e-03,-6.957423265099006715e-02,-1.706068561682013152e-01,-9.819085289278275952e-02,-5.669205482990071626e-02,1.499525190586206008e-02,-3.733246955982993248e-02,5.435291340667863791e-04,-8.994676243832681536e-03,-4.198368053093772673e-02,-1.325730093717581923e-02,2.172729502479337285e-02,5.059298085202127565e-02,1.005413632270251573e-01,1.430183778314595561e-02,3.733415891371435341e-02,-3.530768699706682279e-02,-2.239887996096067910e-02,-1.778772384771331802e-02,-3.592414977032348800e-02,3.928041153118273093e-02,1.540973971336040971e-01,3.375902809466999055e-01,3.282652415134591495e-01,2.992011271198021238e-01,2.121125474802366406e-01,1.013898302408962754e-01,1.337723342134264914e-01,-3.296837162408913953e-03,-5.781488695384612991e-02,-6.713028127063459805e-02,-3.462793384822594744e-02,-3.874258329308418597e-02,-4.464245448627651713e-02,-2.590709471639217332e-03,-1.150539005961879330e-02,4.219157604127424244e-02,3.457212609039289619e-02,4.618498533338965401e-02,1.969697348719409713e-02,3.615999641677067333e-02,1.559239006266296274e-02,1.188215162652670430e-02,-1.116191294733234196e-01,-8.210256193849460593e-02,-1.282316625235139784e-01,-2.066796503157908305e-01,-1.832139394773571739e-01,-5.300448123182287946e-02,2.072237923428676132e-01,2.645604775819802579e-01,2.150662930894932934e-01,2.704377626386939015e-01,2.213214945169760806e-01,1.622971067419775593e-01,1.272487962147596519e-01,1.047905523757819250e-02,-3.594666907959854357e-02,3.287296505254071882e-02,-3.497747393340090022e-02,-3.326237961113405472e-02,-4.767252693903766686e-02,6.406712029273162190e-03,-4.653411940214933346e-02,1.455568842839008448e-02,1.769374830036739635e-02,4.659104540266342798e-02,6.726521283757300185e-02,-2.725810970021708482e-02,-4.387357225572107583e-02,-1.238338146668802459e-01,-1.557275110772443905e-01,-2.621957050510849707e-01,-2.187855365903512428e-01,-3.100240242635791121e-01,-3.204253447153238010e-01,-1.593416934691947173e-01,6.223344208989358556e-02,8.421591402916145386e-02,1.116915741238214133e-01,6.604234728297192492e-02,1.485371822138664699e-01,9.320591679364263749e-02,1.298963817953300015e-01,1.344954039618061203e-02,5.896741812304322379e-03,2.308573964718127480e-02,2.334526755620046010e-02,-4.729630307243607584e-02,-3.385376835844297258e-03,9.521597011842450331e-03,-1.804441197150438020e-02,7.440494335648903390e-03,-1.102740718502424931e-04,2.525282418855606670e-02,1.190750927370140370e-02,-8.936588442961689027e-02,-1.471318180876269310e-01,-1.701456739261385520e-01,-1.992784654955171431e-01,-2.259552981012645789e-01,-2.715022077048239724e-01,-3.589837359540747341e-01,-3.797445528600989495e-01,-2.182938258221720496e-01,-6.117192888271548445e-02,-1.241088910575226800e-01,-2.040861733554496238e-01,-1.174506332263053898e-01,-7.633377498529962668e-02,4.861914961509954114e-02,1.340759551191377796e-01,5.709436959429724234e-02,3.132810997967489658e-02,2.073792564580710998e-02,2.768317300317961818e-02,-3.940591503899452258e-02,1.542073677424006355e-02,1.845269220464731963e-02,3.993578799613338448e-03,-1.624789143806461972e-02,4.884609901558456535e-02,-1.967568491164304809e-02,-8.032811773014743306e-02,-1.167201608736970209e-01,-1.336894102307308874e-01,-2.359173711972790688e-01,-2.323482472862651582e-01,-2.245867443117612050e-01,-2.069497683641235986e-01,-3.189847193625675037e-01,-3.461509212554788051e-01,-2.624035452373413291e-01,-1.237086463697030930e-01,-2.057496156587787506e-01,-2.946353566989001749e-01,-2.572110208242484042e-01,-5.830801268812597221e-02,4.085657582662181181e-02,7.032113502748181533e-02,-5.775661496368665604e-02,1.847681751382318147e-02,4.202200126526470236e-02,3.260925314975086226e-02,2.248310180988769003e-02,-3.307285605823340885e-02,-1.213563444218097864e-02,-3.291025610455264316e-02,2.464094617263151710e-02,-4.126142681792647343e-02,1.048570711773886936e-02,-2.206918460138918014e-02,-8.257897761012669702e-02,-1.026695088547839446e-01,-1.620956910479804669e-01,-6.301164144069838768e-02,-4.436911135021024549e-02,-1.335600412709225249e-01,-2.188550094742885976e-01,-2.653889035192535384e-01,-1.251604752999934123e-01,-1.600566930227277918e-01,-2.030385331013153660e-01,-2.194298398642337833e-01,-8.835382764118208943e-02,7.028401838442702165e-02,8.077328814473322405e-02,1.862303286627831110e-03,-8.231901058925525372e-02,-3.380518983788392828e-02,-3.573006142710909855e-02,-2.364639741819155386e-02,-3.799535758794037738e-02,1.907363367426652412e-02,-3.218835682891277306e-02,3.836553881400661670e-02,1.189529870565705222e-02,2.172874057396674552e-02,-4.450137031903372148e-02,-8.892087525709028994e-02,-6.292210589102507912e-02,-1.214683158688889542e-01,-5.881703561789169976e-02,2.458543693352681012e-02,6.271280808758816772e-02,-3.997977383251118816e-02,-1.776452684238380708e-01,-8.451577990780556604e-02,-9.887204164030603815e-02,-1.544852476656141671e-01,-1.908400001073495555e-01,-2.458093411053287602e-01,-5.956420865980857626e-02,9.344628447090753964e-02,3.988116422374237552e-02,7.952777509781412679e-02,-1.475852035010922266e-03,-3.554425235220212004e-02,4.335822543585150443e-03,2.600826010846953723e-02,4.297583174105756160e-02,2.564104140406440330e-02,8.868640283970143090e-03,-8.646693266297321434e-03,-1.286305167489343315e-02,-4.230549548779385244e-02,1.648444057427030790e-02,-1.149678096469070182e-01,-7.868212597106204187e-03,4.712148576463600497e-02,5.792686101990203625e-03,1.002195589606369452e-01,1.105376486266706083e-03,-1.247575055891734647e-01,-1.154784459671139712e-01,-8.445906700259396549e-02,-4.981965416417519221e-02,-6.072830451240766175e-02,-1.169127904515928490e-01,-1.373395237883215381e-01,2.301938075761267299e-02,2.198834326751056972e-02,1.551586585577190702e-01,1.082568269163709379e-01,8.228784927911690639e-02,3.183071810787064214e-03,5.748828174118374157e-02,7.922496618299412763e-02,3.891075178921776789e-02,2.426246843170265510e-02,-8.190764968286065595e-03,8.758024050236588864e-03,4.530655289682855580e-02,-1.451775064642382707e-02,3.065261734447064478e-03,3.505060345448619136e-02,9.742727957680519246e-02,8.302135428911561199e-02,9.802933240201563980e-02,3.810360428397681354e-02,-7.105614974813531659e-02,-2.091073576922620192e-01,-2.274957693013721083e-01,-1.445716321141117255e-01,-1.486117229162138044e-02,-6.996867952067832575e-02,-5.190350258352808416e-02,-1.221279321130852441e-01,-9.884046409012847700e-02,2.392396207542756351e-02,9.538293204000698744e-02,1.060861819207145618e-01,6.003523336184269504e-02,9.254461876748530658e-02,8.464451741487222236e-02,8.027676209720212286e-02,1.534869899544999937e-02,-4.982996240660772513e-03,-5.605915020760465772e-04,-3.465304538217750530e-02,-2.436959777357335100e-02,2.443415617897829687e-03,-6.011964184468831553e-03,8.483508749690234219e-02,1.616066245509218680e-01,1.574237873968481471e-01,1.443183663579706011e-01,4.749440233802916002e-03,-1.851017672531589109e-01,-1.968402742389478988e-01,-1.074535577084951427e-01,4.974787442314239534e-03,6.905686541398749212e-02,-2.358901652508283570e-02,-5.666050050804523341e-02,-8.257106462866850571e-02,-5.358903335241553545e-02,4.365169607169346044e-02,2.656182496030720652e-02,9.172039468601919654e-02,2.233437398730102677e-02,8.965917780817073135e-02,9.594401125468939029e-02,6.338136394851133504e-02,-1.335306011635118556e-02,-1.254894275606536352e-02,-3.699594028871627110e-02,-5.365367477612938141e-03,-8.261685250961478544e-03,9.563075950738752357e-03,2.786825060339059509e-02,1.400326651033454717e-01,1.844623429912110590e-01,1.861054874501467393e-01,3.888530806296108810e-02,-4.316497825436057395e-02,-6.556370789123149023e-02,3.207425601622680006e-02,1.279736704327331769e-02,5.384073315395221382e-02,1.130850327426651813e-01,6.932826745803948032e-02,3.489610343762723776e-02,1.660069923734450170e-03,1.969399891627783561e-02,-3.850150620892753284e-02,7.133861955269682475e-02,5.241114383224673018e-02,-1.909365012147594019e-03,-2.499761592137623653e-02,8.690967882319353827e-03,4.637453044514919936e-02,1.765179814735238703e-02,-2.929589289312301004e-02,4.976070675650215436e-03,-2.382307433248220807e-02,-4.245421440786032591e-02,9.243349889605940659e-03,3.019862343928179579e-02,7.053671174636440278e-02,1.987311006441501438e-01,2.051839344364148887e-01,9.750713766198163338e-03,-4.698019299603732450e-06,-7.690759977059188901e-03,2.402747507427791668e-02,4.666178419317349585e-02,9.106602136023927985e-02,5.966796089261242747e-02,8.558620144129419627e-02,8.562110848670829999e-02,1.389444563430299873e-01,5.644589400272395641e-02,-7.086808662542792847e-02,-1.174421937184939348e-02,7.592587119162372278e-02,-4.332602725433553487e-02,2.973057400541444240e-02,6.762181786960400065e-02,6.008866210203575586e-02,2.088013896272820219e-02,1.057660611863314986e-03,3.961360666712508694e-03,-3.559073786412350615e-02,2.443585898730424311e-02,2.022187577343327602e-02,2.662653926981996266e-02,7.908491818702649556e-02,1.518637484812400684e-01,1.261481278655772198e-01,1.551307020006076620e-01,-2.196519561835105425e-02,5.782663460461858612e-02,-9.413995018792477645e-03,6.993884279076170718e-02,2.546997458047190604e-02,-5.455254838639823217e-02,3.602321644321512112e-02,3.818152540278416107e-02,4.583152684544156835e-02,-5.313560739873756517e-02,-3.099757761871129585e-02,-3.940363389380796555e-02,1.528110385589557217e-02,5.099907562517365378e-02,5.578284489178289562e-02,1.681353687871903549e-02,-1.836727058935706119e-02,-2.395621089684776828e-02,-3.575537873684224432e-02,2.114120378201220229e-02,3.566306531426204074e-02,-1.349820905952571481e-02,-3.606006979992394668e-03,-9.728164771212033770e-04,2.719202677306491872e-02,1.370510462319119160e-01,1.978624269073972763e-01,7.339607107766311922e-02,5.887686624550136916e-02,9.419013799638030482e-02,5.418447351070421192e-02,3.121891400564028723e-02,-2.635923816646921353e-02,-1.087563588695931310e-01,-8.129613848936055598e-02,3.877534192483319403e-02,6.571262545894315799e-02,-8.856798794083342585e-02,-1.210505844778306667e-01,-2.023657736188455569e-02,-5.336391877927171290e-02,3.703218380166261453e-02,3.735778560690468375e-02,2.569547671429120786e-02,-2.528271900260404409e-02,-4.100169776543251959e-02,-6.110048908774179041e-03,-1.911436260993493175e-02,-4.049376945481724527e-02,1.420597626391034707e-02,6.503051265025807867e-03,-2.940203689127842204e-02,6.872449537487056170e-02,9.326842061872829548e-02,1.656859630432468145e-01,9.324699577681186402e-02,-2.986098820625707889e-02,1.998020718154672540e-02,-3.843758125281877130e-02,-1.041574015769314576e-01,-3.657682680883927572e-03,3.037529147949163955e-02,3.964159405272511816e-02,6.637302606046117937e-02,4.650436306926597485e-02,-6.011195539120415404e-02,-1.054971516684617139e-01,-3.859605021330327068e-02,2.300460750459152118e-03,-3.853764910944105365e-02,-1.316672841470382417e-02,-1.922166514604383911e-02,2.120107378079803123e-02,2.640526163076326038e-02,-1.002994789326884517e-02,1.769902202204863551e-02,-4.013068581987682543e-02,4.289490933119580185e-02,4.144828894827462529e-02,2.246731839220441479e-02,1.384955221218322693e-02,7.006496945503039309e-02,4.027668389988765113e-02,4.618870241460061588e-02,7.649686900843143122e-02,-3.652454908904589209e-02,3.669463173671368064e-03,-2.048214110133160862e-02,1.205109865909159139e-01,9.217504677437593497e-02,5.764323221527126867e-02,-1.635662566117316447e-02,-8.230435428530295805e-02,-3.731806936074476971e-02,-8.909056321752908958e-02,2.950833116218781055e-02,-4.350430333068617400e-02,2.024536271021577793e-02,-2.741819891471407658e-02,2.221059482828473264e-02,-1.292439004749540432e-02,-4.947682019806130121e-02,-4.659989917683610150e-02,-2.050107774156224860e-02,2.601267341044705139e-02,-1.997984236511268774e-02,-3.600259999783270159e-02,4.509294606705309405e-02,1.349857854610830334e-02,-2.075203130190038381e-02,-2.515690494530593499e-02,6.908978864752433370e-03,4.546651983473241898e-02,1.166258589315244121e-01,1.101893481017783422e-01,4.165430351862364072e-02,1.135371308562347636e-01,1.186238559395325631e-01,8.163122245363685359e-02,8.135750952398374328e-03,5.213075274957469640e-02,-1.148428275678251703e-02,-1.995309861085196868e-02,-3.469830424700435373e-02,-1.119462020562579652e-02,5.314085638922601967e-03,1.173022170032358286e-02,3.714548671399060115e-02,2.059851934607986185e-02,-3.877605348143649266e-02,2.685542478490916818e-02,4.381363848189892551e-02,-3.168907584134089683e-02,2.058951476302355033e-02,-3.266294363611774165e-02,-1.349644903693229640e-02,-3.664289566980399176e-02,-1.540339698976990641e-02,-1.157574449157587441e-02,4.384414641021663200e-02,3.439423650285952649e-02,6.423637364493277324e-02,5.018620816016550190e-02,3.234880534862719786e-02,1.337281519893039616e-02,5.137008630293277145e-02,-3.338649469302946288e-03,2.894264437752586475e-02,-3.719178415863968329e-02,-2.326035913085007165e-02,-4.152727284026078852e-02,9.212170466523037643e-03,2.800712680587462075e-02,1.707185062738290427e-03,4.030837913153416385e-02,-3.486772653390257659e-02,-9.378120835450198811e-03,1.827440907669278247e-02,-3.509013862205768997e-02,-2.927369074137480334e-02,1.881410895413156148e-02,3.009016821418572518e-02,-2.434366775702845320e-02,-1.103463443309432579e-02,-4.372996550033508845e-02,-9.663546021987485472e-04,-2.278807911505322317e-02,1.699775624791361947e-02,4.759791854804309302e-02,-3.307834625287862929e-02,3.230035106526292499e-02,6.107424763115099076e-03,-4.157736206184067113e-02,4.643830730339477963e-02,5.133518259987443488e-02,1.976643704448760239e-02,-2.448126952768969744e-02,-5.865520027411720398e-03,1.642172968803064931e-02,-1.815666188056153790e-02,-1.113837937113176801e-02,-5.714469221375764740e-03,-2.187946804393631206e-02,-2.074102233154220473e-02,4.525768623167908400e-02,3.106119934858873888e-02,2.774942406665123484e-02,-3.237351862242197204e-02, -3.021956988684267736e-02,-4.540660534450043084e-02,-7.843858600154574034e-03,4.449421289686936176e-03,-1.661006900096091699e-02,3.039428956798234660e-04,3.047122367528172504e-02,6.973813234545302164e-03,-3.642324595496564815e-02,5.986029682912841210e-03,-4.487739867371963454e-03,-2.798612836083633898e-02,-8.105095515600208023e-05,-1.147941604674088123e-03,-3.989374353588096694e-02,-4.956555203448832769e-02,-3.047132065558692121e-02,-3.545283523461037478e-02,-2.508381610926849886e-02,-1.391549777179551528e-02,2.398941496856386857e-02,-1.222702903954298037e-02,3.040869749432484337e-02,-1.197521355093260353e-02,1.765918242738412358e-02,2.399384251321516615e-02,3.651032145504895521e-02,-4.251880457253315315e-02,2.292707074184383020e-02,3.904391876435578390e-02,-3.755741731262984134e-02,8.208624067021386139e-03,-4.819071202823418942e-02,3.734983146298663514e-02,1.073447269289141970e-02,-1.235150597465145550e-02,-3.582534129293683117e-02,-3.258589775944549516e-02,-3.811608140622459173e-03,1.009168458549025184e-02,-4.062284638730621900e-02,2.432683037511172708e-03,4.494470860557125275e-02,-2.118180316930094384e-02,-1.680830411845906508e-02,-3.858148974082639682e-02,-2.183748716351383359e-02,-4.819043379976485630e-02,1.555579381891322721e-02,-1.098800099442791278e-02,2.387574309184438415e-03,1.464428262333561381e-03,-3.336970102714104103e-02,1.854410111435375597e-03,1.391650209924058523e-02,2.684081618338179931e-02,-4.420514655512346874e-02,-3.252527496960345987e-02,-2.881791514655743930e-02,-4.631952257052416450e-02,4.070049584304800960e-02,-2.889272401986133984e-02,3.406746924329348558e-02,-1.694557334896850537e-02,-2.860233135022356710e-02,1.056888893684176933e-02,3.670310009437413590e-02,2.521759750616480930e-02,9.946520730218655001e-03,-4.025791333364941299e-02,-1.099976781169329648e-04,-2.638756196095726897e-02,1.478749196673337027e-02,-8.612172195639242189e-03,5.627001001869065544e-02,8.385006820101861824e-03,-2.911949160350214838e-02,-2.852535235260291943e-02,8.785686680833373202e-03,2.837523047421562986e-02,-8.315039719840978255e-03,1.364846476527339925e-02,-2.061471060933663113e-02,1.520806077028979963e-03,-7.331942776126622319e-03,3.287556718197563732e-02,-5.463890070654273123e-03,8.336300232642576691e-03,-3.428511078615140151e-02,2.897850662737939953e-02,1.586302850868621939e-02,-1.544245252222217236e-02,-4.971396530307667372e-02,-4.801092925518508914e-02,-1.767292049639240803e-02,-3.474067479369383205e-02,2.987759604785270723e-02,-6.115236181277080435e-02,1.552335509849448771e-02,-1.121411448272502907e-02,3.809392695786607136e-02,6.751649476925554796e-03,6.630128768819526508e-02,6.308724240206235734e-02,-1.861273214132257853e-02,7.070529386430284002e-02,3.160804046231341369e-02,4.614114690128246626e-02,3.449328941021004291e-02,-5.336403102133069343e-03,1.600979824471644719e-02,-4.150609441723579485e-02,1.340370634594496846e-02,-4.381972490426516709e-02,-1.858175316912780151e-02,-4.083879982048376628e-02,-3.722902454839784048e-02,-2.939053939952481972e-02,9.651580946351530008e-03,6.442074456285510134e-03,3.126218981955661280e-02,-5.836253094825863104e-04,1.005185473784391860e-02,-9.790936642900703243e-03,9.126476276884501124e-03,-8.675525173476512919e-02,-5.361794035489275689e-02,9.040490679849143979e-03,-4.109402537446229381e-02,2.944860533462433615e-03,-3.848370857480488960e-02,8.848874339025314178e-04,-3.083647319662059794e-02,9.375580488154132419e-02,7.918104833503175621e-02,4.123280866695623603e-02,8.188629931757465674e-03,-4.362587375858524574e-02,-3.339508234819572874e-02,-3.023317087466839345e-02,-1.084155315216652621e-02,-2.842229721093769701e-03,3.930710262387264453e-02,3.181105977713405419e-02,3.669490905435843914e-02,2.170896180671504430e-02,1.580930472177598592e-02,-3.578751207850029703e-02,-4.199780449780499136e-02,-5.904026671095036899e-02,-4.960054800917490514e-02,-8.054812433599839450e-02,-3.730994843016935836e-03,-4.814191951084310049e-03,6.269038567002784001e-02,1.091838331290936881e-01,5.823894763750939868e-02,1.312401713891744870e-01,8.093789105241490367e-02,3.339319473003213301e-02,-3.969709777362967484e-03,-1.654225233012570143e-02,7.097974471168699492e-03,5.724075837347990248e-02,3.235697236814057826e-02,3.460500054339997467e-02,3.740346691595412137e-02,-2.323498048724741832e-02,-4.903444456207774194e-02,-1.046553960851896031e-02,3.471100979979689638e-02,-3.058213681100471412e-02,-1.937707849980815217e-02,-3.689493241828949166e-02,2.850077442846171705e-02,-9.320019026862892686e-03,-5.092701854065231210e-02,-1.028921864599757902e-01,-1.100258986653695481e-01,-7.041735160862556964e-02,-6.097605205716397775e-02,5.602405386401759779e-02,3.858666409580217838e-02,5.061388066713073952e-02,6.698916923212842878e-02,8.271531543293525468e-02,1.144874635534681578e-01,1.150171687634190532e-01,3.883360095784110094e-02,-2.363967182401138789e-02,2.830224133685908458e-02,-3.113404983515785998e-02,1.028842772135030517e-02,-1.254414901589313326e-02,-2.136854336251406070e-02,-2.790382642743197139e-02,-3.440009433819826712e-02,-1.422443098727709659e-02,-3.979594900792748219e-02,3.080447978041414570e-02,-4.556774397429180778e-02,-1.103935455113833584e-02,-7.555309923223299529e-02,-7.154938576950267692e-02,-4.717130789662102308e-02,-9.814387938437478531e-02,-6.017200411870510940e-02,-5.758424041852916453e-02,-6.344000480692688071e-02,-1.234922496557523952e-01,-1.441125514318294422e-02,1.168658835153928805e-03,5.585114711204907517e-02,9.309948536761167293e-02,2.820193217980739714e-02,-2.579988684506682659e-02,1.167957181366817074e-02,-5.302877075024627768e-02,1.266972701665461734e-03,-8.800268348939052979e-03,-4.362109371274637548e-02,6.013506342955066836e-02,-1.861393385654119131e-02,1.605131123712815952e-02,2.544538242261218733e-02,2.443758120293273994e-02,4.638577035024218920e-02,-2.611664477315755323e-02,-2.809156080550109444e-02,7.170621934871689029e-03,2.170024053452807369e-02,-8.390538929650387390e-03,-2.917432331354447017e-02,1.060413467268921800e-02,1.492896105076588383e-02,-4.294339238672995052e-02,-1.942616476775814796e-02,6.716931067881048425e-04,6.869618940785543471e-02,5.960899794828586340e-02,-3.124174158104571497e-02,-4.501266718317896431e-02,-1.041527481454696501e-02,1.957739791196352885e-02,-1.026706174717107768e-02,-7.530699788785787108e-02,-6.328528330698983406e-02,-7.744286480225634484e-02,-1.310280341875199282e-02,5.008689672021356815e-02,-1.213448417800257022e-02,3.873469171328000615e-02,-1.352182576282930093e-02,-3.801011771086396096e-02,3.893869036115168297e-02,6.007820438621689837e-03,-5.504620081603228687e-02,-4.202474194448339861e-02,-1.584367496448721088e-02,3.726573024935170286e-02,-3.310496037948614662e-02,4.980658037263741011e-02,7.532490281870259964e-03,6.233360839255600028e-02,1.127909235036732849e-01,1.871531618585326739e-01,1.697390724272507534e-01,6.608002377808763761e-02,-1.045285548003402204e-01,-1.811959152475781931e-01,-6.986964102986256697e-02,3.197273905482436035e-02,1.921344973313659360e-02,-7.374105874674040384e-02,-7.878685221556898377e-02,-7.970931121508925687e-02,-7.142656970687895346e-03,9.393444382968973300e-03,-3.148336140813635248e-02,4.823792630518059996e-03,-1.121861769386101049e-02,-4.718548079144298246e-02,-3.882674242167768325e-02,1.291618223359015244e-02,-6.386346048359511918e-02,-1.067466633044203590e-02,1.276136234391726451e-02,-2.563095687769281414e-02,4.444074325443222312e-02,1.303477867814251123e-01,9.925613742900012137e-02,1.769807241343101245e-01,2.298067851639999104e-01,1.498154665903287663e-01,1.143280364085124540e-01,-3.990509497516937787e-02,-2.072171331068078937e-01,-1.751239151286347884e-01,-8.317901048624058713e-02,-2.532486429597617314e-02,-3.630042542363481201e-02,-1.183377267814171227e-02,2.636652266599258040e-02,2.611981715494604214e-02,-2.088449472378155203e-02,-1.889667565578212124e-02,-4.884003908403405925e-02,1.595661528092513770e-02,4.428849435275009072e-02,3.279545215144014092e-02,7.531635604496780823e-03,1.506831757377858141e-02,-2.959139117032714636e-02,-3.977712654021595129e-03,6.385837567064917009e-02,6.667462663676697321e-02,3.086786105396540150e-02,1.545209365654500455e-01,1.844882839100472627e-01,1.776074646533782331e-01,2.524316629490743202e-01,1.030540446271390742e-01,5.169501693112781536e-03,-2.263328047501150797e-01,-2.159301985606891239e-01,-1.703512091820722774e-01,-1.069594873390464357e-01,-5.372083328940806951e-02,4.194786882907252518e-02,-7.159275577261007759e-03,3.957557260739965471e-02,5.615852656520239905e-02,4.226919048341639708e-03,6.851811098433936535e-03,-4.501642588835541234e-03,2.790348164363995465e-02,3.208649257821691303e-02,7.353137180517999028e-03,1.972410416579083170e-02,4.732193137239752712e-02,-4.198940730439973228e-03,-2.669799439490563864e-02,6.795195359087644049e-02,1.111943353265219953e-01,1.182699099879001708e-01,3.373106207953326108e-02,7.672135058826269616e-02,1.224087236601283935e-01,1.706761921518883812e-02,1.590466079209800626e-02,-6.455694949844398289e-02,-1.472392025138820337e-01,-5.358637488678030109e-02,-9.108741346420866358e-02,-9.900966180530992866e-02,-3.297674543980481238e-02,1.371077966353824278e-02,5.767104645088552695e-02,7.689768888869974450e-02,6.975401789189736301e-02,4.393719028741650476e-03,-1.481113827051810591e-02,4.542299501002205336e-02,-2.164150300206994781e-02,5.846564368543263890e-04,-3.306548912969260734e-02,4.135932493403031429e-02,2.612035938830927634e-02,-2.526903321989985851e-02,-3.501336941364695948e-02,7.047049306977659980e-03,2.851363070063231420e-02,9.549848012677338016e-02,9.377913350294964090e-02,6.917932941189014473e-02,5.949184855244673414e-02,-3.282561587796548747e-02,-1.698687447808805429e-02,1.256946681971757469e-02,-2.787471980359412793e-02,-2.225795974792187971e-03,-7.950274071020355104e-02,-8.978625854796058736e-02,-8.264680516766369223e-02,-1.158093049503058497e-01,2.442545868331479422e-02,1.034815730365485631e-01,4.453342579471606527e-02,7.563609402986491703e-02,5.182261172699480917e-02,-1.449630021690582506e-02,3.371113908832609751e-02,1.886324712632655998e-03,4.286647016206761307e-02,4.981858710901912457e-03,-4.921975128772633490e-02,-2.627800832667968184e-02,-7.101908558737541136e-03,-4.315312022265350121e-03,7.599428875594281541e-02,4.865291365840313659e-02,3.019637318422629946e-02,5.933346812058491564e-03,-2.907191599540625768e-02,-7.604085116721813475e-02,-4.450593212796678799e-02,-2.442188374652858388e-02,5.478244209931958097e-02,-6.798185797243958776e-04,-1.106279290181605701e-01,-1.671403184270871534e-01,-1.574844160078793243e-01,-1.481138733944946662e-01,-9.662207391398207335e-02,4.714931889630252781e-02,2.897345507894192457e-02,3.894032401729729392e-02,-4.145464971042711264e-03,-1.938520966608694995e-02,-1.944886984705435952e-03,-4.929574064397173466e-02,4.071119373770702710e-02,-5.714034611796411922e-03,-4.355424178139556679e-02,3.492417090599846119e-02,4.981454837911829248e-02,3.393973731922842602e-02,4.031402425717685312e-02,8.433452887019118882e-02,6.337717754565388995e-02,8.390911717080820620e-02,1.990261321145300744e-02,6.739950471435313117e-02,-1.084839306711778556e-01,-3.271567870119487104e-02,-4.065587808851504718e-03,3.589507490228070752e-02,1.482270171983820529e-02,-4.688548752738850439e-02,-1.380969579301225825e-01,-1.397216355461347870e-01,-7.720510081642956157e-02,-4.599157647432058904e-02,-3.705425807374895103e-02,3.591480757113240524e-02,-1.258938041838628813e-02,-5.708220214553245790e-03,1.422698633132656910e-02,4.732424843725754893e-02,3.254307414280920019e-03,-1.994141690416387919e-02,-4.316071552035208314e-02,4.884805200688751431e-02,1.374736369822797573e-02,-1.905977197600315989e-02,8.218289941436364432e-02,5.856464873311596070e-02,6.680827175555135999e-02,1.500791975553363300e-01,1.550124627629786145e-01,1.845083372934490651e-01,1.667681676361832122e-01,3.892353957210912402e-02,5.156056627418790367e-02,-2.520084515512028157e-03,3.380119372023034779e-02,-7.776936650593076206e-02,-6.089752597338547041e-02,-9.860297784630631113e-02,-5.909417228387580517e-02,-6.435624288845681606e-02,2.420219397426017285e-02,3.474797621757826777e-02,2.840995809413354375e-02,4.584127966039425184e-02,6.167145050393296052e-03,-1.747436498015306899e-02,2.085296012369206031e-02,1.200277576465604706e-02,-7.995362516361556593e-03,-3.225362546172813594e-02,-1.704144529451429198e-03,-4.343919987114220477e-02,6.086653159919588191e-02,3.909814550112458709e-02,9.455228533243574540e-02,1.661636245907485709e-01,2.140856962404050767e-01,2.196871776127615195e-01,2.002200161354600605e-01,1.064247135455753390e-01,1.292898419241375052e-01,6.962946262816419041e-03,6.078633877848112210e-02,5.876636206962059655e-03,-5.980024459087174282e-02,-4.335148788162243583e-02,-3.820547898234368661e-02,9.292837491916302803e-03,1.674145245684563466e-02,7.426199958798844654e-03,7.941117911685788636e-03,-1.351832066806218924e-02,5.199059847072418084e-03,4.703372800196285730e-02,-1.662441899134314144e-02,4.595654812179926496e-02,-5.219085065055821234e-04,2.306291816003074036e-02,-4.954839543404966629e-02,2.740070147537583892e-02,5.573359947825737987e-02,1.424325490638028158e-01,2.234049387347458449e-01,2.663649498570961893e-01,2.087898970943327104e-01,1.623236796123682935e-01,1.852641736415930607e-01,1.727435044153452781e-01,1.049109917780144535e-01,6.979751685810792194e-02,6.015481453614526103e-02,4.001119047184806959e-02,5.588127209116505040e-02,2.328566730567560236e-02,-2.692144216605883017e-03,-2.199209329932304280e-03,1.826608006012574170e-02,7.622234313661219174e-02,-8.023668213643741012e-03,4.104322558861908665e-02,-2.122918993059003112e-02,-2.125381670465531503e-02,9.726276263106389819e-03,3.073411951059755454e-02,-5.034364060986348116e-02,-5.004784594822443700e-02,-1.416338697204365116e-01,-4.349493020553125977e-02,4.369310391517747943e-02,1.695092949640610025e-01,1.869664433631463285e-01,1.784961074033964146e-01,2.162705405841834350e-01,2.618182891834092141e-01,1.142844430821669255e-01,8.028885861543191838e-02,7.894992185151704367e-02,-3.653026064674597031e-03,6.177101653098677342e-02,-3.924774020053892892e-02,-1.100341023954941495e-02,1.764168062236960710e-02,-4.308314939496915574e-02,3.157094334947121300e-02,5.985796713527870294e-02,2.145034560645127375e-02,1.854363928356992861e-02,3.453258903327512813e-02,1.761369826807847316e-02,-2.576451849705768682e-02,3.366410360422084080e-02,1.226627803172812559e-02,1.564070945608658780e-02,-6.784290248026214609e-02,-1.021911746984581343e-01,-7.929068122301793919e-02,-1.123558314866649095e-02,6.041608542783976146e-03,1.577794525878988829e-01,1.597094036721264376e-01,2.245175177976236891e-01,2.256632812710508140e-01,1.496200120700976188e-01,7.601148309158092808e-02,1.640105842274202155e-02,-1.702821031076618211e-02,-6.785194394217694547e-02,-9.734832887288963343e-02,-3.841571186416037342e-02,-8.552955075639197269e-02,-1.091789544196704320e-02,1.494644027432587806e-02,2.863294247763503372e-02,-1.405304159005263051e-02,4.692196419589730882e-02,4.636551732658002883e-02,2.017031025716519484e-03,2.477907923371210075e-02,1.879228327615656280e-02,-3.557213072515952312e-02,2.308315701591102942e-02,-3.678408851669481838e-02,-4.306246228489112732e-02,-1.257584398730378361e-01,-5.735366059757830010e-02,-3.316883888655089430e-02,4.286698959340759507e-02,3.241946574849029900e-02,1.011415772197592211e-01,2.972376572810090170e-02,1.002311894401117648e-01,9.339949456721216570e-02,7.631005670141476072e-02,1.803325496529684102e-02,-1.353606330059796137e-01,-1.055053474428292171e-01,1.534254677162325171e-02,3.570741776631065206e-02,5.729001830319358640e-02,-7.793889278590080717e-03,1.447954347117794312e-02,-4.019798276078610094e-02,5.083040253773087047e-02,3.472076720067602401e-02,2.622566167888776278e-02,-4.467342644115884082e-02,-1.573924847216148781e-03,3.039911527612917941e-02,-4.361769269326045556e-02,-1.256489680688920377e-02,-8.975643524801038553e-02,-3.780371346837187868e-02,-1.157542916511071357e-01,1.753838223083680273e-02,-4.846577246622948976e-02,-5.588773008588381747e-02,-5.630382026171491805e-02,4.704068421840904013e-02,2.549309557535391416e-02,1.320931221037653924e-01,5.492129822735732775e-02,4.957086308887928994e-04,-5.603959036846128255e-02,5.938396416428032981e-02,4.732489923163520767e-02,9.682992163682394016e-02,3.704257371768854279e-02,5.829052870357508132e-02,1.335171717202590994e-02,3.094368385892438261e-02,3.539117071250656721e-02,-2.446749709526343033e-02,-4.515339701760710464e-03,3.400615744406169927e-02,3.016817972407447035e-02,-1.824306326505547443e-02,4.237180560637694021e-02,-2.863998776653252972e-03,-7.450270842398687421e-02,-1.567454270685357809e-01,-1.639531349218550094e-01,-1.254016353576557774e-01,-5.784105078213067769e-02,-9.449586121551950546e-02,-5.265471521049594483e-02,8.849344341225329202e-02,1.357404906208800888e-01,8.129491686620428370e-02,4.998021875080067150e-02,2.303723420674919781e-02,3.797183534831995860e-02,6.181118402821238200e-02,1.428086612453747517e-01,1.019789433727959910e-01,-3.229234665215642650e-03,3.100897028646359965e-02,2.193223188961808401e-02,-1.894962761809021456e-02,-4.259747524715157274e-02,-8.628682931634247544e-03,-2.414072995152713452e-03,-3.414021043058216437e-02,-4.279017790882053140e-02,1.048190278761557126e-02,-4.507564205894396686e-02,-6.488927292173723993e-02,-1.079019245487545797e-01,-9.979381361999212219e-02,-2.087119725595244502e-01,-1.520210301773121109e-01,-1.544532567631505815e-01,-1.061809057452683114e-01,-7.828999477987118316e-02,-1.090688103520223162e-01,-5.762231982437371336e-02,-1.535685593257691758e-02,6.272365807332087873e-02,1.324813583723890298e-01,1.513027865133227956e-01,6.704875197205498183e-02,-7.488328248726440310e-03,-1.572442890709920688e-02,-5.559279742104747402e-02,5.038246217191304221e-02,-3.946204610794289830e-02,-3.267902694717942508e-02,4.064365634396892996e-02,-4.158580055290028027e-02,-1.108341670063537482e-02,4.519297086164208999e-02,-4.861947569634447741e-02,-1.779832877097769356e-02,8.085139142158047354e-03,-6.751363923768036917e-06,-5.658702894736229033e-02,-5.201666900799894327e-02,-6.766615493119232383e-02,-9.203692100936203269e-02,-7.173137816077879148e-02,-8.054073562869035197e-02,-8.047174435865199482e-02,-1.444534709515112036e-01,-9.119718613667524010e-02,-8.466146913292646459e-02,-4.294027843734148780e-02,8.198133151307381017e-02,6.204363493563341825e-02,1.176927477065770403e-02,-3.834365728868221329e-02,-3.824432393148558679e-02,5.905828550481470596e-02,-1.041006514916643401e-02,1.456231674137380789e-03,2.361996610461063878e-02,-2.820114973866968272e-02,3.761928184999716041e-02,-3.833476859883740151e-02,3.097977227579938597e-02,2.499146167486539227e-02,2.234125478071824489e-02,-2.646393780279583663e-02,2.444695510314030470e-02,3.625802171689210263e-02,1.941590136615394674e-02,-2.015875101325819221e-02,4.250655370944024514e-03,-5.608848755281993503e-02,-2.482929980120599650e-02,-3.621660113473629435e-03,1.456226835596806900e-02,-3.509410256543623458e-02,2.998175275125789939e-04,-3.165785117106878488e-02,3.858769684113312615e-02,6.823756623038289282e-02,-1.729385752610487770e-02,6.761904280802745861e-05,2.718192046454109140e-02,6.377290553362001922e-03,-9.994945557711331849e-03,-2.841737497700998205e-02,-4.692643922191063605e-02,-4.800882407324716383e-02,2.764570919832708140e-02,-1.742392904179126262e-02,-2.837792849200361511e-02,-2.101007509573686940e-02,1.971408677291350275e-02,-6.372553392402245664e-03,-3.864920473164858150e-02,-2.963447072129644921e-02,-2.934590271177412238e-02,2.787691064966310237e-02,-4.352939066445515176e-02,-2.310571213480608690e-02,-1.693656619540897038e-02,-1.192902997909149436e-02,1.106026589090941363e-02,-5.142549261913952063e-02,1.338654912520900048e-02,-3.821690968504647817e-02,-5.274697093396776143e-02,2.478424708743114796e-02,-2.145123213350174154e-02,-3.481156407154439164e-02,-2.509873519749727337e-03,7.770691285121075764e-03,4.794964583547636772e-02,3.350585772390285433e-02,-4.621613606207824326e-02,2.762173730775011049e-02,-6.108353304954836083e-03,2.025832693065784951e-02,-3.439905818486597988e-03, 9.834129745958414270e-02,3.588182295555268631e-02,1.815906988850329862e-02,4.041558963845535979e-02,4.478088839964444734e-02,-4.631883818883281156e-02,1.509324039529247319e-03,5.836169668853266601e-03,3.663696661508450414e-02,8.353919966173975475e-04,3.665086123712704702e-02,-4.921294741148916213e-02,4.172586421209330265e-02,-3.467271554847889403e-02,4.923816838273656349e-03,-4.675837291664769468e-02,-1.322410405966244901e-02,7.835967006844732352e-04,-2.846449260106791515e-02,-3.663228711967945334e-02,-2.350959052506087707e-02,4.091096137308632141e-02,1.396619387416234148e-02,-4.400450438011814513e-03,9.854007283450282040e-03,1.211733077402917663e-02,-2.522874442581201151e-02,-2.084578481107030035e-02,-2.496455294226666149e-02,5.663455718685109219e-03,1.734718645996605191e-02,3.960921348506472872e-02,-3.032892696240643837e-04,-4.564713466759866972e-02,4.359441530280303012e-02,3.505098630049094388e-02,-3.221238831604825159e-02,-2.211212383800642556e-02,3.117439148227864332e-02,-4.560357682526165746e-02,1.857509631868936931e-02,8.202515042564847980e-04,4.887582691025225967e-02,-4.615167815059841722e-02,-3.964983543059234783e-03,4.204438646779119076e-02,2.913717428451952779e-02,-3.073789303675391119e-02,-1.556630103156007167e-02,-4.945547638931894335e-02,-5.657889518538225526e-03,-2.118392675725648891e-02,-4.998314689396700372e-02,-3.994144641490269404e-02,-1.727280092658328020e-02,-6.079532536558095168e-03,4.207776323435183374e-02,3.131713008651859642e-02,-7.355555352325272855e-03,-8.919842846427647465e-03,3.507586945090827857e-02,3.667795438780714623e-02,2.936752527222859233e-02,3.854752505988644218e-02,3.968018205188092451e-02,-4.173693796833864017e-02,-4.820815536819980651e-02,-2.266446857537368458e-03,-1.920086306065750190e-02,-2.982163112719793396e-02,5.020526180876737354e-02,1.643832374306898256e-02,-1.536646180557284594e-02,-5.994836868975623144e-03,5.450743629724134898e-02,1.569391549018931548e-02,-2.044823376608638499e-02,-4.749332047309310495e-02,4.240104750601332573e-02,-1.030324263191888592e-02,1.197948212342998765e-03,1.585371031803199660e-02,-1.476050073027553727e-02,3.146832744644775803e-02,-3.670764865321257675e-02,-2.675061684583680821e-02,-3.448135770596175154e-02,3.129958118373167564e-03,4.132537741278773102e-02,-4.262278448976061784e-02,1.626903181760674943e-02,8.476750009756433418e-03,-4.244578752029823376e-02,-1.726611769755789436e-02,3.335543330135371659e-02,-1.736934925925758336e-02,4.964614968105648951e-02,4.066636250985355278e-02,-1.244523398961907765e-02,3.351653108000700321e-02,4.990923798724211657e-02,1.334104015734064765e-02,4.458775658125568864e-02,-8.669457383392129013e-03,2.625989347174976282e-03,6.154266099077687277e-03,4.569242497092243505e-02,-4.092056309054670910e-02,3.697274780904078600e-02,7.592767984643020163e-03,5.761398580695770155e-04,4.656914140931583956e-02,-4.759350342772189491e-02,4.048716972126996383e-02,3.467955598937198791e-02,4.566943946964716061e-02,-4.152617973755782371e-02,4.904516258961905129e-02,6.570482107939167905e-03,-1.630158820797040706e-02,-1.476151861775649131e-02,-2.728531249847427004e-04,3.151767863669767411e-02,7.925099278396625924e-02,1.852792728907227612e-02,6.826540140530384937e-02,1.222645336995932669e-01,1.771508946579740396e-01,4.011179021675857770e-02,-7.189819720105758948e-03,-7.818473486559875119e-03,-1.867659777634244483e-02,1.711361606262828267e-02,7.706941949273658776e-02,-2.689304791558827165e-02,3.579439123550000757e-03,-4.100379734726262992e-02,3.766460345057778131e-02,1.495505449194860226e-02,-1.519921078311844281e-02,3.919355279927665137e-02,2.050846065154043885e-03,-1.829321166083384270e-02,-5.918497015769172420e-03,4.662818410632992017e-02,-1.856776020309667055e-02,2.272702920833905710e-02,6.883009210185160717e-05,1.082776206369642225e-01,3.612575955921270426e-02,1.664398670117758772e-01,2.108347772934798525e-01,2.490505843207276859e-01,1.220103612471594851e-01,8.840444350506088123e-02,1.190999127726505707e-01,9.393060864423465051e-02,2.333754813003824716e-02,5.745465832166540832e-02,5.005007270051545915e-02,7.464329629087193552e-02,1.251959598598470502e-02,6.936781170091507742e-02,3.737386713187625803e-02,1.907372413048879015e-02,7.153102873703479081e-02,-4.447361497441045322e-03,-4.266281158958089986e-02,-3.969456156731666907e-02,-4.779360150149039588e-02,3.072699861840326452e-02,2.237535751877098300e-02,1.640219376797121681e-02,1.065687687184093194e-02,9.012013681628787409e-02,9.571534790257152370e-02,9.372077584569532549e-02,1.090995764582614325e-01,1.675841161643944477e-01,1.958749913483913696e-01,2.137741347029567807e-01,3.217727242984044084e-02,-8.941786045510484449e-02,-6.077852966893936698e-02,-4.901982609691709486e-02,-1.196446443830982559e-01,-9.054346028571472194e-02,7.057958184509931232e-02,1.472613693869312922e-02,1.308068704935259063e-01,1.375872078045651536e-01,8.257067999603626141e-02,8.526476089984516560e-02,3.853351693481794210e-02,7.525537633765552736e-02,-4.815194885529361368e-02,1.596312331716355244e-03,-7.937893729390840813e-03,2.905480683762323713e-02,-1.741752504504931118e-02,8.437756947841490440e-03,4.827193829079338971e-02,3.254499642354077849e-02,1.450250770614857909e-01,1.654225272200886276e-02,1.173500859851618200e-01,1.382815409404752616e-01,1.104227482150154094e-01,7.783881688357942308e-02,1.210664245562611402e-02,-1.806089625220118344e-01,-1.605762130705301605e-01,-2.870878293986155461e-01,-2.099619494095712469e-01,-3.599574309353994334e-02,-3.197860031797267882e-02,1.109605080286046354e-02,7.532799640769978489e-02,7.699819166025916040e-02,1.630073390646483433e-01,1.242787447106530885e-01,4.178319868378450180e-02,-9.939642939434674418e-03,-4.563840172249986060e-02,-2.236788742527102622e-02,-2.900006573760598519e-02,-1.256834675667201084e-02,4.207284174782175562e-02,4.956547848778300458e-02,4.077612258972896503e-02,1.026140657373827286e-01,5.972623507303013307e-02,-6.155874308178745959e-03,9.012076924033560546e-03,3.999128219758790390e-03,8.066682000145886100e-02,-2.303723673179679590e-02,-1.214753795794695085e-01,-2.308852818684906660e-01,-2.714073482975319362e-01,-1.446683811475719117e-01,-1.277932537945646874e-01,-1.236766295276170435e-01,-1.041409765775029861e-01,-6.933128358936460622e-03,1.717700522714520409e-02,1.275509670736526269e-01,1.290724938107862263e-01,1.105395620938283280e-01,-4.340645004783318106e-02,-3.822239704012183464e-02,-3.617048148401255658e-02,3.472194354295748964e-02,8.935135546989082800e-03,-2.230485785265347992e-02,1.851083102436682079e-03,2.309106984095397885e-02,6.155461083728216987e-02,5.736408913848282942e-02,-1.898069860918112986e-02,-5.732243370185090975e-02,-2.009147912649022691e-02,-1.076720318506853985e-01,-9.559496363186001378e-02,-1.585089829655550175e-01,-2.443335469726435061e-01,-1.801818776850278581e-01,-1.932871398242790861e-01,-1.817644910883245424e-01,3.589290666845264266e-02,-7.091333849207104301e-02,-1.449364025254329669e-01,-1.295357951057086732e-01,-2.432228583482900358e-02,-1.165859659105519808e-02,3.956501932824982998e-02,-4.682533513653599350e-02,-2.339958680446468757e-03,-5.612629840051839777e-03,-2.080320026069228459e-02,-6.240693686686026032e-03,5.151990982528296958e-03,-1.975037821019715728e-02,-5.178664294434988380e-02,-3.759202169312834269e-02,-3.268510157110079278e-02,-7.079879302226965709e-02,-7.218427851588798093e-03,-5.639154173314917667e-02,-1.608402918447217056e-01,-1.659741570612619788e-01,-2.168264313046195657e-01,-2.524361995426629979e-01,-2.273075561120239396e-01,-8.798174509521480835e-02,-1.050987841591743965e-01,2.247070794762137669e-02,3.702563542579095229e-02,-6.725665815567798134e-02,-1.862243627160973802e-01,-2.063763346115272124e-01,-1.983038325892895470e-01,-8.160733184791035821e-02,-5.256624455584537649e-03,-7.773913273144565650e-02,-2.585737710893190600e-02,3.747824806072935777e-02,2.229802662612082043e-02,1.724365587019396906e-02,4.613051454600645973e-02,-3.519756896901948817e-02,2.761257905690739714e-02,-1.120706333081591434e-02,-1.183229211510438694e-01,-3.337279867215692253e-02,-4.631826239999708994e-02,-1.404846506763820502e-01,-2.123474014927601849e-01,-1.446148895007320634e-01,-1.477314326002176492e-01,-7.380919315017267501e-02,-4.888065666284197031e-02,-5.923566996483133063e-02,-1.016957767869810653e-01,-2.027462620799597159e-02,-2.511418312680128648e-02,-1.667486678665266175e-01,-2.103170129129608157e-01,-2.431013475734593587e-01,-1.894862679686723228e-01,-9.598312225623441274e-02,1.751150224152525289e-02,-1.503871036506735336e-02,-9.600623038806179593e-03,-4.101057146481868615e-02,-1.974882762683067422e-02,-3.458858567922865057e-02,4.187771011797888909e-02,4.032723899425404157e-02,-1.040021535937793841e-03,-5.724965940308688467e-02,-3.968308183408521261e-02,-3.430726499275826846e-02,-8.140061486849682615e-02,-5.959701184563928611e-02,-9.267245966117283740e-02,-1.120041045623044844e-02,1.418320163995093475e-01,1.099684083891889069e-01,9.798590549484241519e-02,-6.078891022487324658e-02,-1.695748120610356124e-01,-1.117546499658813169e-01,-8.434102281942476576e-02,-9.676965512604294994e-02,-2.077027078365596691e-01,-1.650271354144919322e-01,-1.354547689757509277e-01,-9.894834827297192825e-02,3.538477975714127144e-02,-5.686659061924240893e-02,2.228267423409271107e-03,1.240558362921679453e-02,-4.681252437068616351e-02,-3.147312404441342248e-02,3.916536953561720880e-02,-2.091723645302284718e-02,2.316071991856285053e-02,-2.310393018465910914e-02,2.056464471190070850e-02,1.425585668763074479e-02,4.419748718557709594e-02,2.796054890092753917e-02,-1.414823827887280380e-02,1.075379995768429298e-01,3.130575531245280985e-01,3.707196692485281164e-01,1.778563386320919093e-01,-1.110307616042474285e-02,-1.801993885438237797e-01,-1.020061460534954084e-01,-2.511284261362972670e-02,-1.879205107013256007e-02,-1.657398048413030126e-03,-1.012022019397394029e-01,2.196632811850286401e-02,5.225248572633597877e-02,-1.342863114413077492e-02,-1.585520927649529399e-02,-4.478501991784510083e-02,-1.040285685164102705e-02,1.591187619163544203e-02,-3.873521252198472431e-02,2.119759271344481832e-02,1.025774350768626775e-02,-4.181457893401514803e-02,4.449496955389632691e-02,-5.471678422560519867e-02,3.146069370369522500e-02,9.598321885622630723e-02,1.709121639786408131e-01,9.459132003346899797e-02,1.590228221005513254e-01,2.573850582508837581e-01,3.086318342844827645e-01,1.611211811248138837e-01,-4.373692524434290958e-05,-4.641139202577839601e-02,-5.568832840998436118e-02,2.017714049749888897e-02,1.251126009904056924e-01,3.051966695551502212e-02,9.928684992857789160e-02,1.604867853826753288e-01,9.950947745466388883e-02,3.752160733045842994e-02,-3.806602313520444925e-02,-6.420033727665560089e-03,-3.982554917269900269e-02,4.565723763216266579e-02,2.882175765180981786e-02,-4.156389926018658199e-02,-4.398781563771839154e-03,-4.517457749527280936e-02,-1.304931630630762297e-03,9.739443906802692369e-03,7.034135772777026785e-02,9.524564196994393661e-02,2.316416967747921829e-01,2.528904478513704923e-01,2.660108751558212803e-01,2.346331393852883196e-01,2.060639898730319275e-01,1.436465087098177662e-01,1.019512926084229082e-01,-4.401030018215168482e-02,2.339401186890274764e-02,7.776386154942170614e-02,7.119256692637432327e-02,1.562652227092996837e-01,2.491229277553454746e-01,1.870196259774000724e-01,5.967294978660478422e-02,1.287735203756365174e-02,-1.799389348624689036e-02,1.775154316709962043e-02,1.534527753965540982e-02,9.548061719993848877e-04,2.244103923608496698e-02,-4.022067281579533304e-02,-3.913037999938300676e-02,-2.764155567248431297e-02,-2.933894685469495139e-02,2.474492922252473359e-02,3.537594577840916937e-02,9.205990197461515201e-02,2.248054839112058056e-01,2.744555808090777815e-01,1.761961215705509787e-01,1.074323619100753247e-01,8.616195666832764458e-03,-4.369326647243978318e-02,-1.382060152657108854e-01,-8.813429060137849269e-02,2.040542354174311457e-02,2.861001221653789936e-02,4.143231484761920186e-02,1.989941680773559818e-01,1.572530482458235346e-01,1.652899344308404184e-01,1.740577003900674602e-01,1.566693075865482898e-01,9.324830557348692817e-02,5.649006349706588853e-02,4.362119044132761053e-02,-3.716117114320743875e-02,2.032637387258723338e-02,-2.419182054458296482e-02,1.414173013899715226e-02,3.922044383503680426e-02,2.114580492513563371e-03,6.003817030986426800e-02,7.278789863198120713e-02,1.104977329259851510e-01,1.194811847930934284e-01,8.697647659071609805e-02,-1.666323448894289514e-03,-1.865863034430858824e-01,-9.915764465693518992e-02,-6.282868255397690282e-02,-8.256135005292232487e-02,-1.457915167291525815e-01,2.542959644036969606e-04,8.427065168690733854e-02,1.445174403499244545e-02,1.136712267546690636e-01,8.231786532462287420e-02,1.435755469645258187e-01,1.622247038445132072e-01,1.494530551785576422e-01,1.487366506010530665e-01,1.063477124988244232e-01,7.144908848957624847e-02,2.676312045902680403e-02,-1.332912607940507643e-02,1.837135291225977518e-02,-3.881045646391448334e-02,-3.129723745286274589e-02,8.371795380165778649e-03,7.190866147592149538e-02,1.496702819895729120e-01,1.184470074459015032e-01,6.898810630178339731e-02,7.969144728412685952e-02,-5.449782638180819538e-02,-2.055732441299069069e-01,-4.673632567421091843e-02,6.536574081842628017e-03,-4.104327712767755904e-02,-2.891600925582696671e-02,4.634873025073633912e-02,5.862831407171005538e-02,4.453998296422118086e-02,2.712751194403962771e-02,6.688738242227580677e-02,1.765824098749361193e-01,2.491585369429470953e-01,1.991368121248167089e-01,1.506564188654778425e-01,4.806845208635791150e-02,3.786736866583310240e-02,4.650862037142447503e-02,-4.942000064770516593e-02,4.721172790962897825e-02,-2.325370002278934894e-02,-3.397333632411764920e-02,4.358071663940215473e-02,6.099844904448272626e-02,1.139430860087632669e-01,1.571578706041438789e-01,1.188814542556082265e-01,8.469996113592481377e-03,-1.458118641551135394e-02,-5.211829150615095163e-02,5.769348755669889001e-02,9.735025992442983278e-02,3.186862236970624401e-02,3.452490618206414258e-02,6.106401743690667572e-02,1.361260239463059907e-01,1.144736329098906824e-01,9.167018145164589071e-02,3.677199225118767817e-02,1.715626694836324684e-01,1.751512687259250411e-01,1.792364719277504403e-01,6.085674055196431398e-02,2.211465939751182386e-02,3.677636916673773099e-02,3.891768362691583327e-02,1.066122014437129867e-02,2.721911238280337597e-02,4.451235484382842778e-02,-2.242110966222834317e-02,9.713442841529610836e-03,6.288758569478383742e-02,8.784570445062393762e-02,1.753885147759983165e-01,3.791215889299837799e-02,2.003891926020593545e-02,1.814937178559930184e-02,-1.232401680536369948e-02,4.880542336059524866e-02,5.470872018901935113e-02,1.566550221471692816e-01,9.905068670693423227e-02,5.963625699313043066e-02,1.571150033971636661e-01,1.591091155239412192e-01,6.151787599762278264e-02,4.579259743751052519e-02,9.983822722238565317e-02,6.689070733081954601e-02,1.056334323058548963e-01,7.693357968352367016e-02,9.944353790418274108e-02,4.628878730203623421e-02,4.743595949703116599e-02,2.954151010177412384e-02,3.727898546049006334e-02,-4.943851854006831026e-02,-2.764599280358231298e-02,4.253164950843169728e-02,7.392814463623495480e-02,1.581994599520380740e-01,1.286161822856007886e-01,6.798813473909752492e-02,-9.381802430331239243e-03,4.446226377123557033e-02,6.197510385626343876e-02,1.345872042478303554e-01,6.036379455931773635e-02,1.185167596646216903e-01,1.475895467063554345e-01,9.891660902221818819e-02,1.426421114132768175e-01,2.972883847862422407e-02,7.216540474521059012e-02,2.098696816468705040e-02,6.920436962375656198e-02,7.677970645957467311e-02,6.623165773455054472e-02,2.647973609959401384e-02,6.719361197147293019e-02,-1.764872418727102960e-02,-4.375435126141081349e-02,-1.739168594608229285e-02,-2.106141432142379089e-02,-2.442191311760559883e-02,-1.920796440629948809e-02,-3.224471166044860782e-02,1.279906438663923687e-02,8.072988915372060481e-02,1.742694005725614614e-02,3.241462485790525677e-02,-4.852109286816745637e-02,4.966164456194197691e-02,9.982761735918177504e-02,-3.199383356984072252e-02,-5.108323861317552034e-02,-2.503367224941093275e-02,9.004016527014840898e-02,1.109785844104210079e-01,9.362027192790639551e-02,6.636968964806212604e-04,-2.212193573235742233e-04,-8.279608478080478784e-03,-2.278852431607063939e-02,-1.987476730937117950e-02,-9.106091388669216788e-03,-2.770279025671425546e-02,-3.654899966973526506e-03,-2.795621259300934067e-02,4.387547846128263956e-02,4.639589903533039572e-03,4.691528993616057852e-03,-2.388075883101202848e-02,3.850390803340067447e-02,-2.173363651521672754e-02,9.868864723711189002e-02,3.631733445704671270e-02,2.268744535838096779e-02,7.826192192624574495e-02,-1.885902894012338876e-02,-7.995340778075137045e-02,1.380582959991229382e-02,-8.348155601700053829e-02,-1.499104635863058310e-01,-4.799702645523831745e-02,-1.747230628603248931e-02,-2.544086322271762318e-03,-1.656724764128533200e-01,-1.405182198070175081e-01,-1.245235691186028920e-01,-2.634390732474042179e-02,5.435802336998012130e-02,1.825321717646833861e-03,2.679740326862001948e-02,3.391688408525465187e-02,4.349804550792401442e-02,7.373898449497595653e-03,3.830302787127934372e-02,4.727121870054092068e-02,4.753992955368267770e-02,-1.846166666663479061e-02,3.304630998847958578e-03,-1.860376336097263952e-02,5.240108157038843306e-02,9.503487256029818919e-02,5.480277339678329279e-02,6.204273097529995097e-03,-6.716646418012038600e-02,-5.779916883735891631e-02,-1.686974642520306863e-02,-8.533139261325078939e-02,-4.677879953535470786e-02,-6.474942531136233803e-02,-1.472171465318815597e-01,-2.246753705300413295e-01,-2.346268082835633317e-01,-1.441877078465652051e-01,-9.215486632298418648e-03,3.810482086290795101e-02,1.024979239569013059e-02,-5.242074179936843242e-02,-4.720532021748075763e-02,2.947350720690291789e-02,-1.564002100363105427e-02,-4.588244386037206024e-02,3.769821965294739563e-02,-2.404866774038061372e-03,9.632815675717922022e-03,1.544520408617461316e-02,-2.973132778502266677e-02,5.193387852722869402e-02,3.418154788235934494e-02,1.493693391670638214e-02,-2.111517810050811753e-02,-2.953485836095654654e-02,8.973167453758511551e-06,-1.988553494779111627e-02,-1.269783998781598422e-01,-1.820929770470219589e-01,-1.472224053447556691e-01,-1.207164020719753844e-01,-2.046864665306375175e-01,-1.741623192324068814e-01,-1.816302897399614258e-01,-1.246007564419253089e-01,-1.753006398531788135e-02,5.840293833932483705e-03,-5.591283032348697002e-02,-5.560810306094716299e-02,7.411952109471228387e-03,-9.130190033763745105e-03,-4.010696644845772318e-02,1.857742398022187158e-03,3.794122096426931490e-02,3.820787647719758873e-04,1.086569408618495020e-02,4.120055240209165304e-02,-2.530475768259057845e-03,-4.569001305826749827e-03,3.449674259896041983e-02,-4.756925421069187199e-02,-1.252018719082395766e-03,1.033244701446571663e-02,3.466397005922165764e-02,-2.783637477388747200e-02,-6.560952331190456066e-02,-5.737731394317574507e-02,-5.144773761950999919e-02,-4.240586248692725102e-02,-2.772800813219027799e-02,-7.246814588577007998e-02,5.563189731939248428e-03,-6.849029210874978124e-02,-4.532452909682661846e-02,-5.930243134719272169e-02,-1.541085211467028634e-02,-1.242700127630909541e-02,7.724285148360099384e-03,-1.206712291932976466e-02,4.123038361227238102e-02,-1.030185893925620461e-02,-3.017145439954091110e-02,-3.344532976282724168e-02,-4.926086552278074321e-02,-2.597324845442724670e-02,7.151865123007541958e-03,4.868913281383317748e-02,-4.595203654992145031e-02,3.974321139506160373e-03,-1.251917272938632593e-02,-3.048252986857983432e-02,-2.178598889099921630e-03,-4.363202280024210122e-02,-3.683290830366221097e-02,-3.739920138551951906e-02,-1.386881524931490688e-02,2.209488186568221713e-02,-4.225233186743097141e-02,2.948312502609530192e-02,3.334593311680392885e-02,1.854306746409066292e-03,-2.338750224979165709e-02,-1.989286095417609063e-02,-3.464684147188522995e-02,2.779761178466004512e-02,4.486157670212528870e-03,4.246703119926885373e-02,3.857190121744641376e-02,-2.177906220525063427e-02,-6.442729886790288241e-04,-1.314752321882711045e-02, -1.032583517453261879e-01,-4.991843016097635699e-02,-8.614934731278243996e-03,-3.465317268140227086e-02,-8.751560665889987489e-03,-4.665275448106183387e-02,-2.034349225751934734e-02,1.434188922312241987e-02,-2.886728054544203392e-02,1.077248741533234216e-02,8.279450234317496660e-03,1.567787714349988537e-02,-3.317936582116177979e-02,1.092489621266694300e-02,-4.412107082583312245e-02,4.596645919760922183e-02,-4.032007926122626457e-02,8.251183901822514710e-03,-4.332297266451778234e-02,8.580579277335936839e-04,1.192725295020458098e-02,4.096573076548999659e-02,3.729721337894974231e-02,6.637398545888892332e-03,-2.202640008619412282e-02,4.130415650116084358e-03,3.227929259653554428e-02,2.005267116382915271e-02,8.179994228335610296e-03,-2.172929708174374877e-02,-1.254701241421864177e-02,-1.458265442534574519e-02,3.788033656524079917e-02,-3.117745464538704270e-03,5.528253314118478090e-03,-4.165945027912787424e-03,-3.427417625556580805e-03,2.631326866348664140e-02,-2.599894620487901500e-02,6.676243879631161421e-03,1.255200676018306677e-02,2.726070304678990253e-02,4.690922166973789109e-02,3.376738627233767664e-02,-2.635284850519331243e-02,-1.762258543415917006e-02,-4.139421806340803228e-02,-2.499823239423809920e-02,-4.195717433263988771e-03,-2.018292251112230318e-02,3.394496824692945502e-02,-2.245188399174416136e-02,4.558145528524916446e-02,-4.244407679545432466e-02,-4.123060114137886562e-02,-2.024617819333036917e-02,-1.102441901255826057e-02,9.348960969372897833e-03,2.341534404446785067e-02,-4.739020180072245347e-02,-4.191873581576093660e-02,3.323313332811472787e-02,-3.191140615698909860e-02,-3.783287584509784779e-02,1.770387036319452656e-03,2.736365992481203102e-02,-5.132144726311828331e-03,1.185908534071404216e-02,-2.189078646618510676e-02,1.722084507966712211e-02,-2.104762780195323316e-03,-2.409557748351650805e-02,-2.623333819554082152e-02,4.970291614457493512e-02,-5.481796886696673268e-03,7.133378999128510423e-02,-3.084027126562639484e-02,1.761171775680741083e-02,1.608450354485976494e-02,3.675880095677981629e-02,-3.905537913960056146e-02,-2.080211788961851271e-02,-3.241030080758217080e-02,-3.738064374855115668e-02,-4.720718929817684789e-02,2.054284335294745412e-02,-2.069393558531095259e-02,-3.500586871680019807e-03,-1.922572912365668948e-02,-3.131914874776492441e-02,-1.498240934986967698e-02,-5.034792957812419395e-02,-2.687000951678005997e-02,-4.807221444329436285e-05,-1.741536972553765772e-02,-1.351900278117649026e-02,3.776723475276163450e-02,3.926385834540637582e-02,-3.802139694743984777e-02,1.606736137690860378e-02,3.632287269025335358e-02,6.218624608547150545e-02,-5.010359997043544768e-03,1.980929884812930933e-02,2.024998045560782653e-02,4.545339555171102469e-02,-3.966094440287621509e-02,-1.612367703074858369e-02,-3.589721205842608120e-02,5.938342854785984282e-03,-3.377029374513386417e-02,3.153354555899821887e-02,1.585399847294566289e-02,-1.589048055740510668e-02,2.350307741284687890e-02,-5.197589532744052720e-03,-7.391417765941862839e-03,-4.419124651570158213e-02,-1.662801731689400250e-02,-1.871552018537957695e-03,1.590554402214330518e-02,2.110224522205547681e-02,-5.355890395780214114e-02,-3.400232511590549345e-02,5.000191791236877417e-03,-6.884530918650524911e-02,9.350288435464443586e-04,-4.080575312466417498e-02,2.462990617805447049e-02,3.623278478413331088e-02,-3.196239353180223286e-02,-4.289483470112999408e-02,-3.922795198781762506e-04,-1.360655662545377266e-02,7.324173257593545594e-02,3.422557144351049546e-02,5.220261883944369435e-02,-1.101272374725346427e-02,4.753820143224533890e-02,3.172843028734172177e-02,-4.606906842043193007e-03,-1.844783573108130931e-02,2.038247916942573235e-02,-2.274713256624510960e-02,8.841656028782897761e-03,1.222146389082737553e-02,1.769211020689019295e-02,-6.056327969800532479e-02,-1.497842405972839297e-02,-5.057077130746073096e-02,-7.812408744384312376e-02,-6.380666592190810393e-02,-3.326213671222764956e-02,-6.496451062817223954e-02,-2.752700454070582461e-02,-2.484851093981626027e-02,9.396154845434576131e-02,2.633660298343953182e-02,3.762109233515070067e-02,6.482310850087202869e-02,5.793380028071337673e-02,3.453756167420068968e-02,5.803986677241525921e-02,6.876318783811170843e-02,1.612045905306416782e-02,2.342506169323348847e-02,3.573273733599450358e-02,3.688417560254642763e-02,-9.421652284972978353e-03,4.475218655848717253e-02,-1.756015301152304142e-03,4.585253119798671229e-02,-2.414328664801924929e-02,-6.746362388996164638e-02,-7.061324213310138376e-02,2.525501345180780621e-02,-1.916002324350054437e-02,-3.759111252721254043e-02,-7.768262123544110442e-02,-8.122347982350738849e-02,-1.878007506464536916e-02,-4.046924707984676101e-02,-1.012755859334699832e-02,1.469773999935108737e-05,2.051398143192261284e-02,1.179247675431798620e-02,-2.748823918637093022e-02,4.859860531243875154e-02,9.013386983099637428e-02,1.924889448928401858e-02,4.643056146193162009e-02,1.762968131927309876e-02,2.648922524388189551e-02,1.261555274899264605e-02,-2.968237070550560058e-03,-3.334464882631960753e-02,-2.220608344619862465e-02,-2.910738968307000074e-03,-1.254175170703118042e-02,2.886426559331770753e-02,2.410441328479318371e-02,5.734598372802882787e-03,-5.551962978597977522e-02,-2.420208103644240494e-02,-9.825686682781584885e-03,7.455715696093462297e-03,5.053543474471849234e-02,4.303255909199592971e-02,1.843690256887774159e-02,-4.127255325040889850e-02,-7.762129872132159103e-02,-8.689706067009599078e-02,-9.056619419081096342e-03,-5.839355704326843616e-02,-9.968191122111814961e-02,6.500651011804863162e-03,-3.356843490174355078e-03,4.829952418074526244e-02,-2.489945990676632227e-03,5.732596223707402128e-02,3.261992089080241464e-02,3.793303780875354608e-02,9.187029526463193554e-03,4.921815127937725215e-02,-1.115091498318152539e-02,-4.283622094617453580e-03,2.665587186857293345e-02,-1.051940986971157269e-03,3.387149347972983216e-03,-2.243843409085432769e-02,-8.713436420246955041e-03,1.724674672782467930e-02,-5.188535295596569119e-02,6.121558436949992021e-02,2.672532623919512962e-02,1.533505077941953697e-02,3.918990002317106897e-02,5.072482153553688547e-03,3.489467682885297184e-02,4.877955278276509959e-02,5.482421598192147028e-02,-6.956942668763781146e-02,-1.124869752214266161e-01,-1.028579365196027745e-01,-8.413602238503205960e-03,2.992873663296319667e-02,6.970132088851463056e-03,1.022204289865577265e-01,1.557089551709715525e-01,1.207466599870581914e-01,9.385289488670771341e-02,-1.167546966041469771e-02,2.572062022821945682e-02,-3.071593857661900767e-02,1.301282840426023525e-02,-2.882086665426181887e-02,1.111834862670428060e-03,-3.207182307456504528e-03,-1.183246481982253365e-03,-2.058989083724901969e-02,6.415816791490812528e-03,6.958935011978976959e-02,1.012083126811505196e-01,7.658597354447896355e-02,1.291805593697990251e-01,-2.174967255317349774e-02,5.494179474727838020e-02,1.498737445390513623e-01,1.063317383592360041e-02,-5.854327559160443090e-02,-8.066836712722283420e-02,-6.732433854736255552e-02,-5.570810770405650730e-02,-6.022180129361859313e-02,5.817114989010600812e-02,9.305154174993678085e-02,1.079603742112474479e-01,1.776641956027549540e-01,5.748583617611023600e-02,-3.587994322421893256e-02,3.596291984760378868e-03,1.616615491938624971e-02,7.181605476880444615e-03,3.968083603187400749e-02,-1.282764344914097236e-02,-5.775867217605385601e-02,3.052717924168548563e-02,-4.983554410730109407e-02,1.931852603178818920e-02,1.226286826838871580e-01,1.621788794870141215e-01,1.968905754465157532e-01,1.629158847921729769e-01,1.269389794448019526e-01,1.849106951867783011e-01,1.508095530225014580e-01,-3.918944991483212098e-02,-1.515529147992938641e-01,-2.097376286402947154e-01,-1.053509347147461167e-01,-1.132037044370534790e-01,-1.095951815967837611e-01,-2.666479973972561354e-02,3.248450030612953961e-03,1.028940665478006444e-01,7.227260575303220969e-02,3.181219097423945014e-02,1.699484021238034312e-02,-1.677575420177312288e-02,-4.917760221229838802e-02,2.531144510175691031e-02,-2.379562625533580833e-02,-2.652909570097698039e-02,-5.755178828501698179e-02,9.517109657647992646e-03,4.386232639605425199e-02,9.466467423595527342e-02,1.063727733699663530e-01,1.012342191959368642e-01,1.730099518728460961e-01,1.677261216878609962e-01,1.890441585391929025e-01,1.548284119532951641e-01,8.969897346764794943e-02,-1.554281424415146218e-01,-2.008587460533483582e-01,-1.926546844042719975e-01,-1.574784550571078356e-01,-9.152914232077165313e-02,-1.899094185782197464e-01,-9.889762438695917646e-02,1.713140020301265679e-02,5.961496803222300460e-03,-7.010154970603902800e-04,-1.470208240853855541e-02,-6.172825647203435649e-03,2.426693939881827133e-02,1.426386010845483165e-02,4.571684475669289538e-02,1.527527388052864719e-02,-1.482111718271428118e-02,3.006544630693947298e-02,5.282769727078264616e-02,6.908081627643973543e-02,4.671871686003113006e-02,5.009091143051858097e-02,1.219913084920334623e-01,8.606045568683998170e-02,9.251277682539812974e-02,1.331124657294436575e-01,1.157398957822609736e-01,-7.699694249571835403e-02,-9.395979285090914901e-02,-2.317980934539147220e-01,-1.190458399091739450e-01,-1.036851466128811960e-01,-1.033941216511194833e-01,-6.834972771593481045e-02,-6.851610133506372789e-03,-1.638827020562199852e-02,6.063221854169907610e-02,7.389274736269584032e-02,5.336276933634695463e-02,-4.476745770360146537e-02,-1.526872022957136837e-02,4.228955298725255163e-02,2.454366104207020283e-02,-3.011369755764328141e-03,1.051377758846496965e-02,-6.565681464609603168e-02,3.883965481022759025e-03,5.523373948345694506e-02,9.154383398425086638e-03,-5.139750596571885516e-02,-2.658956310955722796e-02,-1.535609158407422181e-02,-3.049272889158736229e-03,1.048787435399882173e-01,5.349872863283462732e-02,-2.239159626292951469e-02,-1.113899289006497900e-01,-1.444158498797550871e-01,-2.269628329733074101e-01,-1.055353445798195844e-01,-1.007204124838188830e-01,-7.545441663988489145e-02,-1.674060830956349694e-02,3.674171022266465442e-02,8.433387447597652520e-02,4.083757481880385953e-02,4.670664349350629047e-02,1.180099093433478047e-02,4.734414061004901808e-02,2.135104596496986695e-02,-4.367032185048526360e-02,4.878797940813010825e-02,7.080603931350082543e-03,1.780999492386470262e-02,-3.066508604171315749e-03,-3.343413796877592326e-02,-2.139069882234883105e-02,-2.097944368672062868e-02,5.079286983433239228e-02,7.551922182830969610e-02,-5.572899106143425207e-02,4.250183474664783606e-02,-1.366887631481511316e-02,-3.357961163397186338e-02,-5.063154892338137675e-02,-1.815811576170138220e-01,-2.355892758648168717e-01,-1.214310714468001817e-01,-5.909246075092949163e-02,3.442620904799446879e-02,4.214998844733644501e-02,3.813264691626928882e-02,5.951008882913228631e-02,-3.982498163110626682e-03,-1.132878516515002480e-02,-2.547249763308409229e-02,-4.842184140050797420e-02,-1.831182651017358026e-02,-1.040440001960393768e-03,-1.506774877361317933e-02,-2.365957415629218324e-02,-3.358395014135779483e-02,-4.376616671055454794e-02,3.022867004785634651e-02,-6.784716532842851103e-03,-9.021562553556473907e-02,-1.680718756886532758e-02,3.314174880253423910e-02,-6.415576180728137234e-02,-4.687244329558373085e-02,-5.963207210136229480e-02,-5.487578579958443670e-02,-7.129402089400402320e-02,-1.874941222959520259e-01,-1.968656551237021324e-01,-1.335330080455595370e-01,-1.118423644332115080e-01,3.152990387107488385e-02,6.755675758717218093e-02,5.519460999562024461e-02,1.022454166967314525e-02,4.915182265491147007e-02,4.262522308426895667e-02,1.197685853677993729e-03,2.292368132982539053e-02,2.881050080792289803e-02,4.248166564915223375e-03,-4.476055880852510688e-02,-4.401432869945719889e-02,-4.126997480648743333e-02,2.717633564699054385e-02,-1.397308672466720386e-02,-9.253827542617686086e-03,-8.882269058592569266e-02,-1.905246719741905334e-02,-4.519085710564627045e-02,-8.450647349731209290e-02,-4.066912447257611113e-02,-1.101182113589904282e-01,-2.478344523222929599e-02,-1.344834278761850854e-01,-1.640921189022862547e-01,-1.061586496222054060e-01,-1.611399910627114296e-01,-3.369707702612168010e-02,6.677943725479856818e-02,9.886717418105074595e-02,-1.833563795527929849e-02,4.438429168928610669e-02,3.276149450929495555e-02,-1.417505424108656681e-02,4.929039471614903890e-03,-3.675280296331154273e-02,3.984724978564377351e-02,2.720422698632800340e-02,1.703988987956517667e-02,-1.063507452949494225e-02,-9.751867630466332787e-03,3.576228878090842531e-03,-6.725944647101042562e-02,-5.149099145442936204e-02,-2.436852738608298249e-02,2.607349150984995464e-02,2.863590898698999392e-03,2.353297270244875464e-02,-8.795778316329477819e-02,-1.260937340816349339e-01,-1.457065776505770682e-01,-1.548044074853351104e-01,-7.420210134997609619e-02,-1.080783860214093450e-02,-7.522683835212506942e-02,2.524500885912494760e-02,7.845022188206257630e-02,4.248019658431586437e-02,2.784637331510349950e-02,-6.986363264763173486e-02,2.320312128224986253e-02,-3.693023651096143112e-02,-2.694410095403174804e-02,-2.391869512526722044e-02,-3.872944706773667756e-02,-3.564507024698382320e-02,2.128955837294403339e-02,-1.445647678667161262e-02,-7.095872621066930119e-02,3.730505444904090584e-02,7.202836335211985908e-02,1.332937698270594273e-01,8.574410324977164988e-02,1.208982541178415387e-01,8.203940229422003461e-02,4.359178350892617404e-02,-6.454379082472735951e-02,-1.171167967658192088e-01,-2.798461612275442850e-02,4.227613570241751939e-02,-1.228667004220727541e-02,2.530553533291957785e-02,6.751966195840872209e-02,3.592962793416058093e-02,-3.307504501139960085e-02,-4.266662650106495952e-02,-5.760482317489779014e-02,-7.572110329117705263e-02,-1.989918080957443422e-02,-1.607765049636830645e-02,8.424955409954491825e-03,3.465469697445421049e-02,2.149984905046449513e-02,-3.355821617158603193e-02,1.169286448293725342e-02,9.716094082851329736e-03,-1.013111583283664296e-01,-4.250244283597380546e-02,8.278467406331016520e-02,2.038313811948780918e-01,2.507899821849149391e-01,2.406557603251624211e-01,1.305226062916921559e-01,1.684611510689958125e-01,1.367536923285784523e-01,7.004791449883490673e-02,-3.431941164085953143e-03,1.519887077345504281e-02,-1.900548611853765738e-02,-3.597187298083288215e-02,5.044097638745925066e-02,3.571153879900731271e-02,1.175154089654218380e-02,-2.259268733928657472e-02,-6.472252424165293727e-02,3.355801659499713097e-02,1.830638882153663369e-02,2.322063453951611275e-02,2.483494149505433013e-02,-2.384228932681149715e-02,1.313234741973767772e-02,4.371772011760419185e-02,1.428950209314425179e-02,9.820913027499147616e-03,-5.111445269918063472e-02,-4.013227117467618732e-02,-5.775972078038956598e-02,6.747947276989919863e-02,2.526057673915156343e-01,2.578396364853480782e-01,1.685389451513832904e-01,1.671476856227973873e-01,1.291070201376754156e-01,1.134033379220313331e-01,-1.601697852418794768e-02,-6.106651027396580583e-02,7.545538772183310421e-03,4.986294822199537069e-02,-1.769647843859597017e-02,-5.281757399098760408e-02,1.663535190939754299e-03,-4.629252593667317756e-02,1.349851684608517448e-02,2.351082321739302386e-02,2.191338479044088045e-02,4.051942541420597288e-02,2.372375169683382801e-02,4.349765571328514935e-02,7.255004354229196983e-03,4.950628422609452961e-02,-3.031582035797242974e-02,-4.195458312348186031e-02,-6.276606382908057891e-02,-1.043155666707291374e-01,-3.987575519823331749e-02,5.574550245723269154e-02,5.554142824715661841e-02,8.744061005263083219e-02,1.298647255070684292e-01,9.877480993206595727e-02,9.300434110035300794e-02,7.347561872099597768e-02,-3.572821016891503110e-02,4.541300350333413866e-02,3.702912037359974706e-02,-2.163036791620795082e-03,2.363988733878974804e-02,6.116517059322817973e-02,3.848780770230464388e-02,-4.986165380129178870e-02,-2.592519059852890773e-02,-6.434184537046347407e-02,-3.438764865263160830e-02,3.318713436464069966e-02,-4.517938358788502889e-02,4.928848116303362337e-02,1.277138802760106884e-02,-4.885372070859150123e-02,-2.092385088604016910e-02,-1.041080093039137636e-02,-2.376760160220246082e-02,-3.394266561944373622e-02,-7.116537636070206785e-02,-7.852045896435311256e-02,-1.089394684932711577e-01,-2.123714869627430640e-02,5.962034197647340938e-02,1.046622837129057015e-01,1.224127430349569584e-01,5.651272147593157380e-02,9.568281175822229701e-02,-2.761991880612692241e-03,-2.531220149060962529e-02,-3.490217635682536790e-02,9.617851721940832987e-02,1.995032418853486325e-02,-4.830072789752339057e-02,-3.605940977260729818e-02,-2.847730527665666422e-02,-3.117414751510204710e-02,3.210484823536376153e-02,-4.402167149095336136e-03,-3.261073639551065328e-02,3.729164579568408633e-02,-1.868518775718611830e-02,-1.383595630217752254e-02,-1.120061707709177866e-02,8.642393205609579659e-03,-5.473133238801287936e-02,-6.969229133184341729e-02,-3.784413808979258248e-02,-3.562259588205869448e-04,3.438087494377054659e-02,4.371642542452069263e-02,4.387000424832870893e-02,8.404067277714055706e-02,9.141962804533203257e-02,8.402175002367789913e-02,9.488526387039963872e-02,6.850641979049063024e-02,2.836337385735952440e-02,-5.556573716713422532e-03,5.004544446449726847e-02,-3.745609475750112660e-02,-1.276475013657536912e-02,-5.335073843902874563e-02,5.976521465316024474e-05,-1.412108444938034793e-02,3.495804011491074337e-02,-7.318360221380840192e-03,5.553120556044656431e-03,-3.546029101697874275e-02,1.568641956930624803e-02,1.707842494904197872e-02,1.933612167459876352e-02,-3.679069275469765837e-02,1.260840353676479994e-02,-2.303251423259882261e-02,-4.423800358593889953e-02,-4.201119666921519780e-02,-1.877572958650248341e-02,5.704652164372667200e-02,5.028549721101536335e-02,1.624070326873722995e-03,3.324232431286559125e-02,3.331812236458162046e-03,-3.638924823046690241e-03,6.096281057730496000e-02,1.202788959722643145e-03,3.197780547886380775e-02,-1.820309696354142220e-02,-7.583927648009941569e-03,-7.070736349649585362e-02,4.228536972713124210e-03,-3.327590872068046657e-02,-3.934872355530306953e-02,3.963319888306970212e-02,2.573380674649937416e-02,-1.207659401872410165e-03,1.869558717816684201e-02,-4.629169250929476842e-02,-4.232722251657396184e-02,-4.701751411831903149e-02,-3.206271418436965753e-02,5.751747556850849048e-03,-1.641732610621483152e-02,-2.099223131422393515e-02,-4.161448738303426959e-02,-7.428717663409314942e-02,-2.612342049899838911e-02,-4.943850638297998291e-03,-3.382343699303975732e-03,1.219292226087688143e-03,-4.857525683762698929e-03,-3.689585890060557982e-02,-2.652527441851289247e-02,8.399146538757892161e-04,3.837668952476699230e-02,-3.471252854096733287e-02,-2.463791850226320843e-02,-3.517998889483814340e-02,-4.488710426901576511e-02,-4.005670626409241902e-02,-3.455735161537240585e-02,3.343241190276175639e-02,2.769666003126396159e-02,2.973733396273235685e-02,-1.552944662089907751e-02,4.314248120076549786e-02,-4.598239488440180461e-02,4.820777463162541354e-02,-2.536875812470960195e-02,-5.998231282996385055e-02,1.701208910490886739e-02,-2.334953558403588675e-02,-2.762455129152220634e-02,-4.073338105539543730e-02,-3.635988793983013778e-02,4.074563896992523110e-02,-2.499654914438576014e-02,-1.742685588657055806e-02,-7.664545241216859026e-03,-1.301610211620097234e-02,2.759478009452933853e-02,2.941168623265010343e-02,-3.980586504877305781e-02,-2.474876217924289537e-02,1.183643002947578834e-02,-7.505997148306119485e-03,4.718462279796093936e-03,-3.234577668724967353e-02,3.020655908454349114e-02,4.599418801113226707e-02,-1.343236341992661703e-02,2.825413962993648942e-02,-2.370966363966727983e-02,-5.419416876428384544e-03,6.018657916149069975e-03,1.882876807432652677e-02,-4.662557344549253524e-02,8.859925074250485366e-05,6.969483581993158802e-03,-4.629986736401812963e-02,1.477138081613973454e-02,3.019188641137949755e-02,-3.736146819011947062e-02,-1.098465109310165118e-02,2.398409170423257408e-02,4.964568199010450933e-02,4.587641405453689661e-03,-4.386879915631235194e-02,3.592975066984850641e-02,-3.837689525775581784e-02,4.592582435259703888e-02,-1.033347364466856606e-02,2.759920910236916131e-03,1.903794724991925147e-02,4.837034167193575429e-03,1.243862104821282649e-02,3.905112936102160537e-02,3.814832305583058802e-02,1.653155764393232641e-03,-3.996097993443267771e-02,1.279662528576415437e-02, -1.308133706904556492e-01,-1.024994283894946345e-02,-1.269976791274242400e-02,1.900218282671638226e-02,-3.975328291927632263e-02,-4.748884033964043128e-02,-4.122048135443492911e-03,-4.706057645586624733e-02,2.952359103065264889e-02,2.363651932616352147e-02,-2.145869430411949733e-02,-3.115054242036337240e-02,-4.821755792509832550e-02,2.328484100309322069e-02,3.022651218613768564e-02,-2.315276232767525880e-02,3.595370162801317382e-02,2.254013414725898612e-03,3.304739768224937424e-02,4.642098007267107806e-02,3.598403747873822611e-02,-1.400904511506696759e-02,3.202305122138068838e-02,-4.983097646537975461e-02,1.480385998787225876e-02,4.040620639552285065e-02,5.605298581854420426e-03,-3.731783519555711970e-02,-1.674931383969350401e-02,-2.680035127113026411e-02,4.266596612929944576e-02,-4.935339275312222718e-02,2.538416973831819634e-02,4.243076220104173568e-02,-2.058225714285571994e-02,-4.325152689623075475e-02,-2.526881166584581465e-02,-4.564206746910418055e-02,-4.825791370070971198e-02,-4.889733739303721294e-02,-2.326166270551899631e-02,3.919139046163019890e-03,-2.211635844503632292e-02,6.879776610679482450e-03,-3.065216500211257952e-02,-2.548801507019460635e-02,1.730456230522856714e-02,5.228723970132560794e-02,-3.407775537985043013e-02,2.243830325253302893e-02,4.566632198112806351e-02,4.810890842958052971e-02,-2.446374213950268731e-02,-4.476421010387985483e-02,1.885747092985498585e-02,1.447023470847706716e-02,-3.310935075738477562e-02,2.264718721619665698e-03,3.216388071123160719e-02,4.040316724298496920e-02,5.736968963433806967e-03,3.196444430083894561e-02,3.064941746096667974e-02,-3.411004716605502141e-02,1.305542393642479537e-03,4.603841339108391550e-02,4.428883759202227599e-02,1.624989477966857013e-02,1.331757568157805258e-02,3.934826634137425505e-02,-2.297423607541771058e-03,7.935844762706081856e-02,5.256954296297512231e-05,3.385308626128899490e-02,7.698537550392189899e-02,5.644395880512388664e-02,3.040207513734271075e-02,3.400206742090996354e-02,-3.124073330192984497e-05,-1.279921195431175940e-02,-1.029758182894876736e-03,9.357798959878170508e-03,4.062930967798680792e-02,1.433353867627128186e-03,4.378586515363595832e-02,-3.292926731658911421e-02,2.708910537802498852e-03,1.677071783452117881e-02,4.203047284997518673e-02,-1.058170737468481365e-02,-2.476488981251869989e-02,-1.096043277926061696e-02,-2.787529534618985935e-02,2.297604541162576522e-03,3.870434389290629273e-02,-9.745091579861128728e-03,7.091819191235314290e-02,-3.773702953186560370e-03,1.109873809640260917e-01,1.068218854405868362e-01,1.285464533506258111e-01,1.340322792534449636e-01,1.021781548546310397e-01,6.805607392721395310e-02,8.065899895669297048e-02,2.841198976441432211e-02,5.139808520047660367e-02,5.024555583012728366e-02,-3.455277240305389824e-02,7.874400539996426196e-03,3.381224034199702133e-02,3.082173986762271056e-02,2.543466959771775726e-02,1.999051817488307903e-02,7.730027277570203359e-03,-3.315657043475522814e-02,-8.550495331699180246e-03,-5.135411326758187317e-02,-8.778654265704007725e-03,3.517027811529699344e-02,-1.264024791805945340e-03,4.670075796641482563e-02,-9.131429225645797121e-03,3.225227185468074881e-02,8.437246880876450583e-02,7.876304019841659509e-02,1.006550643770575820e-01,7.814084352030387093e-02,1.536933561298645112e-01,1.937802184453275289e-01,1.357896105614865290e-01,8.693999570232187335e-02,4.892102512013025983e-02,2.270005907548654570e-02,-5.406301131903220453e-02,-6.899795839269394493e-02,-6.083519139222443722e-02,-1.753510132746240527e-02,-1.624201324380552397e-02,2.119423910212928086e-02,3.595333447996865162e-02,4.499245256414984018e-02,-4.255912142097437872e-02,-3.591602105860652178e-02,-1.374731853163247862e-03,-1.720059464930014451e-02,2.189031298193267611e-02,6.457490655668254864e-02,-1.195806022711196716e-04,5.764097879821494796e-02,3.517483924316000543e-02,3.347605929101889893e-02,1.578208431849751139e-02,5.137726667883595749e-02,4.239834721746474355e-02,-9.063445628412205787e-04,8.725118482687387045e-03,9.845525347653207027e-02,1.061216372656722806e-01,-9.109118732654341091e-03,-6.466559746832327947e-03,-9.811358824585801608e-02,-4.668682557306709502e-02,-6.888705702031250322e-02,-5.229413382135866817e-02,-5.172145665703700712e-02,-4.203630359413922796e-02,3.415741517326084664e-02,-9.786766244368888534e-04,4.845512022911463434e-02,-1.488442295823564493e-02,-2.574079508941198510e-02,-8.916853113239198159e-03,-4.011764366065017490e-02,1.370913989934660453e-02,7.772142484825680930e-02,3.463156501355445227e-02,7.278951468058464901e-03,-2.817437843137414119e-02,-5.125049381755615412e-03,4.623437434476084656e-02,3.982901595463662903e-02,7.994716646169074126e-02,1.266528545623417934e-01,1.375244919569226509e-01,7.509022555423695844e-02,6.471416942836995256e-02,-5.085132700869094552e-02,-4.851897299653476492e-02,-4.261034363770518224e-02,-9.428041977756282388e-02,-7.648608337848304684e-02,-1.443809221989244551e-01,-3.916027561861687434e-02,-1.943141286034274010e-02,4.689907192572911887e-02,3.530853146936754200e-02,-4.444949662600963802e-02,-4.706338097450436797e-02,4.198539822273184008e-02,1.419583131270082607e-02,4.785475897392552774e-02,5.802606373816562163e-02,5.021639898158231780e-02,4.906392862872571009e-02,4.872569188602048247e-03,2.097682373320356244e-02,1.344177642332461571e-02,6.324905383617093757e-02,6.397499620110932983e-02,1.694094388486769576e-01,1.996964109627083761e-01,2.637174118029045333e-01,1.305210425523758155e-01,-6.551158050362047500e-03,-4.814829966071514089e-02,-9.787620076594440166e-02,-2.414171388776732360e-02,-2.561954182430936991e-02,-4.296035585986509447e-02,-1.431450764801124598e-01,-3.732825983908392292e-02,-4.744274071243577418e-02,4.924317639492925558e-02,-4.003533209609183574e-02,4.263789431445116906e-02,2.747783478777666988e-03,5.849737156043899843e-03,-5.081406611617689771e-03,3.911283398550650155e-04,-2.298339190377944683e-03,4.421346914441618564e-02,-1.654777628988075844e-02,-4.386010942486903708e-02,6.502379777120396998e-02,3.026234710550196327e-02,4.578125204922754710e-02,1.150929369676101516e-01,2.223821174147715130e-01,1.485051680501450755e-01,1.158010836788876952e-01,1.288651106587020145e-01,1.031328780142484920e-02,-2.442309418452915173e-02,-1.384900959477651343e-02,-7.023577151405578645e-02,-8.171771182038373160e-02,-6.098070368546212872e-02,-8.569461154540318482e-02,-6.643886749049604523e-02,1.427951626045539414e-02,-3.075959106148065322e-02,-1.569613878526665562e-02,4.971448424784701003e-02,-3.943326251603440635e-02,9.697993937330597058e-03,6.480789701512861510e-03,4.682991755719016769e-02,-1.949864359501496044e-02,1.570487100247358950e-02,1.253543183348490922e-02,4.231769853505119861e-02,2.491205791002674280e-02,2.953999831281420990e-02,4.063986171405992859e-02,5.473663968214265846e-02,1.316998461015348593e-02,4.782084965584910280e-02,1.148995481785077682e-01,-2.479305927542579599e-02,2.610961963605638869e-02,-6.712223530461547405e-02,-1.056682523210089181e-01,-2.794473904050083501e-02,-4.926849733738278281e-02,-9.842195488981848872e-02,-2.332198842617747361e-02,-5.148621064586104273e-02,3.185357641129866330e-02,3.006129046799245821e-02,-2.192747044721491539e-02,-2.214886472402012585e-03,2.916175164569484446e-02,6.081405663857992333e-02,-2.414753517696403493e-02,3.482995448114619428e-04,-2.929154597621848322e-02,-1.369716291505762400e-02,-4.821356274996586172e-02,5.921028265728868652e-03,-1.818857754863982545e-02,-3.987003083349623805e-02,-2.753636671957064921e-03,-5.484547605741023346e-02,-1.305890011087415536e-01,2.106588144366551216e-02,1.396143512351502580e-01,6.877487874506622856e-02,3.127841345846231469e-02,-1.035993746449016123e-02,-4.188632012345051836e-02,7.166545591978040232e-03,-1.916402299794244674e-02,-1.218026616988856781e-01,-3.940339908243559869e-02,2.581995416661353113e-02,-1.512548047983531055e-02,-6.522404856145709758e-03,3.369846303759753414e-02,3.634730550279073602e-02,-7.817680542880831029e-03,4.091332413363506920e-02,3.721195287108843702e-02,2.670814635200588136e-02,2.390374060285415520e-02,-6.847825230147996933e-02,-7.001069572080327597e-02,1.089724050108910498e-02,-9.861735311844047058e-02,-7.840964395689280220e-02,-2.360783471300290648e-01,-1.082014632134215976e-01,-7.374446770874655555e-02,1.599579624865667959e-01,1.845449901389773495e-01,5.269286198558945783e-02,8.273949667185895307e-02,1.044646610427771016e-01,-7.996423105103619283e-03,1.569909381217774597e-02,-2.278894614287394968e-02,-9.017067089692576420e-02,-4.193795805019693429e-02,2.723781519575777660e-02,3.066411693157875332e-02,-5.364500059042967561e-02,-4.794056509396758120e-02,-1.131168344277979493e-02,-1.735069841946107472e-02,-4.145290783226987519e-02,2.819162632824467538e-02,-1.654310904916288585e-02,-8.506439673134738588e-02,-1.356623233671730988e-01,-1.295876686528153188e-01,-3.757098721742093556e-02,-1.355360608183372728e-01,-2.767363129097231700e-01,-2.371205226305733438e-01,-1.706455916262782646e-01,1.177603544717517126e-03,1.103869065616906453e-01,1.983357433286790927e-01,9.331499326569526673e-03,5.392195309078400695e-02,1.119767478427954044e-01,5.815863434632959766e-02,8.749826886203679321e-02,-9.531108545391226913e-03,-2.510514328229476039e-02,-6.745660416437192219e-02,-1.446148199732492749e-02,4.347031381485146062e-02,-2.954846224113532455e-02,-3.175944837054415354e-02,-4.409099474994088164e-02,3.126074212549469211e-02,-3.238569262947454779e-03,4.132620959419253115e-02,-2.500714868129938831e-02,-4.547370975857372571e-02,-1.396714672179178163e-01,-1.598421518667162977e-01,-6.779063035988913688e-02,-1.905031852407946813e-01,-2.888551257007112016e-01,-2.121136017626097936e-01,-1.635220151656139043e-01,7.708884677351714176e-02,1.845901882265975902e-01,1.680714790868227393e-01,7.921907690776948396e-02,3.725925323731128780e-02,5.013372109922425296e-02,8.569267450759945892e-02,3.986237169318029155e-02,-1.073157956554997572e-01,-1.134995550594776054e-01,-7.610845731535884062e-02,-6.297840545713749572e-02,5.746729243024113060e-02,-5.974773622380404655e-04,4.358399516296297682e-02,2.746530644430504597e-02,4.766723711236224570e-02,-1.324981898614685516e-03,-1.355286421705750345e-02,-5.790845949707523060e-02,-1.093906639021052646e-01,-1.855441114359256127e-01,-1.655267947863447442e-01,-5.305834750350636037e-02,-3.179817254367977436e-02,-1.619418310694654140e-01,-9.648988297569201233e-02,1.188255000049492915e-02,8.497567574973260984e-02,1.205187540298509052e-01,7.714345598978963880e-02,7.627221889979832192e-02,6.664180040388312069e-03,2.356308052283841159e-02,3.093101259682718568e-02,-2.207229664684533330e-03,-1.155786437979304665e-01,-8.855728378920071919e-02,2.869667764605146349e-03,-1.808027907572076765e-02,1.886621480175208754e-02,-1.136824135829354876e-02,-4.558015982119121429e-02,3.970407331664314865e-02,2.560441717930490857e-02,8.985937225569895492e-03,3.940882198172873663e-02,3.377063283786575429e-03,-9.308344210915030226e-02,-1.826944096770692361e-01,-1.365694895012367627e-01,-2.311515982247923373e-01,-1.812783690530848368e-01,-1.077221264839814396e-01,-2.697549877483253894e-02,2.647236409706988682e-03,2.062061292537173407e-02,4.465857475244447428e-02,1.228202023899656464e-01,4.285314937394166940e-02,8.093047350500504056e-02,5.687838698414635769e-02,-8.256812190522769268e-02,-1.709709237023104150e-02,-6.011747268511115350e-02,-2.001239195891693287e-02,-9.840109807698378327e-03,-1.490553634974666614e-02,5.370027344252068652e-02,5.372523984686111871e-03,3.688136836510205741e-02,-4.316191048020445731e-03,1.553936073450096211e-02,-3.559734020903858320e-02,3.820531512085509340e-02,2.523194265803647626e-02,-1.044384589844069150e-01,-9.616776687557411496e-02,-1.380989535447745831e-01,-1.885583571867725239e-01,-1.477210276806462108e-01,-6.515038953736439209e-02,-3.012194000977305025e-02,3.785886718444080035e-02,8.492996031545201052e-02,1.020218723033475827e-01,1.055722573724386659e-02,1.361923622644269083e-02,7.562304774713611566e-02,-1.585738666575714842e-02,-2.221420198082094469e-02,2.196668866883914537e-02,2.490170753799401254e-02,1.507783234507463314e-02,-6.222496909199132231e-02,1.122736308651379501e-02,3.594215728662829290e-02,2.010179010289141893e-04,2.763116714116983785e-04,3.457659777131194545e-02,1.785054839007424454e-02,1.720476025772218684e-02,5.470065610409471230e-02,3.468593783148751081e-02,2.492225358551083611e-03,-5.405344395385996287e-02,-9.403543536781493184e-02,-1.295380850555465369e-01,-3.801039054883113139e-02,3.280009440426268075e-02,2.320192188080219542e-02,7.072078327984029564e-03,1.000252506068129849e-01,6.291351992754076750e-02,-1.044746791685863610e-02,-5.100192571927141677e-02,-3.538404337306864933e-03,5.047238396476029640e-04,7.543876628314764854e-02,3.767517936060096190e-02,8.595535609225157803e-02,8.874222299633871547e-02,8.919317668606898536e-04,-1.570027216935301895e-02,5.553600616892292313e-02,2.243822560297811797e-02,3.963408958168601615e-04,-2.977907240348997078e-02,4.473076891089096396e-02,2.093415065967332150e-02,-7.886298080478811034e-03,3.253440671751964275e-02,8.060137125172049666e-02,-1.067434024793767131e-02,-6.746184695765405914e-02,-1.281071428976485183e-01,1.117065053722231770e-02,1.013596215168497960e-01,4.917124699274803834e-02,1.373320362143720386e-01,9.905878951617899664e-02,1.148739694477782930e-01,2.817091858790903274e-04,6.276247795872813562e-02,4.206740005725298492e-02,3.784240382232487154e-02,8.191913579889086028e-02,3.701075616421597297e-02,9.238434505268112995e-02,4.552937606483079686e-02,3.164114456425917710e-02,2.415170596865361466e-02,2.478364211453834218e-02,-9.514119723483954738e-05,-4.292768635106913172e-02,1.409278252266765730e-02,-1.444831682519243099e-02,5.395657007409750128e-02,2.024125499767491509e-02,4.137763596906664232e-02,6.125842001964010991e-02,3.825446130328608724e-02,-2.973017639799351367e-02,-4.341604213177905486e-02,5.775246319592671276e-03,5.334187912836182294e-02,7.205793226128173745e-02,1.169292923222305658e-01,1.146156139483792691e-01,4.846789113503207486e-02,9.262263172502134545e-02,4.173579469022754146e-02,4.216132390874349073e-02,2.522620963643741956e-02,1.018171240563423285e-01,6.487966701036183836e-02,-1.124748938027582136e-04,1.363524061753467083e-02,3.216391305609764273e-02,5.120251599661362375e-03,-2.094786538238186530e-02,4.126655377983340367e-02,-2.919162411029810333e-03,-2.906323680942156720e-02,-1.876666764558026015e-02,1.115790395947101332e-02,1.619983052579594685e-02,6.935357925711542471e-02,7.661035470496947719e-02,1.913188503690094189e-02,2.689530397496794900e-02,-3.064882710963413859e-02,-4.716667962998395691e-02,6.552751436766793280e-02,1.369024562281706027e-02,1.184686823737277905e-01,4.402066200192592677e-02,6.284583674715715773e-02,1.117879884020620551e-01,7.015532149653608274e-02,-2.233676819896164567e-02,3.142757338716539728e-02,4.393222256127848196e-02,9.860798195671320598e-02,-3.685782451835481477e-02,3.459374220914916698e-02,3.024174653765685297e-02,-9.961493199561733108e-04,-4.078289608714898151e-02,-5.085575789772945471e-02,-9.003807883189302030e-04,3.166989398653961840e-02,-2.902350707147939579e-02,-7.905729494145570177e-03,-2.553076430206855166e-02,1.646302816271917255e-02,7.669038991504668890e-02,-2.385532713122130027e-02,2.921846551700023678e-02,-7.512803081435652508e-02,-7.274392558226761007e-03,-1.345565795482252594e-02,4.617234385811356395e-02,1.341927768165197543e-01,1.014735647555465026e-01,-7.831705386037800254e-03,-6.117344194514803823e-02,4.105121487167535249e-02,-9.802418851550998360e-03,-7.720033222163495690e-02,4.281918683931840858e-02,7.283783819876422233e-03,-2.744100599159346888e-03,-4.687046234297198577e-02,5.286094822720793091e-02,-4.445977581475452078e-02,1.213090757504979231e-02,3.392634785678234899e-02,-5.382869840179715926e-03,-4.171708741758149014e-02,2.540172488171475729e-02,1.599731805152739689e-02,4.657795027722738679e-02,5.365963440079338925e-02,4.924326236733987672e-02,9.691366944191830493e-03,7.983949181077362039e-03,2.926845518027761713e-03,3.318441596806662869e-02,-5.717663971187009198e-02,3.197805671463424104e-03,-4.442684857466126791e-02,-1.184416016732929289e-01,-7.750470946555887419e-02,-6.067443923214050489e-02,-7.496805775818805861e-02,-6.177923114192407361e-02,-4.449057832139269308e-02,-1.152416178243313438e-01,-6.771085511911480170e-02,-1.716267699714632555e-02,2.549201521056509989e-02,5.885356995802524388e-02,-4.052166135516128975e-02,-2.175046815967515007e-02,-3.811284575607445241e-02,-2.619264360210623796e-02,-7.673607582662930748e-03,3.386631617840483999e-02,-1.524806584831919429e-02,4.486684301310554096e-02,5.456702130855135141e-02,5.869359203197921371e-02,-2.189281873041537194e-02,4.940763457803094144e-02,1.203216490032839488e-02,-4.279363841767565291e-02,-9.931535549425773990e-03,-7.361410833226654515e-02,-9.931429784627671120e-02,-1.572345088104792898e-01,-1.651720160556855443e-01,-9.010930465791611166e-02,-3.843129643774174931e-02,-4.264714118218919381e-02,-7.513501642056649721e-02,-7.579529708194490678e-02,-2.982592767356262789e-02,2.243375588852857330e-02,5.522035322029585080e-02,-3.188894419318106382e-02,4.957041683655015463e-02,2.732832343002879194e-02,-2.985898699674877088e-02,-1.165208551604649673e-02,-2.126833915372731282e-02,-2.011327074006068541e-02,-4.593861106405614653e-02,-5.304413478439699760e-04,4.932283235223665352e-02,3.564253416047469258e-02,7.237424025093756874e-02,7.448641940136054018e-02,1.212398473525852366e-01,4.783239099548983880e-02,8.476958939043495456e-02,2.550887233574378882e-02,7.707179818417231321e-02,-1.911903819437813998e-03,1.956571712884606906e-02,6.542134931209811488e-02,-2.945957567999248246e-03,-4.881404777464304519e-03,-8.114738869424629325e-03,-2.304013474504921014e-02,2.004888553273592375e-02,-1.158320236820796663e-02,4.997205837977319182e-02,2.511763150697650729e-03,-2.269929094016296441e-03,2.025325748494750944e-02,-2.386575806375394043e-02,1.795250951033741660e-02,-4.772218649041497923e-02,-6.304196729763379692e-03,1.987471758347364448e-02,9.192071478439600013e-03,4.444051727770301219e-02,4.345979813297860296e-03,5.781757528871855380e-04,9.928081062732167783e-02,8.476136369786309299e-02,9.044791287326604812e-02,1.490821994079267743e-01,1.132004794263911374e-01,8.208014099283605924e-02,1.009740597221405051e-01,9.710211746897924601e-02,8.301573903343006933e-02,5.209412871367952863e-02,-1.422694999648452946e-02,4.719877050506156302e-02,4.565248178102828541e-03,-2.835610063646302678e-02,-4.403094418624271811e-02,-2.162449200162808866e-02,7.646872567768442375e-03,5.074784780692902187e-04,-1.088103443892111249e-02,1.564683702215581562e-02,2.184425114144765423e-02,-4.229111921569720517e-02,-1.572316762220610231e-02,2.379762793715543834e-02,-1.515521089342247892e-02,2.429443961239129493e-02,-4.355089654301478458e-02,4.445853195644046407e-02,6.198530380616552871e-02,-2.228223611746227295e-02,4.345542488684079468e-02,2.275957842840901219e-02,7.449987566377108683e-02,6.145639899337263651e-02,-1.448070092072509425e-02,6.727178560494490034e-02,3.066918385585237425e-02,3.349442698837251653e-02,-2.076292109139681649e-03,4.139672289953710144e-02,4.252037734950844111e-02,-2.789185116185162634e-03,3.947325826627434003e-02,4.221095499168212029e-02,-2.879811014863835686e-02,3.397135202636490658e-02,-1.673085286390361276e-02,-4.612976973670390723e-02,-4.231913948742835330e-02,1.651974469508138421e-02,-4.335021759681680076e-03,-3.058547019547269707e-02,-4.667203674347392139e-02,3.191513101900166072e-02,1.992113251376244343e-02,3.655793991660333947e-02,-2.494445492426652922e-02,-2.210837234129016046e-02,2.571412784139678193e-02,-3.322937806435530272e-02,4.851868283386402692e-02,-2.929203592728335526e-02,5.183510063208781465e-02,2.757123181540930938e-03,2.013107851381305130e-02,3.213161781002353556e-02,1.216934511796314948e-02,-3.547908799752029496e-02,-4.600181647000726320e-02,-1.287348359409989929e-02,3.213806554759755796e-02,4.663739961117331634e-03,3.640114837608975085e-02,4.504844507994976155e-02,-9.152483380034090454e-03,-1.533133660249670627e-02,1.127690584488078018e-02, 2.228006257744652718e-01,6.303314425321192294e-03,4.426933886494677228e-03,3.819114203349181780e-02,-3.419940565890802753e-02,-4.410694943475393370e-02,-1.758123058875898925e-02,3.204876986071573952e-02,-4.534461770539210262e-02,-2.308139006729311923e-02,7.768001592688346391e-03,1.613840128697771603e-02,-4.000601768011677328e-02,-1.302741878914404072e-02,2.696500730379824962e-02,3.495240438061425481e-02,7.992065395717798393e-03,3.945007412051280971e-02,-1.481825030310598285e-02,2.818960926888428031e-02,2.890309254527623217e-02,-4.082845187046860169e-02,-2.845294696055276212e-02,2.458934462216197381e-02,-1.408256923282415890e-02,-8.461499912866064788e-03,-1.311985261998818014e-02,3.425346831248941848e-02,4.576947020589659798e-03,2.270453330379371137e-02,-3.735250962050090662e-02,-2.548662735750643199e-02,-2.551154517912234201e-02,-2.554473614402419379e-03,4.780915387345606449e-02,-4.133808097715976904e-02,3.384053714993312534e-04,-1.962812943511598254e-02,8.031661641317279499e-03,-2.438546560767549526e-02,-2.625894178376034574e-02,2.962184793220887236e-02,-2.761153150421231592e-02,9.074058459835438253e-03,-3.862659414807458752e-02,4.787416529283117228e-02,4.693894253736245747e-02,2.952781291860692367e-02,4.837950142777401596e-02,-3.086652853075130473e-02,-4.752626320886574329e-02,-2.861224016457404595e-02,-2.582067125208159508e-02,9.137889922542552501e-03,3.327143685774823501e-03,-1.763926890209529391e-02,-2.766437075826537820e-02,4.945171199130046769e-02,-2.513489982886280005e-02,9.931041877196414291e-03,-4.828626610109004041e-02,-4.395654678190017567e-02,1.433918823467661419e-03,-4.910118337036725733e-02,1.787865637469582270e-02,4.343241768052341634e-03,-9.030693853637736246e-03,8.722321420251907820e-04,-5.986026382412192037e-02,-4.335025134274785030e-02,6.149333083757459184e-03,-5.740046615385906853e-02,-4.463241528020682469e-03,-1.054323620941961977e-02,-4.456976449394442485e-02,3.301273487661818273e-02,9.643178883567049900e-03,-4.286353670205105687e-02,3.727360310610704219e-02,2.116824623252598278e-02,-1.367624360644256395e-02,3.417687708347298681e-02,3.540886364300756262e-03,-3.766191707294497260e-02,-4.609994974230199882e-02,-2.994346385692390339e-02,-1.361382932913325627e-02,-2.972685212631490798e-02,-2.343061265737246546e-02,3.228777410031061224e-02,4.623303587514926427e-02,-1.847856798410714213e-03,-3.113104839970596421e-02,9.433889091137692001e-03,-9.045646132093571393e-03,-6.973783773189527746e-02,2.681871413006693683e-03,-2.772972879097497859e-02,-2.088042719736757369e-02,-9.091306636977844469e-02,-4.034509152712208863e-02,-7.925967992803317763e-02,3.575796546499609464e-03,-6.076954215892094169e-02,-5.869512225936756623e-03,-8.497937276154711450e-02,-6.053452315651539073e-02,-2.712890125496960833e-02,2.856964208602507174e-02,1.972643860153976136e-02,-3.799691626631695324e-02,-4.040561146149101307e-02,-2.653128457632857387e-02,2.381807787908113427e-02,-4.755004029718908065e-02,-1.836654737695050943e-03,4.565457547403599381e-02,-2.127108085697044723e-02,9.179345847537965369e-03,3.525801522263719706e-02,-5.411253957767984263e-02,4.866559535563674127e-02,3.246219156144234536e-02,-1.719766715820792921e-02,1.676679404192576994e-02,1.268228086596793341e-02,-8.987044545263904449e-02,-9.353674489982619078e-02,-8.623589226675777708e-02,-2.893591617138245239e-02,-2.771403506801690259e-02,3.720158134832742686e-02,5.413385506695160554e-02,6.581206932922653878e-04,6.795789312567500351e-02,1.469739312523053905e-02,2.241178714056865640e-02,-4.234792016525135844e-02,-6.276968492142084854e-03,2.504451037290426896e-02,-3.865088478624559981e-02,-2.954959224887511449e-03,-4.089422602272083790e-02,1.225077410415598145e-02,1.231208439709779133e-02,-2.154385027886706119e-02,-4.168916700530329172e-02,-2.762670003484215403e-02,-1.029089191380153263e-02,-1.317119896319512463e-02,5.853018322080516533e-03,-3.908920900046894409e-02,-1.586256805683329274e-01,-1.138437560097974866e-01,-1.286733940737301851e-01,-1.519750552214559902e-01,-1.548068181836876334e-01,-1.183432737946558538e-01,-1.170626863846799537e-01,-4.429145422735297072e-02,8.051563671393795196e-02,3.250260840359200931e-02,5.109930673651563726e-02,1.172094287626679332e-01,3.918641508024058723e-02,3.463040382605963446e-02,4.675818469594539978e-02,2.193805240071690713e-02,1.300567031535494744e-02,7.766781253333986113e-03,1.954205818213608503e-02,-2.004168383192982475e-02,-1.082088743216184489e-03,1.714612458032575837e-02,-2.230838295291939430e-02,-2.079180575580109533e-03,-6.848143964467105771e-02,-4.293789998543922140e-03,3.455782783503086319e-02,-1.002630278170971029e-01,-1.213981678383637963e-01,-4.411143281572220409e-02,-7.627608978292502173e-02,-1.743265781648861423e-01,-3.893966926476425394e-01,-3.785490473004894940e-01,-2.733471090684625460e-01,-1.062552331942224898e-01,-6.215839320926478534e-02,-1.915414525625710671e-02,6.090474387367540016e-02,1.445093905280659119e-01,1.338973333075274275e-01,1.493815388216570943e-02,-1.873759064747573463e-02,-1.143499137372924225e-02,-4.158267470742946226e-02,1.049363102861653602e-02,-2.782019556668158256e-02,3.353488122947986122e-02,5.847515123300409817e-02,-1.714050908171826579e-02,3.201346643202338665e-02,-1.620579258769143036e-02,-2.544239099947391558e-02,4.150289278160251144e-02,1.915524722630361498e-02,9.632666744836786143e-02,3.197037622205151086e-02,-4.258198938941481354e-02,-8.765958500121880104e-02,-2.964699884154609055e-01,-3.963758111740369183e-01,-3.758635333760843578e-01,-2.616310593616000268e-01,-4.478085436022975069e-02,3.601256390503010385e-02,3.244406690792456249e-02,7.786222019722396914e-02,9.158338252410579139e-02,5.603664567455080708e-02,5.566440268171203576e-02,1.608587259623898286e-02,7.131538782418352963e-03,-5.945864351222490685e-03,4.341676734112674685e-02,3.091107541775779677e-02,-1.663364690262853288e-02,3.031474947326937702e-02,-3.544126456010657927e-02,-3.832957650214660617e-02,-1.908996976647015648e-02,1.372445889742309744e-01,8.922646445699153328e-02,1.067029002618719441e-01,1.729196753284565485e-02,2.165088175540081858e-02,-6.451325184693711134e-02,-8.721078138482871167e-02,-1.770505827675182831e-01,-1.774649837812438680e-01,-1.005728569102766340e-01,3.194600139805561095e-02,-1.598938053586335117e-02,5.667744803004640120e-02,3.355161528389364440e-04,-1.375204775643131330e-02,1.567556193995174206e-04,4.993376528592598923e-02,5.614137491053289991e-03,-2.104306318020315175e-02,-4.031837623238752888e-02,-4.622502792024266172e-03,3.854702963065666232e-02,1.506671886944665334e-02,4.026846344193668603e-02,1.468933479547360546e-03,6.932164790934273145e-03,3.581798915257480842e-02,6.103095731186012479e-02,3.801549852911378924e-02,2.348906520422042263e-03,2.958302424748681173e-02,4.178850284346031368e-02,-1.412516723787071715e-02,-3.584437866656535465e-02,-1.257620327325571497e-01,-4.297447170820206663e-02,8.918390810494572496e-02,2.015080542645935890e-01,1.565455586631420981e-01,9.582190456923193878e-02,6.077816452595024600e-03,5.972273551768313843e-02,2.293981619802390459e-02,2.386047563032712981e-02,-4.915873193753770437e-02,2.445414465379591121e-03,-1.051506263713886460e-02,2.429228208759596358e-02,3.779832628665545646e-02,3.110098893119407626e-02,1.193051437060914204e-02,-2.376377613727257213e-02,5.365180392014280708e-02,8.808463919506800965e-02,8.775604281266774498e-02,1.437439167068125384e-02,2.007507492250509146e-02,8.753180612540778505e-02,1.123814930590492783e-01,-5.658641082382240631e-04,-5.770430530399859453e-02,-6.330634943510302093e-02,4.804512234947824582e-03,2.287237560336903563e-01,1.993653591006901982e-01,1.691669930066816707e-01,1.531700958153290326e-01,9.995260021204435685e-02,9.880221685756707117e-02,6.745603684629285224e-02,-2.678088722900652530e-02,4.392876035007831775e-02,-4.030923952281664085e-02,5.525196695386984554e-03,-9.400705497440662098e-03,-2.927310721754535286e-02,-2.662200846197240733e-03,-2.196668188208808492e-03,-3.666761958590197129e-02,2.921546511212225021e-03,1.054011913393052419e-01,1.394541519700294441e-01,-8.151813999719162429e-03,-1.881256940484184875e-02,3.858699221042196509e-02,5.239328698593245792e-02,-5.363699542789289627e-03,3.555440638773130213e-02,-9.401786966697169012e-02,-1.238306776222349720e-01,-1.876659261842418980e-03,1.827399591197939599e-01,1.155269913547195687e-01,1.835109446239091835e-01,9.268318013485070395e-02,5.025187324232825714e-02,9.282897280242728699e-02,3.152330743587616196e-02,7.385011446314904658e-03,4.572275642155736348e-03,6.715921149528398040e-03,-3.555955989836765557e-02,-4.865245590672406806e-02,-3.480049357635760926e-02,-1.367266929342125098e-02,-4.207741149397994929e-03,-4.356532929417387262e-02,4.607736602377018355e-03,3.525822737477825319e-02,3.811566029072274708e-02,5.075151386485360350e-02,-1.021279245433339700e-01,1.937336335635907875e-02,-3.604801805680167039e-03,9.093994856219968226e-02,4.236331565112283482e-02,-1.168388069735891710e-01,-1.256680222568168082e-01,1.829913094406533658e-02,1.286311596713828054e-01,1.023376905359236894e-01,1.087111705910408649e-01,-4.128390540763569178e-02,-4.039311700311207232e-02,6.150617385927815463e-03,4.745594359355960468e-02,-3.709850633155796495e-02,-1.846829823345780622e-02,1.658856005054655915e-03,-1.821901123562815264e-02,-3.985485444275635447e-02,-7.863715620150254354e-03,3.393778372465140747e-02,-1.855600483413879370e-02,-4.741848898340031426e-02,1.495991211139748381e-02,2.547691855375644812e-02,4.324314817911947828e-02,3.778558691309660822e-02,-3.423068039531646650e-02,-1.124867562707091741e-03,-3.166886083171256000e-02,-6.046622007508312135e-02,-6.953553410376184241e-02,-1.830988088053446539e-01,-2.264076319775245316e-01,-3.854343506422857474e-02,3.337262540475234573e-02,-3.814486675813726080e-02,-4.261988279511028793e-02,-1.046373544651329340e-01,-7.280978562865828008e-02,4.767853358895078435e-03,2.723498835344810229e-02,6.816610304647018059e-02,-2.340611107081353934e-02,-4.213255966318472240e-03,-3.147906986488229614e-02,-4.333105628092571299e-02,4.278990048190025458e-02,-3.382779467796394324e-02,-4.401146815160018877e-02,-1.670115886696356411e-02,-4.727872377364182588e-03,2.621078953831871075e-02,1.758266676709174456e-02,5.614914874102559794e-02,3.770203988314632659e-02,6.220549509461862497e-02,5.480907335326618696e-02,-1.226202089976469178e-01,-2.955401316525749222e-01,-3.652641779910133502e-01,-2.537027546472988560e-01,-6.684500595552589353e-02,-2.494616004651948465e-02,-3.935446853653205151e-02,-2.707707155868304891e-02,4.009815963601082861e-02,4.845915344255032758e-02,1.279913204311719788e-01,1.398174079038074502e-01,2.650479812638630722e-02,4.101228301458529485e-02,-7.124331477331796725e-02,-3.126942192232595730e-02,1.026425824868717508e-02,3.323321159571238342e-03,3.606651045319594906e-02,-4.783428701264672012e-02,-2.250147263610183246e-03,4.291076474049304590e-03,2.778973823415690353e-02,6.159597359249567583e-02,-1.095621783563000256e-03,1.152942741354702309e-02,8.081343453144053390e-02,-1.972246851972822915e-02,-1.184950206244810428e-01,-2.474958480912111680e-01,-2.120370470611941394e-01,-4.682674323524588927e-02,1.151644917579408012e-01,1.824719227767406249e-01,1.195633303599671071e-01,-3.727689021164807409e-02,2.801522831540681144e-02,1.470093042859367538e-01,1.860867056222290095e-01,1.531669014868022316e-01,9.192156184351589487e-02,-1.704951700225800643e-02,-6.134844353487390461e-02,-2.472512934089499820e-02,-3.657699928701125397e-02,4.447725258579373481e-02,-1.549526931699291010e-02,-3.006467243836370706e-02,-1.389917030971299372e-02,3.472468429122130967e-02,-4.916187250952156612e-02,-2.678269173690555477e-02,4.337057307118702409e-02,7.344083014702069978e-02,1.194567897341603374e-01,6.549255338322390596e-02,-2.621457568121656270e-02,-7.154439980172359881e-02,-4.422017871945501527e-02,1.101660403384941006e-01,2.369535907254091966e-01,2.915137993243718251e-01,9.570829534093894253e-02,-9.169526821328103511e-03,8.662234240145111341e-02,1.727033885293857707e-01,1.579762332773740896e-01,8.404070861375283197e-03,-3.079846650874381794e-02,-1.320864988270720360e-02,-3.185324427740127140e-02,-7.263789171199155903e-02,-3.544832855219019058e-02,-2.298342310385433768e-02,-2.090211124924139588e-02,4.624954535400677136e-02,3.818680137180928413e-02,2.098908049862991884e-02,2.448160151426643713e-02,-5.101594305124276113e-02,-5.894805249648508993e-02,-1.002964588668077243e-02,7.765556088149053182e-02,-1.222636523145619741e-02,-1.227861182156211872e-01,-1.062625859900672293e-01,-1.073980300241040992e-01,6.838937204932928060e-02,2.096693943867869447e-01,2.179494242336409704e-01,1.501956592300733861e-01,4.171712025943292990e-02,-2.344044568116650240e-02,-5.679690906446427726e-03,-3.059178309534979143e-02,-1.136189987259560302e-01,-1.199382145665952998e-01,-7.443066361491258720e-02,-1.298675650633184520e-01,-6.973745694533356465e-02,-1.157584166709776929e-02,1.764198899937133302e-02,-3.524394351160885230e-03,-1.011930082573940515e-02,4.865637008037880518e-02,-2.737179297890575402e-02,-2.397271102205312393e-02,-7.121011341773214598e-02,-6.110959243556146614e-02,-1.581199932519181950e-01,-8.793538884781856857e-02,-4.832339037016574607e-02,-1.125014900808623403e-01,-1.117324764646690644e-01,-5.706020165114932680e-02,-5.236338697464681252e-02,1.171409213584817394e-01,1.678320650643841949e-01,3.628681806595563525e-02,-4.199514554452034309e-02,-1.117913353111281011e-01,-5.010625169810403734e-02,-1.056041301365505530e-01,-1.116755517650515894e-01,-1.179703533656408232e-01,-1.108179194525384381e-01,-1.215052945001525442e-01,-5.603388622940431302e-02,-2.349482274711456667e-02,1.763530608818371370e-02,-3.721111891658113180e-02,-2.150447089279344803e-02,3.988829783189359879e-04,-3.855219353131108390e-02,1.658890544252979160e-02,-8.562298801281484351e-02,-1.049375845052663569e-01,-2.040426337885125063e-01,-1.715623093032509205e-01,-2.210890194963281430e-01,-1.389348143020293913e-01,-8.327921888556134855e-02,-1.173131218518193714e-01,-9.731645694659622758e-02,5.661967409465958057e-02,1.238641190800951475e-02,-5.820530641381183382e-03,-8.248519390722387767e-02,-1.431857091706807417e-01,-1.247192544854065360e-01,-1.478145217331001682e-01,-8.614021103294323967e-02,-1.255036878700495628e-01,-1.063145608044084450e-01,-4.157314487339568154e-02,-1.194881664450133350e-02,-1.094772342094892451e-02,-3.671040776221384805e-02,-1.865721093920268137e-03,8.589727856853988930e-03,-4.684481643859450539e-02,1.411457999973258527e-02,-5.501769075229302058e-02,-7.273918369481370549e-02,-7.915922998675657685e-02,-1.602660064780323246e-01,-1.848688855283631416e-01,-1.727172059732394460e-01,-6.717320012191424494e-02,-8.764599322688200467e-02,-8.748971751927547835e-02,-1.426194578281945492e-02,-7.696060329948084533e-02,-1.975962202985782207e-02,-1.645462647090101954e-02,-9.076746925786804976e-02,-1.031407203748378465e-01,-1.005100414948104232e-01,-1.454357773405941245e-01,-7.655797142111511744e-02,-3.023236002206862449e-02,-6.488014377386536191e-02,-6.433708461562512304e-02,-2.619776462442018061e-02,1.359001551024512436e-02,1.645619954986498115e-02,-1.982554698073595370e-02,3.418943272855909377e-02,-1.792647706796181295e-02,2.541613441691762450e-03,-2.201739133145295957e-02,-1.257901857263383008e-02,-1.261683810207733791e-01,-1.360734048769183246e-01,-9.975268297527943584e-02,-6.553179150494148342e-02,-3.109750241734142440e-02,-3.781491834349554743e-02,7.292750073881859585e-03,-5.144350653328543660e-02,-4.355965833690841893e-02,-1.665139148822708179e-02,-4.384015253805700202e-02,-1.059044783808259366e-01,-1.435806608980025045e-01,-1.239694687877389706e-01,-1.091877979800962850e-01,-2.936697471289817507e-02,-9.950596161860263827e-03,-6.702828810311298180e-02,-3.155536734214311329e-02,-9.976593354255087684e-03,3.276742375875035806e-02,-2.971137997856894766e-02,-9.042588094276181321e-03,-3.628743124526587205e-02,-4.154590826690455346e-02,1.651085289230395242e-02,2.902344825505876261e-02,-5.886212953576713813e-02,-9.620781773888945889e-04,-5.597829014280705784e-02,-3.255919716667671909e-02,1.130209290664900210e-02,-1.040371957482064472e-02,7.310604711566895397e-02,2.836954139842223777e-02,2.937438175018466848e-03,-2.417718723465085012e-02,1.076594173606629096e-01,9.080467272044277782e-02,-7.234520591055686525e-03,-7.843684873630275833e-02,1.542629885108981556e-03,-5.027458452164827729e-02,-2.012105822552709075e-02,-5.984642605830765155e-02,-3.440158892705384025e-02,-4.023856571601699267e-02,-4.938180687931939539e-02,3.607049177256458489e-02,1.833953550566642249e-02,-9.970941400632891971e-03,-2.800758598124441015e-02,2.468055093121358790e-02,2.337719447697239952e-02,-3.123565487066353938e-02,2.900337272157159710e-02,-6.376548365527665539e-03,-2.203140293334121882e-02,7.734973774536644045e-04,8.887210098223029264e-02,5.883648302830859350e-02,7.003304013615348211e-02,9.757340128742530289e-03,1.314825557269769241e-02,1.062493318448054676e-02,1.801627497067790880e-03,6.062569794625045916e-02,5.352719945680433494e-02,-1.859375751853659109e-02,-4.674886167667613446e-02,-7.213803624843324880e-02,-8.861747193372685599e-03,-6.923840500248353014e-02,-6.487584318311068188e-02,-5.489604721520064540e-02,-1.555837070784063352e-02,-4.171322107901370008e-02,2.197834494222750124e-02,-1.794378768553907266e-03,-3.148445896532292565e-02,-3.215902696102532210e-02,3.940041212276111648e-02,1.685764042914838015e-02,1.447040592729481297e-03,2.763286214561225251e-02,1.758167584486367008e-02,-1.351726157732196197e-02,7.619521968105016918e-02,3.576930668397758362e-02,5.681913407018573947e-02,8.098864135597327527e-03,9.411035145954343983e-03,6.994754844183480313e-02,1.963192925938140806e-02,5.756503330292628371e-04,-4.405902908512370625e-02,-4.420974655636965289e-02,-3.996346073702710527e-02,-8.152201415938069295e-02,-4.930908332223832291e-02,-6.419301657394574367e-02,-3.950659543240597933e-03,-7.039419662791336629e-02,-5.496276058218547284e-02,1.854168487990774661e-02,-2.072507418094049481e-02,1.584123620199291704e-02,-4.176797543126828383e-02,2.938288807188861596e-03,-2.879274068343836909e-02,-1.866331056008004724e-02,-5.755301341767417311e-03,-4.109783697935040156e-03,4.293879146639691807e-02,6.629220458577422814e-02,6.627024648643015103e-02,8.834655577112839053e-02,2.634389490107078360e-02,2.114672358002837871e-02,8.533970742196667503e-04,6.586731769914121182e-02,3.214553121303679456e-02,1.614400445047070240e-02,-3.559870295430459658e-02,-2.638433772263030358e-02,-4.837437738867183395e-02,-8.149816492533375201e-02,-1.013659354391691081e-02,-5.142037837083477531e-03,-5.607753128407326482e-03,-2.933571497739162134e-02,-2.381245904723783280e-02,3.397010593071654594e-02,-2.926251256518477839e-04,2.683656189210602283e-02,2.189210667886173911e-02,-1.112456212587237259e-02,-4.157018043137684915e-02,-4.418512961420777152e-02,-3.500167188978173943e-02,3.950347140699383974e-02,3.215203835591372988e-02,2.030660468883188022e-03,-5.139632386020900195e-02,-1.820708645703519521e-02,3.352282443711806365e-02,3.461550168326428534e-02,3.958504486499891950e-02,1.085333709419317866e-01,9.853199315406529005e-03,5.199126021380980067e-02,-2.407389955736543435e-02,-2.241543682418455433e-02,-7.106970071123065724e-02,4.171161931766762671e-02,3.437461499250291791e-02,4.846616333703816087e-02,-8.358819128880215499e-03,-2.271374381547989346e-02,2.243149017012273372e-02,-3.745355031957969816e-02,4.767737012512068828e-02,-3.339790559278398019e-02,3.967249810128845033e-02,-2.843747562553707031e-02,3.483971964180231085e-02,-2.419916761300049471e-02,3.062463817957104817e-02,1.051854659209980163e-02,-3.103441713711223553e-03,-6.224078809021282117e-04,1.755206996510292466e-02,3.342735863036988553e-02,-4.021753561484302068e-03,3.041247526266531442e-02,3.449537087606448921e-02,9.470272131233688911e-03,2.544943259730021376e-03,2.959083380702786509e-02,5.620225743927898671e-02,4.196426842956094833e-02,2.207531968443261078e-02,2.589899544463486122e-03,-2.036091737862923134e-02,2.997572616992165428e-02,-4.543405888750620680e-02,-5.308784197580351805e-03,1.000941811003665249e-02,4.004000010368799489e-02,-4.500520139280999449e-02,3.619206771706644232e-02, 8.537817851688568604e-02,-2.216576606469752506e-02,-4.209506789802606314e-02,4.531846937705960587e-02,-9.300972601494414405e-04,-2.500415620756180068e-02,-1.376311680289212663e-02,3.188731367549557660e-02,-2.302013480862504999e-02,7.568160466902174033e-03,1.627870806601948439e-03,1.282519977962856550e-02,-3.786882496277695076e-02,2.413767633651665856e-02,-2.433827621539375041e-03,-4.040950458213352081e-02,-2.664623385166855693e-02,-6.884679396119877670e-03,2.126917369711212036e-02,-4.894647037662139266e-02,4.753651493142756201e-02,-7.686768460486867460e-03,-4.676286254627304295e-02,1.010526868476591122e-02,4.785094666405002861e-02,-3.529409490419643802e-02,4.167782172841964783e-02,9.920306394776867709e-03,3.709482385529365434e-02,-2.294927437305037746e-02,4.253181505887204672e-02,-3.164568079256489808e-03,1.295864073596372790e-02,3.874947936479640476e-02,9.273978368166083119e-03,-2.106971626657124994e-02,-9.694680468328303879e-04,3.865591001806438498e-02,-3.197599531262583505e-02,-2.549249806242191718e-02,-3.322905833370146805e-02,1.032686043528180386e-02,3.988589052825430858e-02,-4.381316231336181144e-02,3.791479557902958930e-02,-3.031334455644863618e-02,3.093266271215651050e-02,4.609335545255926342e-02,-2.814979277674029001e-02,2.774721392322029856e-03,2.157054844801759019e-02,-4.939206011879291452e-02,-3.448417096577826441e-02,3.591415329959213310e-03,2.194443399231545133e-02,3.996954177263982444e-02,3.433672537625662158e-02,-4.107664901668472979e-03,-3.651835685052510355e-02,2.666128818099371134e-02,1.410551451308691973e-02,9.238926275095496465e-03,3.795466923354708089e-02,1.590183580537621322e-02,4.198536791661779122e-02,-4.755141956611384085e-02,3.341365968418812116e-02,-1.134833730188603354e-02,-5.134420936034094635e-02,-2.838810077121871594e-03,-2.435600821907553393e-02,2.014329520700191764e-02,2.279800551547828472e-02,4.778675067300679896e-02,-4.948912715006549556e-02,3.988196375850029674e-02,-4.659426802231490111e-02,-4.889270898735677967e-02,-4.429429033451112718e-02,4.309654978263755681e-02,2.684864588674719561e-03,-3.611032619816578748e-02,2.899333939427206630e-03,-2.603833030063548368e-02,-2.386614607529599294e-02,2.219352252511716528e-02,-3.505956195556866883e-03,4.406071813960046879e-02,1.718426433964673206e-02,4.881260336050133319e-02,3.771881585153595562e-02,4.677052620102170252e-03,7.326044307097745109e-03,-3.818001682786318490e-03,-2.520130506716652258e-02,-3.319794271347410730e-02,-5.246386923694702775e-02,2.162493492365536504e-03,-6.740687355326879793e-02,-8.067647945916189833e-03,-6.282034748973590321e-02,-4.948859421579496209e-02,-4.352076995387413327e-02,-2.612130559920097968e-03,1.015287511025023647e-02,-3.648596615367716983e-02,1.978822262524502704e-02,-3.091270925512533060e-03,1.709522201314485909e-03,-2.195166623627788083e-02,-3.898068056520381797e-02,-4.848064654445082694e-02,-4.251732992941512079e-02,-2.804523073910238085e-02,-3.957533827750608219e-02,-9.702934546190276899e-03,4.489090629365559415e-02,-4.317646655801613692e-02,-7.196245444805608564e-03,-3.161861557350916646e-02,1.812308859736311978e-02,1.073535959706686978e-02,1.722741145339997532e-02,-2.461806715163775139e-02,-3.670955156042800260e-02,-1.122004453654923059e-02,-5.756821197789052658e-02,4.012438999505826831e-02,1.705648767134168922e-02,-3.727428525254944391e-02,-2.978076490678221305e-02,-2.663738607921623328e-02,1.419326884570366702e-02,-8.309216148283700420e-02,-6.958236898903219503e-02,1.562021344085661595e-02,-2.329254783592327183e-02,-3.584735227042192690e-02,-3.556011130626035577e-03,4.599560666674420983e-02,-2.007449073176197432e-02,2.240209048865950126e-02,-8.927438483934478641e-03,3.932493889775150187e-02,4.080367066528870629e-03,-2.181288886248830550e-02,-1.903114069223977092e-02,-6.112743591934274162e-02,-7.465608541722335706e-03,-1.515586795541649457e-03,-1.532391007369885761e-04,2.975811665061877526e-02,-2.219241418472326158e-02,3.877826455057818006e-02,2.575684263828921516e-02,-4.585666836624169296e-02,-6.583879875136436355e-02,-9.039419609839317860e-02,-1.081942832518959507e-01,-6.857595674079366987e-02,-1.194470325912916180e-02,-5.692131077039152415e-02,-9.227113040396386912e-02,-7.524230831496006577e-02,-2.686687862875417748e-02,-3.996264561378645025e-02,3.295899203520057108e-02,3.012196019397481855e-03,-2.464480913261710843e-02,-1.674679776830273470e-02,-1.839275431089310020e-02,-2.530629014512622219e-02,3.518534736538791313e-02,-2.376592088976894196e-02,-2.971929285928858258e-02,2.129064940460079908e-02,-3.884380738408816508e-02,1.693967446107878111e-02,9.001157073246397744e-02,-9.817725795308186731e-03,2.833196081624906812e-02,-2.111903378621823174e-02,1.305444651116055219e-02,-3.471330642250922832e-02,2.246730193376273929e-02,7.156701877920247645e-02,8.326456324852989435e-03,5.627369487209528051e-03,-1.320166833032408553e-02,-7.442074791088101882e-02,-4.314641751890261993e-03,-9.533389794053824529e-02,-1.083904559207999330e-01,-5.294058406603851206e-03,3.481199179775816555e-02,-5.607859202246496221e-03,9.762283244238044791e-03,1.026246455798812685e-02,6.254755094754607669e-03,-2.026580603057707985e-02,6.129402844535086770e-02,-1.952590830840947311e-02,-3.436037588030230877e-02,-2.215830743719144486e-02,-5.379252098633948570e-02,3.178430606506887218e-02,-1.663349127647542960e-02,3.198155384974678273e-02,3.718420546049886616e-02,6.333273154433420593e-02,7.047044375897879021e-02,1.100547904706274810e-01,1.238422430011397596e-01,1.363954326100533798e-01,7.713465034984430535e-02,9.772138146980748064e-02,-9.662046896855179187e-03,3.342942171156283032e-02,-9.939253946756633484e-02,-9.799834530726495019e-02,-4.136549179101323137e-02,-3.787936794001321023e-02,-1.269157264002967848e-02,-3.587401312248005708e-02,3.187485767124276920e-02,-3.693206663163799836e-02,-2.434291885790935972e-02,-7.322811905776701723e-04,-2.062408714477410171e-02,3.277624714824923374e-02,-2.728019311700779007e-02,-3.181683125725550537e-02,-8.311900754373548542e-03,-3.522363623681077499e-02,-6.797246317159412465e-02,-8.249811882014060002e-03,4.219713973446203442e-02,3.532346924441800984e-02,5.904201719854679231e-02,4.621030673672402514e-03,8.255202210494845538e-02,1.470495325026170974e-01,1.241906978620906654e-01,9.886164595651907028e-02,9.236746202820220186e-02,3.662675759145946758e-02,-2.987294829279037514e-02,-4.202030515591733545e-02,-8.971042819228255971e-02,-7.298292004554475521e-02,-2.349315058552981991e-02,-4.709561141253917199e-02,5.204122908144072357e-03,-4.390472108449357258e-02,-1.579476722964885324e-02,-3.881775933997424349e-02,4.323804206468077893e-02,2.125727983477108604e-02,-1.621666240342162571e-02,-5.653925409138602087e-02,1.358207957702103376e-02,-7.773854706042483687e-02,-1.277936535098716520e-01,-1.563518350811587965e-02,-8.918252805815983508e-02,-1.305734098351525076e-02,-3.581083939371400293e-02,8.264147488173946565e-02,7.682359092278960577e-02,1.490752241193580296e-01,7.913661250926730395e-02,1.591282413382477945e-01,1.072431619959941240e-01,8.096672388745981830e-02,8.035024267985117763e-02,3.792366936814815792e-02,-2.738045368247720227e-02,-1.271310171642283608e-03,1.054663499909874388e-02,-2.965206108141039965e-02,-1.681665889073110515e-02,-1.976234622363103391e-02,-1.944402116766286159e-02,2.202385657347539702e-02,3.311652878234214517e-03,-4.174465242332247444e-02,-4.672785649932608559e-02,5.395736832938795302e-02,-4.509164033401440001e-03,-5.036756138846224667e-02,-1.092500310017320286e-01,-4.978366442489678273e-02,7.836426753987171812e-03,-4.161811593955528493e-02,-4.700477080497630217e-02,-2.917099802305715001e-02,4.348122987259089856e-02,1.033006385131043925e-01,1.501184500151916401e-01,2.080208097655482646e-01,1.931256763721553582e-01,1.338513118008256286e-01,3.119817366951367632e-02,4.651156230088893118e-02,2.710819877939778591e-02,-4.356246512810492411e-02,4.194381116550082583e-02,-8.788463296331218075e-03,-2.105501436968083839e-02,-3.153832955147135853e-02,3.339240095415201004e-02,-1.149578132917699128e-02,-3.770853587058001222e-02,-2.684551480109729354e-02,-3.763587272111797166e-02,3.546385568015626710e-02,9.645144755447490614e-02,3.116423650551763957e-02,-1.798706130289097482e-02,4.681493535878505224e-02,3.344731890809431174e-02,1.811710776969429129e-02,-3.880754492945905770e-02,6.627051223767382350e-03,1.236235950242720039e-02,1.019693558160843644e-01,1.067457753418836197e-01,1.067559472937656267e-01,1.219973216207454331e-01,8.121484380992562147e-02,6.396248041759874936e-02,1.105891158512363193e-01,1.036741563110403774e-01,5.155237584249821453e-02,2.967987310169227511e-02,-1.810246836732647829e-02,4.732599538461353117e-02,-2.240804819672403969e-02,1.151053995233877053e-02,3.964744538810665436e-02,7.880859239532701441e-03,-3.293030069833247780e-02,-1.049296392933965136e-02,4.446349232227164716e-02,1.009072671444214836e-01,8.509781534004615122e-02,8.318234952858122311e-02,1.006626456550720888e-01,1.072508727149027036e-01,-5.335469501817281801e-02,-7.822176733894829759e-02,-1.337914961116659363e-01,-4.237500071863069262e-02,6.551795518720621159e-02,9.847522961621607562e-02,1.021561186881919242e-01,8.388358339004385600e-02,6.083411707289286541e-02,6.451249428192983026e-02,7.756774297430979459e-02,4.128526196006555155e-02,-1.807993442314615590e-02,2.325741752563673451e-02,5.684840010944156420e-04,3.681276355304786974e-02,-4.641563034981772973e-02,2.972461544351061302e-02,1.420135570509107291e-02,9.689043089028813449e-03,2.154257012963338436e-02,5.037721757930084532e-02,7.197452267833803763e-02,1.262021927702869639e-01,1.041056798766210323e-01,1.667735187264634267e-01,1.734983269653172233e-01,1.147288511800401145e-01,-8.445465263842585890e-02,-1.337455821926373523e-01,-1.301391568422845535e-01,-4.745607889037953969e-02,4.150062278171202240e-02,1.078693385461905185e-01,7.953616842446138702e-02,-5.705305273585331398e-03,-4.862353961077494312e-03,1.178931813206378632e-01,7.514187434286573319e-02,2.891249197819730291e-02,3.240748096657045108e-02,4.194696070791135989e-02,-3.240813031629207440e-03,-5.555834899007662531e-03,-4.038892668394378216e-02,3.081805851156245446e-02,1.805987318066537561e-02,3.895383701820424177e-02,5.255603803069900520e-02,8.090581908393450206e-02,1.293648424468483715e-01,6.981428955656941715e-02,1.589553069080329173e-01,1.215374940204588111e-01,1.174012402759657542e-01,1.053536942366788409e-01,-4.349843021328208409e-02,-1.176762174809354716e-01,-1.477688245020378766e-01,-6.243371568729381982e-02,1.518133991778944369e-01,1.710890128727027004e-01,1.084278770286004195e-01,1.160467229836631767e-02,8.835739878294973648e-02,1.499086195795023557e-01,1.323092463472611557e-01,1.130947660688218052e-02,4.197771024681464652e-02,-3.803194789337747267e-02,1.800434143815717036e-02,1.599506605151633509e-02,3.849099502687761132e-02,4.896790569171562135e-02,3.721145604160144837e-02,-1.847489942938021143e-02,-8.847306587264524430e-03,9.188339345501507494e-02,3.225699079909402633e-02,8.069287204168003325e-02,1.130923270825192478e-01,1.282640959101612188e-01,2.607986993294978892e-02,-8.479023918090168588e-02,-6.844137182421172749e-02,-1.638093516627593949e-01,-1.866751280046397288e-01,-1.715917411239207407e-02,1.369026723543312896e-01,1.599550580922877441e-01,6.792858012498277642e-02,3.315191976047573291e-02,1.140813010769447522e-01,9.322506930799084879e-02,6.253006346138499649e-02,4.391980831611556890e-02,6.085585662975880744e-02,3.605580603804568740e-02,-2.721782687845898316e-02,-4.682135776791460785e-02,-3.725467627735794957e-02,3.236077345532016591e-02,-9.803631609039940159e-03,1.335683270158337030e-02,4.052423369336328324e-03,1.669081976342905171e-02,4.300393953837539085e-02,9.364251616087840291e-02,1.005454333410287227e-01,1.534113711407775194e-02,-4.717223846998116164e-03,-1.275353319693674214e-01,-2.298908708191093886e-01,-2.216587203727939659e-01,-2.029779264032965935e-01,-2.336585548054491770e-02,2.278686095304014586e-02,4.072921948811265153e-02,3.142929526221097114e-02,1.452631854714393593e-02,-1.107518274823023063e-02,-4.333984274067665537e-02,3.949644774100340844e-02,1.272549238541481262e-02,5.465356938133054954e-02,-9.643442576166838531e-03,-1.586546210680142913e-02,3.799407009896210718e-02,6.869831254008432198e-03,-2.738784651556622901e-02,-2.466368380368157143e-02,2.986040780721034398e-03,4.553187407110480950e-03,-1.470434306622602286e-02,1.649030007342518547e-02,9.467975424259340855e-02,7.780926531127038692e-02,-2.121096413050719415e-02,-1.402186962695734229e-01,-1.896530539813306437e-01,-1.881155780776702369e-01,-1.548103530855549637e-01,-1.638711357560256876e-01,7.847279857158559815e-03,-3.979102225915836372e-02,3.128228156162822515e-02,1.415009522915278498e-02,2.314265169688034182e-02,-4.559416609542049637e-02,-5.197841950670087363e-02,-2.301617913788258155e-02,-3.537041416648042946e-02,-3.483624583901836352e-02,2.691156484181529696e-02,-3.802582706323805184e-02,-3.814531162379747320e-02,-2.311289139343821950e-02,4.850297371395549673e-02,-7.151312278864366441e-03,1.562156364867572228e-03,1.471458069429282083e-02,-1.966086783912039671e-02,-7.513628312971089296e-02,-7.181757406787520059e-02,-3.981415469260144585e-02,-1.657824072765281265e-01,-1.792304547948201099e-01,-1.558868385821292335e-01,-2.136882708929540853e-01,-1.142178714314268512e-01,-1.568156640287753090e-01,-1.033805778150725246e-01,-9.164840990837178070e-02,-5.038513638565503272e-02,-1.094638448072765974e-01,-3.271735392632637435e-02,-2.326469222316130542e-02,-5.412559661038391506e-02,-6.774182087053216839e-02,-5.939641943193435525e-02,-4.108159550625035961e-02,9.153858659621915209e-03,3.076392131223407156e-02,-1.088690223018477093e-02,5.106216012841890972e-03,-4.262042159193066282e-02,1.652431998800084345e-02,4.870444514476158365e-02,5.940693079967538509e-02,-6.024558604175563048e-02,-1.195553522094650462e-01,-9.839689602092284437e-02,-2.015259465451099685e-01,-2.715186790991251375e-01,-2.430456901009723503e-01,-1.973234859654054429e-01,-1.174935825862523792e-01,-8.765484162587681982e-02,-9.617452683234123390e-02,-7.742169461740090741e-02,-2.803205603798538531e-02,-5.613805235317725212e-02,-6.302080408271204526e-02,-7.079891863621111392e-02,-6.577845323871248095e-02,-8.811541472971537448e-02,-8.006547305761668731e-02,2.128055634585868106e-02,1.863230051540498006e-02,-7.862302550957859029e-03,-3.065566766380666344e-02,7.892223627347372261e-03,1.576351236547741952e-02,-3.204754400005016546e-02,-1.006846313883348783e-02,4.574107067503633411e-02,4.286235832026340231e-02,1.586317777197124995e-02,1.406967757213870018e-02,-1.069954170064944393e-01,-2.292460139973404587e-01,-1.496680679286287174e-01,-2.071957657844726020e-01,-1.358471027855873980e-01,-9.186410925256741078e-02,-7.113786603827278177e-02,-4.940051090146362067e-02,-1.184206988167158317e-02,-3.568113494983841255e-02,4.543830593783012434e-02,-7.001362265639708704e-02,-5.365666123436738794e-02,3.766979075822957795e-02,1.906367460993479285e-02,-1.112224878850133665e-02,-3.668952376641916591e-02,-1.178627105055479046e-02,1.907531603641878654e-02,-2.238965625995909675e-02,-3.358945245250576084e-02,2.304351460363486537e-02,4.889491605053607193e-02,-3.925554119642641476e-02,-2.988139964496953210e-02,-6.071048324716922517e-03,7.075189867894378370e-02,1.009519800914089778e-02,-6.978767322516114813e-02,-1.072489641459831444e-01,-9.946872227646555431e-02,-3.374487886748197413e-02,-6.231748640090616770e-02,-4.985420230349848353e-02,2.911979642473548624e-02,-9.122095228748438797e-03,-4.678797286099149744e-02,4.375977723168815448e-02,7.783587186547850922e-02,-5.664845045702228410e-02,-7.561117094691641172e-02,4.042766734097077985e-02,-2.055396288340343228e-02,3.675833779034182180e-02,-4.487642539262153007e-02,-1.315658778390589936e-02,-8.550902269692620431e-04,3.191390405660016888e-02,6.181221029525688082e-03,3.919709440398894129e-02,3.904043058934081323e-02,-1.414266093608483599e-02,-2.931292618541923509e-02,7.925771610538916156e-02,6.933106875251079937e-02,3.649550264543725137e-02,6.001454769164909359e-02,2.914027150171202840e-02,6.236001929202801553e-02,-3.257562327373444283e-02,-1.063654782359552131e-02,-7.843843609156091537e-03,1.374958369350547972e-02,6.076391330720044143e-02,7.937367456168616109e-02,2.024990319105194475e-02,2.579430610569992746e-02,-7.208292065610438781e-02,-6.710080523330234914e-02,4.230290631046043637e-02,4.106853940799445185e-02,-1.666975654185342062e-02,3.985004434176293332e-03,-2.267827114432812655e-03,-2.373333457679608933e-04,-2.336206404809601164e-02,-1.317756170225671541e-02,-3.904462611154185109e-02,-4.327003106887945816e-02,4.714659971314016235e-02,2.139446311184073444e-03,5.489423647653009913e-02,-1.546251617853106140e-03,1.299233257495841787e-01,5.267688758240128555e-02,5.661032302040005376e-02,6.138204062466596361e-02,7.915383487982018129e-02,4.918550604084793998e-02,3.318936165592058229e-02,-1.490918837250731349e-02,8.738980098734746432e-03,-7.368148187643537572e-02,-5.255199749879946314e-02,-4.173133635777110523e-02,-4.599508510878715095e-02,1.240540569952678154e-02,1.486482689873908341e-03,1.049846534224661843e-02,-1.493172743311496804e-02,2.266519083943569976e-02,1.842986284525676213e-02,1.507937168456469079e-02,1.876733426605928234e-02,-4.263382465296768065e-02,1.001462563130498667e-02,2.450323617867551651e-02,-4.561771686604468301e-02,1.940757941938846959e-02,1.029016312151659687e-02,4.703144669777462733e-02,7.145431467703000639e-02,7.232883467770502561e-02,5.882735271433680441e-02,2.981209244900235450e-02,3.325598334045893473e-02,5.908865438063416742e-02,5.169187807421782993e-02,-2.979658428310926616e-02,-2.801928050871723211e-02,-7.231268245424461033e-03,-1.525244333197680983e-02,1.764981919506026023e-02,4.202166724384859969e-02,5.235171899877018309e-02,-8.384585665096661727e-03,5.290605309804263801e-02,-3.274319356496527972e-02,4.604466700284923220e-02,1.067311058513426177e-02,3.785628602778007279e-02,1.245258343809877571e-02,-2.839092597463700740e-02,1.259844217210502604e-03,-6.825237966348152163e-03,4.922181700440939056e-03,1.333577849134566680e-02,1.665847052646986584e-02,2.337836122276394646e-02,5.152879095543308474e-02,6.462767820801405827e-02,8.582064324382915332e-02,8.302907314638605096e-02,5.813606450780678392e-02,1.095237212295384621e-01,3.077647658995377733e-02,9.637451599530461044e-02,1.044019354238049785e-01,4.832288452444244431e-02,2.974549499416687115e-02,1.920578321653052326e-02,-3.384732484514361289e-02,2.852971933790418926e-02,1.308760319566393965e-02,4.865071463318204614e-02,4.128432836493795000e-02,1.702124420704099984e-03,3.326164226351644576e-02,-1.949973092506257499e-02,-5.660830175308870227e-03,-3.714239008569260314e-02,-4.288150818603619907e-03,1.814143150585063868e-02,-6.518300315728961514e-04,-1.347214816865933452e-02,-4.827561094498291315e-03,6.051311902228863338e-02,6.516243836591657790e-02,-2.561597891325812729e-04,-2.639175551987362617e-02,4.466973569886885029e-03,1.046158109059105654e-02,1.862766408428295772e-02,5.604684901403574060e-02,-3.226380897462748087e-02,3.253981403090470265e-02,-9.377289559442027883e-03,1.646219852241962919e-02,5.361936274123817181e-02,3.819286900176772914e-02,3.426020160667362507e-02,4.912093889612154096e-02,1.614552122036357409e-02,8.099645388553511349e-03,-3.519843522348969217e-02,4.443193611528366282e-02,2.887823200118599942e-03,1.116344291339327333e-02,2.600129762229906605e-02,1.485394669653586353e-02,-3.928052618304031518e-02,-2.075557883137566645e-02,4.127171898262058103e-02,-3.816659735395765835e-02,1.503527966531482182e-03,1.833084317345222772e-02,9.207799307678348963e-03,1.894054706806184638e-02,1.827376414255061504e-02,3.193866996810315606e-02,-1.542945495616244653e-02,-3.925105839051684642e-02,-2.334151748176630913e-03,4.527797379172775888e-02,9.175365051623899162e-03,-3.024315950246786455e-02,-1.436929205015450087e-02,2.061867475977587766e-02,-3.471276509146025563e-02,7.996771726423976268e-03,-2.429060525124816794e-02,3.521903631825695768e-02,-3.840296837868803492e-02,-2.365889779989809386e-02,-3.302792823026820535e-02,2.669173510587340148e-03,6.813922696501592546e-03, 1.647702686614225809e-01,-1.262827340651937608e-02,1.379868897547682771e-02,3.074666448875221225e-02,3.599223930081461853e-03,-1.704890922574225920e-02,-4.135249753041315979e-02,3.832159962015813104e-02,2.152356501478226714e-02,-3.659493618293727796e-02,4.873082480780265013e-02,4.963207392958290942e-02,3.148985230190734508e-03,-3.765380805399668601e-02,2.558748029965032811e-02,2.767931007236777707e-02,1.084665084569366028e-02,-3.538017814499208602e-02,4.011394377555040081e-02,-3.309826389017174464e-02,1.145879967690133228e-02,2.883417923146501527e-02,-1.879878509985484503e-02,-4.799689814645324848e-02,-1.446170221122711208e-02,4.210417490155651810e-02,2.781572379162361441e-02,3.370676348108125886e-02,2.384974327343272749e-02,4.274880105354815496e-02,-2.813220894396510977e-02,-1.310267569617790118e-02,1.189462227160401758e-02,1.231183919716218739e-02,1.641837765755113643e-02,2.089654428605883241e-02,3.995066069443761747e-02,1.203452263446920523e-02,-7.878028843193031483e-03,1.757100115329799511e-02,-3.546964754143779042e-02,-4.484020787644371620e-03,-4.480347515011362525e-02,2.537997609517790923e-02,8.253853712023922692e-03,-3.843361090725012225e-02,-3.124507085395646089e-02,3.549478524263469797e-02,1.934087170069725969e-02,-4.717664218504746126e-02,4.484755560957055798e-02,-1.152555171203169943e-02,1.962207933875362298e-02,-8.008113163870955731e-06,-2.217591286803877182e-03,-3.771516823023356862e-02,1.562601762544815753e-03,-3.084656229580186315e-02,3.221446587418547169e-02,-6.385417025892757559e-03,-9.096713537827851026e-03,4.465734583239483468e-02,-1.247579216674320202e-02,-2.815205262784225074e-02,-4.316214083127328793e-02,-2.682979727929524216e-03,-2.633617423607886865e-02,2.254419177906346466e-02,-2.782238309003491009e-03,-6.481535706419033586e-03,-3.535731502652505326e-02,7.813015818979304056e-03,-1.078349739352815924e-02,-4.616202335292161202e-02,-2.845505548590812270e-02,-4.280620040386896169e-02,-4.349858107669245938e-02,1.599201578702108550e-02,2.465663259615970531e-03,2.616044604053210584e-02,4.372423839255147604e-02,-3.059405510080085572e-02,5.895044882278085985e-03,3.325946558657738583e-02,-4.303428816184608208e-02,9.837100273426560570e-03,-3.678615127987137912e-03,-2.986587321743333634e-02,-3.833626311741411552e-02,3.424065590655038516e-02,3.338229475318432726e-02,-3.322806320158608329e-02,-1.990704153237780188e-02,9.300956301405207197e-03,2.702388656653145760e-02,-2.686037308553315336e-02,-5.766444275020213978e-02,1.688840697011782105e-02,-2.239913939523053427e-02,-5.730928832746932933e-02,-2.347687305566115504e-02,6.851245448353564726e-04,-8.880381480475653400e-02,-7.684172930991203798e-02,-4.666074147381966963e-02,4.523755803121951719e-03,-6.253612740555468397e-02,2.120784233320212320e-02,-2.752313570491140421e-02,-4.999794493212778024e-02,2.442239745991910127e-02,-1.737384966118332014e-02,-7.964515164663420188e-03,2.508998025540694343e-02,-6.125251997152726668e-03,1.344255499176201518e-02,2.880427275860922287e-02,2.962947839821303275e-02,1.204479879982941169e-02,8.232857050061281184e-03,2.102089385306817396e-02,3.117058766638033246e-02,-2.366974058244883036e-02,-4.531400242308633586e-02,-7.395833437303817037e-02,-1.052470706214387319e-01,-1.168239574859937652e-01,-1.344233456518990066e-01,-1.429709441939246428e-01,-1.390295582134824515e-01,-1.504693304108937757e-01,-1.025962213241936316e-01,-1.223055105717318347e-01,-9.088998943488953153e-02,7.436799948028173339e-03,2.953766924100946142e-02,4.141222242898081468e-02,4.786267740921731212e-02,-3.324958460730281784e-02,-1.836126131701609071e-02,-3.559332023275466744e-02,-4.911296320868825671e-02,2.439125313605899903e-02,-4.107598637101165379e-02,4.665068750862618602e-02,-8.124529259911840440e-03,-2.684939150775564332e-02,-1.123809917863464319e-02,-7.065729503079135054e-02,2.354106683166153069e-02,1.644983698757365373e-03,-6.678531018099839733e-02,-1.264370536861469663e-01,-1.080733431849453807e-01,-1.196841003126092318e-01,-1.312279548191135625e-01,-2.091017615204726066e-01,-1.926741433169467110e-01,-1.919814156424742846e-01,-2.130756227616352472e-01,-1.472830205715313645e-01,-1.385601868292184735e-01,-6.805961679208062665e-02,6.440094200218220155e-02,-1.526285682055209675e-02,-2.147698877714649540e-02,3.832273009900267341e-02,2.205464812715779085e-02,4.024644912340136216e-02,2.504474745689706794e-02,2.377527700933605714e-02,4.715365048172463769e-02,-5.182187340606799267e-03,1.880942976752895263e-02,3.135185607690118680e-03,-7.545146050877495070e-02,-9.905580540014001512e-02,-2.805215273330077808e-02,-8.227252381926324076e-02,-1.112292964137542861e-01,-1.307126942560753180e-01,-1.324498655436207872e-01,-1.316886761545676410e-01,-9.019621764583145296e-02,-1.274584309915332003e-01,-1.962334982488269930e-01,-1.182179820695354600e-01,-1.746750908749010178e-01,-1.713182115772395042e-01,-1.121913550514241215e-01,-9.090577146064400538e-02,3.575319381857896411e-02,8.734822038833446600e-03,-1.583885262764847188e-02,2.352235414337258690e-02,-5.712250217322314277e-02,3.178626588312749579e-02,6.433823394179395694e-03,-1.314309896642924802e-02,2.671852136013901438e-02,2.634951804012058627e-02,-3.825976726858979632e-02,-2.301727435270446015e-02,-6.206892494584162479e-02,8.145082068761699129e-03,-7.300698343948368481e-03,-1.142461026468977181e-01,-8.576711360148460417e-02,-1.145988165360827399e-01,-8.325198137019682032e-02,7.059948744813955221e-03,4.934215197316823079e-03,-2.054900236088712251e-02,1.425907403591416232e-02,-2.600345913230536418e-02,-1.264732848028495872e-02,-4.257793053418190005e-02,-7.171838307532710233e-02,-1.028320901770641560e-01,-8.210922699470928066e-02,-1.021527362294152690e-02,3.975798560115705038e-02,-4.943422235019476196e-02,-9.826184543472475316e-03,1.674706747766466913e-02,2.129973974038572304e-02,6.567660626762027165e-03,-2.413464838808697833e-04,-2.990141258903566621e-02,-5.224015073617561261e-02,-6.632225131913128957e-02,-2.451967889491852085e-02,8.079641329332352961e-02,6.158593726393737228e-03,-6.898976302532507099e-02,-1.258023916638719431e-01,-1.067288497648101984e-02,3.979903678089491414e-02,9.321066951482899487e-02,2.130252307471716330e-02,5.189664535865173844e-02,8.294896832130924103e-02,5.979281024600795191e-02,6.040765500412444838e-02,5.383652610657717330e-02,1.876249876536930164e-02,-2.844782268045212628e-02,-1.813337144413906116e-02,-5.014064526440659836e-02,-4.667185142771018008e-02,-6.023413459868745545e-02,-3.737733609721686362e-02,1.796454492041348050e-02,-1.665897581438609276e-02,2.956719068536792228e-02,-2.500180249398304549e-02,-1.291486336351947185e-02,3.049144976959653527e-03,2.508037098556660863e-02,-2.552711809914572430e-02,-2.134065638769767209e-02,-7.007149947378030208e-02,-3.446694618265493115e-02,-9.674904836937449348e-02,3.124537848167276838e-02,1.312938401677364586e-01,8.592892332642861064e-02,1.777343194355411951e-02,9.373050621467091115e-02,7.136640491712709089e-02,1.157426242780858761e-01,7.851167236052483678e-02,5.126264331874455515e-02,-3.058536382743309856e-02,-2.959057651727643387e-02,-2.953028704045989120e-02,-1.364596897104581874e-01,-5.191668224560244509e-03,-3.264923368588928954e-02,1.935692688536828215e-02,7.623589985614534492e-04,1.035493153941229039e-02,4.097605653436159345e-02,-4.090159523253406038e-02,3.581887194586098194e-02,3.638025804653696738e-02,6.061362653728316618e-02,3.811873458762589373e-02,1.050399879701181989e-02,6.317153665602716350e-02,1.691639446864964466e-02,1.072166623322815537e-01,1.935469146394138418e-01,9.765392074211065587e-02,2.161725202322505382e-02,-1.911097261608457609e-02,-7.878365542468566615e-03,7.137134457254587505e-02,1.493872617252191282e-01,1.040548966040843321e-01,1.209784589836440521e-01,6.845969591535273902e-02,-5.709043386870648815e-03,-6.879675840394838815e-02,-9.551023933959069956e-02,-4.776854007290901732e-02,-2.763370706355332621e-02,3.954810843288970174e-02,4.528589185639377013e-02,-1.704601873158214514e-02,1.478233048638560865e-02,-3.855028822461811083e-02,-1.542050830816642931e-02,4.506841482365561702e-02,7.828495836464166580e-02,1.040860350398585196e-02,4.915053139468115312e-02,9.118576696667411718e-02,1.660166346804762272e-01,1.048128584386570500e-01,7.556195352468260407e-02,2.062093208591261537e-02,-8.910753730050643973e-02,-8.044160785788669055e-02,-4.585423867807854152e-03,9.916283410730145076e-02,1.194512542203351735e-01,1.344139713113594869e-01,9.884818373171276595e-02,1.124164841097601286e-01,1.113657575926775556e-01,-1.557292416268720586e-02,-2.138317522427813158e-02,-4.573224253347152324e-02,1.477231049105680490e-02,1.621449518219110833e-02,3.231342794568364818e-02,-2.903745433299496220e-02,-9.644457976644947583e-03,-3.645760971471778689e-02,-3.143433638712336137e-02,4.364657920306592997e-02,6.146866991379527911e-03,9.893879792981045973e-02,1.473363352872469334e-01,1.502367062052888391e-01,1.197109279476269855e-01,1.335520529912440912e-01,6.709549684570277617e-02,-6.982520559945974703e-02,-1.628589443543949633e-01,-4.803713842232516101e-02,-1.665118279557736142e-02,1.167746124993936097e-01,1.228120563967868006e-01,9.673512042986395776e-02,8.845642288030473865e-02,7.040399502293423484e-02,-2.812598572450573844e-03,-3.180977745035203086e-02,-3.931737323254232835e-02,-7.290215382835169011e-02,-1.710400054754376148e-02,4.207565812247537201e-02,-1.161805000325266679e-02,-1.509040567998650578e-02,2.273711453184026898e-02,3.225099944424499737e-02,1.991322045215105849e-02,8.412330458324689120e-02,4.293353758691895172e-02,7.507728171837681208e-02,8.456300421578177851e-02,2.006819164725248683e-01,1.607788339206881467e-01,1.048665392453024120e-01,-2.035114401988978583e-02,-1.223421693578753550e-01,-2.012170706457306057e-01,-1.212598217000293854e-01,4.414561839669125382e-02,1.486756725684514335e-01,1.720749272477367087e-01,1.387010404583242373e-01,9.848349845456359775e-02,-2.028214117067071373e-02,-3.615581076945769551e-02,-5.164472498910411061e-03,-4.109862071757383606e-02,-4.964550912568739538e-02,1.260485354807640637e-02,-1.286798554664966843e-02,-4.149039587845203270e-03,-4.395920439257547385e-02,2.569691875380857027e-02,4.503562179749585892e-03,2.275515202389138958e-04,8.597109819711777623e-02,4.768470650669053013e-02,1.244553471080438005e-02,8.543457976576472601e-02,1.416359820207211684e-01,6.019905245900497581e-02,-3.719629799676881649e-02,-1.215447978100416687e-01,-1.420502989782255476e-01,-4.295169107773726819e-02,-6.226969867800306868e-02,3.383226982472310046e-02,2.088900935601358810e-01,2.219576037485880005e-01,1.089588400424289644e-01,-1.963136053153581671e-03,4.755683142428700910e-02,-8.531920754212638652e-03,-5.787817410550238906e-02,-1.900122822612809541e-04,-4.993093389172441332e-02,-5.352058439885592177e-03,2.042295745872372767e-02,2.365063980691757550e-02,1.866140684144791673e-02,2.199083249278037389e-02,-3.730199070857096594e-02,6.366233390729355776e-03,5.526055855129959234e-03,6.914096664150601312e-02,-8.784354855340199136e-03,5.689542410047727927e-02,7.090367865982750983e-02,-1.700544635147125533e-02,-3.286343732862991723e-02,-6.038875013386692941e-02,-4.848531240319057384e-02,1.838940564004090325e-02,-1.914818011555635344e-02,1.251802825830068411e-01,1.856019402966671006e-01,2.713613293626803147e-01,1.011482256958985138e-01,-9.452933447075552095e-03,-4.629033925933273563e-02,-6.647992575456312947e-03,-8.331341045228567556e-04,-7.695331117941149601e-02,-8.635381647149023739e-04,-4.891370855274925628e-02,1.324227589938601832e-02,9.955732077227372190e-03,1.598165039999449588e-02,3.616100562018152720e-02,-8.745452178960052420e-03,5.493255481284858160e-03,8.192023794348102239e-02,-3.237243331319084039e-02,-3.765727132312304826e-02,1.904558540329168853e-02,-1.022295913930014975e-02,2.538486142689089925e-02,2.641525736039223964e-03,-2.681087456425158486e-02,-3.170046086219901332e-02,4.999813266398736578e-02,6.122043235460962463e-02,1.687713096463090146e-01,1.419086433975973727e-01,1.819116782902606144e-01,7.799791130136918271e-02,-2.319757485208093911e-02,-1.209562422723913233e-01,-8.775980871203424571e-02,-8.257606384235807728e-02,-4.541967413040104429e-02,6.480055640644671183e-03,-2.386089575749230848e-02,-4.552773604929154921e-02,-2.702539176321520215e-02,-4.027639378207379522e-02,-4.334299487742494794e-02,-2.046314624951219366e-02,-2.714732579138802795e-02,-3.851417096807571022e-02,-6.006769193978602622e-02,-4.112807465280317321e-02,-5.471964509534487514e-02,-3.516440899373982770e-02,-3.063754828020843340e-02,-1.003707002164329204e-01,-7.682572372629177006e-03,4.579508468962952689e-02,1.878605095880154230e-01,2.066885569701610303e-01,1.382123862235010714e-01,8.295586156348262741e-02,5.164811729062272760e-02,-3.989698087688995504e-02,-9.260517209348365086e-02,-1.443582609087291357e-01,-1.316477332221406837e-01,-1.247602776432320815e-01,-3.771450918750084841e-02,-7.179657091730086427e-02,1.246004969136518294e-02,3.297475628729239217e-02,2.915757288154276206e-03,1.387745441048421347e-02,-2.351544981416255065e-02,6.748948721769880248e-03,5.810438732398653938e-02,-3.355746867919788545e-02,-1.238368947675699550e-01,-1.105542789160199185e-01,-1.629898108956219227e-01,-1.751483978440671885e-01,-1.257917008755881638e-01,-1.776948574658808455e-01,-1.126501532470025324e-01,-3.817414505000449321e-03,8.590169075183491654e-02,1.379663309253625902e-01,7.540687847371538299e-02,-1.887877236997956287e-02,-7.758246824290077059e-02,-1.747312312570035719e-01,-1.449458551056176936e-01,-1.748371610380814178e-01,-8.003581087282099493e-02,-1.365978558296955803e-01,-6.146400556276174904e-02,-2.947665772414177765e-02,3.911552406057418330e-02,4.585776936116685298e-02,3.642455931017465898e-02,-1.670450304102564371e-02,-4.060216192110512046e-02,-2.640885047696196405e-02,-3.702302386765132791e-02,-7.030648612288294130e-02,-9.628782714706382584e-02,-2.192283288952324161e-01,-1.519036758419849142e-01,-2.522215634878939294e-01,-3.020868513726261417e-01,-1.760589249786558286e-01,-1.770922723235547891e-01,-1.462800087580817254e-01,-5.059371692389320885e-02,-5.089574885366251328e-02,-3.847527718778511602e-02,-6.257809972750251470e-02,-6.627025797323955747e-02,-1.051725282893634927e-01,-8.558908696092872026e-02,-4.852839840539256017e-02,-5.417561833204848770e-02,-2.878963049185436635e-02,1.063104351818103428e-02,-1.677614225479060264e-02,-1.851230817902648623e-02,2.126720545729583745e-02,2.752049908401428546e-02,-1.329087464705058091e-02,-2.043531534283238305e-02,-1.793299230181470694e-02,7.143331562761890850e-04,-4.509224594470046150e-03,-5.866736988646682749e-02,-1.244132211866979948e-01,-1.299716028723895966e-01,-2.348229543504027073e-01,-2.607374772702769627e-01,-1.930983127084518192e-01,-2.092377076688954340e-01,-1.234754857615532053e-01,-1.542038859672415219e-01,-7.680242757214010563e-02,-1.382353265149675048e-01,-1.960964310481573547e-01,-1.608839304072990639e-01,-1.722110651961336614e-01,-6.610888702787862115e-02,-5.091876545593841674e-02,6.656744523491639823e-03,-5.551373857206449297e-02,-5.139026483750461227e-02,2.057640121780668352e-02,2.022344046526395461e-02,3.255498108051745748e-02,-2.425530138746168074e-02,-1.929452789111663069e-03,2.070252910240337474e-02,-1.659465955120306355e-02,-5.384985816473321363e-02,-1.668126331242433119e-02,-7.966929821833852732e-02,-7.724871603378877238e-02,-1.139787416177735213e-01,-2.175758994939518409e-01,-1.994733550970034242e-01,-1.794229111657288100e-01,-1.341134320362589727e-01,-1.525668215597297817e-01,-1.551170351237195211e-01,-1.060979899223617878e-01,-1.108254982271642125e-01,-1.916720074906395899e-01,-1.111965589105052693e-01,-1.055946022432958098e-01,-9.582163526881641580e-02,-5.509039059288722839e-02,-4.808419169141935762e-02,-6.531269877920965750e-02,-2.180532826568467100e-02,-2.678655214208106039e-02,3.822399685284685877e-02,4.280789374322385710e-02,9.425087901520988465e-03,-3.300928226452513187e-02,1.710269584828766343e-02,4.897398705231940409e-03,-4.189762394042606530e-02,-6.305283069208354740e-02,-9.936127279169086612e-02,-6.807402821578470431e-02,-7.784762316611397448e-02,-8.322762032743456773e-02,-1.252360782458236954e-01,-1.521696050035735992e-01,-4.236494536821336365e-02,-1.351789333571155882e-01,-9.126100970310575822e-02,-5.114863152955930609e-02,-1.327091509235558409e-01,-9.335517858502465072e-02,-2.331827862622569154e-03,3.813352586884857873e-03,7.017119764039355702e-03,-2.830044980600781440e-02,-5.018990461428541466e-02,-2.703199628495153370e-02,-1.429320965085847418e-02,2.578751723717993740e-03,3.226053818087011322e-03,-1.659431291526400516e-03,-4.686657526258184575e-02,-4.506780947815759719e-02,-4.745104044289347872e-02,-7.982385804350466268e-03,-2.174508504681459120e-02,7.274998647347404599e-04,-5.617317238877075208e-02,1.606428986450067486e-02,-2.204209785660849602e-02,2.390454060067843597e-02,-2.451130352379429431e-02,-6.422330844706460040e-02,-4.551706291253853481e-03,-4.013191958798881243e-02,-4.810008459475992315e-02,-2.780086366834680703e-02,-8.015376545792925189e-02,-4.918232417300257009e-02,-3.352134686122811014e-02,-2.193957217877641475e-02,-2.962953968306640540e-02,7.265904837457155818e-02,-3.330992800403329707e-02,2.966881643693126611e-02,-2.285125805231646295e-02,-5.062616889670254819e-03,3.538729895704476047e-02,-3.287233197436099236e-02,-3.633069401452929809e-02,4.261808851407740406e-02,-2.513601411262910215e-02,3.502751406172813220e-02,-4.974740504402028890e-02,-8.543755631259448979e-02,9.193482319571306266e-03,6.168795395183054864e-02,5.189623849938941602e-02,3.081813237000137484e-02,-2.735949544261334979e-02,1.790744481769169019e-02,4.886788392835387379e-02,6.946564869792889313e-03,9.411995865559271215e-03,1.202589324587419010e-02,-5.371914240593053669e-02,1.539490719803150200e-02,-1.174774453933512611e-02,3.573607438218544263e-02,-2.376356447973312219e-02,-1.040106591406473290e-02,3.596019101388273770e-02,-2.041084135331892521e-02,4.364365043601297310e-03,4.580479513305018430e-02,-1.038625048423719166e-02,-4.856429511966801199e-02,-1.488265999547183638e-02,2.743326743372738463e-02,-4.764400129556817243e-02,1.522175203532150078e-02,-1.279911695530361847e-02,2.898638542847269996e-03,1.124444954018709308e-02,3.756102288243970671e-03,7.356719658972836473e-02,6.185900019190099935e-02,3.084973875804161020e-02,1.215646891499216758e-01,6.125409396958480385e-02,1.119018207076789145e-01,1.160470022542484658e-01,6.914251088659779942e-02,1.058174450686740764e-01,1.190603798704608918e-01,7.371739351325200251e-02,-2.252515242805210038e-02,-3.756042413305701964e-03,-1.592784673103649767e-02,-7.847972878942071837e-03,-2.500046023636770878e-02,2.014874314440291345e-03,-9.542996185966712286e-03,8.285665904804707937e-03,1.820706961630130793e-02,3.323743439497191254e-02,-1.951879726755222089e-03,-3.196873621069885874e-02,-6.150385524213652921e-03,-1.843341072004447967e-02,-3.049543153245745999e-02,5.191120007460939267e-02,3.782260988832414350e-02,-1.819627586811864428e-02,7.949250797443704886e-02,1.513202318032527693e-02,4.419074463604582420e-02,5.182638429652733358e-02,7.240027305777289868e-02,6.215854513358899658e-02,5.990974720398925014e-03,1.606152686770674284e-02,2.249915946936660582e-02,1.665651753796336398e-02,3.825926820267034484e-02,-2.118257395400193616e-02,-1.207728243297980474e-02,-4.519778994010781141e-03,2.483961409578905322e-03,3.207080530298667131e-03,-2.785656921418966370e-03,-1.142706639850765704e-02,3.822594322473338302e-03,-4.531198242092775857e-02,4.330588506209769040e-02,1.271072748852533629e-03,2.092371195723427557e-02,-3.125704756927720485e-02,3.858099617275644044e-02,-3.808858095279458317e-02,-4.339051748629315676e-03,2.889361996436506236e-02,2.535381020814995306e-02,4.073452063731110295e-02,-3.981083124494522174e-02,-2.356799526906009842e-02,-2.339325212522298456e-02,1.065692354834957799e-02,-1.084479201144703323e-02,-3.327766746039552415e-02,4.205457012364120090e-02,4.226773742569676917e-02,-1.052539579437144004e-02,-1.239240607065443360e-02,-4.697216384681110468e-04,-2.798075353852595010e-02,-5.293020413696170046e-03,-4.526554602435254454e-02,4.292662662426154074e-02,-4.874031166173308643e-02,1.741293297343332602e-02,8.052546297830941169e-03, -3.976843094302276449e-01,-1.147512999177876039e-02,-2.406337700387421383e-02,-7.823879969144603708e-01,-8.743145812055841404e-01,-6.630957650319548868e-01,-1.004636064089289960e+00,8.996145198351136740e-02,6.171092307724334036e-01,1.962838355444774807e-01,-3.402472714424700229e-01,-1.133818123906625175e+00,1.599460385078482205e-01,6.875469725782002994e-01,5.610837826514356586e-01,1.402894526252817797e-01,3.872426475960804026e-01,-1.044943228869281260e+00,-6.336505131374906563e-01,2.589889267637348058e-01,-1.010819984093123347e+00, -1.244300283388423273e-01,-1.483327131846504887e+00,-2.551872782394802308e-01,5.965976336689648996e-01,4.332946173277254509e-01,1.169941821946929306e+00,6.650273418882822474e-02,-2.840214502532066310e-01,-1.723775814415923757e-01,-5.284755230025538486e-01,8.325554137537142241e-01,1.535054944070092520e-01,-4.810655739370442441e-01,2.667527681737205669e-01,-2.065171357559102139e-01,-1.100843283074644852e+00,-7.257134173072445071e-02,-9.738749728382754822e-02,6.550037871976561732e-01,-5.592757933332265230e-01,-1.585865945908044583e-01, -4.603803960346212198e-01,2.075505465926504589e-01,9.276340839685526252e-02,3.594475075983482038e-01,-1.622711643063611486e+00,-8.398506418884799096e-01,-1.016623254472569515e-01,-1.512629027319287167e-01,-8.444938263230082898e-01,-3.174545476130814503e-01,9.146809253269277962e-01,-1.956475496316872550e-02,-8.262271536205910705e-01,1.091997346934082902e+00,2.818471022416230674e-03,3.018362230328937579e-01,-6.414181800494807018e-01,3.896457104901308033e-01,-7.951782500549736676e-01,-8.606929853011796583e-01,-5.810651638475347047e-01, -3.371713608693721054e-01,-5.304081011224741175e-03,4.746991046132113534e-01,-7.492729111597775660e-01,4.687639133437881411e-01,-2.238586775482618030e-01,1.244892693199965011e-01,-8.850545605824858830e-01,2.488785172066497464e-01,-5.748301486727147580e-01,-4.792653250576919821e-01,-4.529884275650897241e-02,-1.021812936612715106e+00,4.265630894797747263e-01,-1.877593372476606293e+00,5.284021082293549609e-01,-4.800808937543618038e-01,5.280356129967549439e-01,-4.566472012538573821e-01,2.600076542503951815e-01,-5.858928957339186727e-01, -1.831088701759655268e-01,-2.165024742411928715e-01,3.218311206630436461e-02,-4.829696527523264504e-01,-3.429932116232029538e-01,-5.897071646893014413e-02,-2.413834915183520891e-01,1.952633118760640704e-02,-8.492247816552445094e-01,5.562950575380440910e-01,-4.614129690299376141e-02,4.191116468394129324e-02,-6.065742973846937058e-01,-1.291047933968529016e+00,-2.392880461832403716e-01,1.252797803649919439e+00,-9.391282172890046409e-01,-1.359667720255588463e+00,6.056923952764176056e-01,2.794206174055493541e-01,8.634256544433760450e-01, -2.574520762448250788e-01,-8.383765733475649629e-02,-1.970939946950891197e-01,-5.169220449313590704e-01,9.815844308891719106e-01,-8.783955542423881394e-03,1.504846782882889866e-01,-8.899639737761773084e-01,7.627877882382932961e-02,-4.148237980141991632e-01,-3.907118213090238767e-01,-1.181585127703204785e+00,3.516265335832410299e-01,-7.650942297461433839e-01,-3.025463174016519707e-02,4.029299398068781901e-01,8.332841456105978262e-01,-4.344670601022404544e-01,-8.399616920771621476e-02,-5.074699143441336879e-01,-3.590886577107269551e-01, -2.900861838105271429e-01,1.043869950635902960e-01,-1.133333593376483650e+00,1.003330303875447749e+00,-7.385225306900973230e-01,1.128951624822896793e+00,-5.483754019371060995e-01,-2.175695579226426257e-01,-5.315403205729281044e-01,3.695666765559023348e-02,-6.282684871894088641e-01,-3.782449149217780027e-02,5.621641342019687571e-01,-1.202268112739750761e+00,1.900985628492140311e-01,2.396851029950334000e-01,-1.641243111353519329e-02,1.413919939425075101e-01,-5.014741025955744558e-01,-4.686468769306110782e-01,-7.006334287768966052e-01, -2.650288628088016685e-01,-2.820268356016818467e-01,-8.124867299605750270e-01,-3.185004597748026245e-01,-4.625345023271066336e-01,-7.760550535431856023e-01,-5.454383363984660615e-01,7.647691353982057905e-01,5.077061943381607767e-01,-1.001108065445561746e+00,-4.134455432303065781e-01,-1.959838986409102868e-01,1.877025949123741974e-02,8.359899823237222360e-01,-6.975268792653431804e-01,-1.058441137211395766e+00,-4.025502564207980027e-01,7.592857539641972853e-02,1.227076621080731123e+00,7.818684925331910451e-02,7.264956003817235608e-01, -4.696162331995399342e-01,1.117243396205459538e-01,1.606240832450329670e-01,-8.274738227924917089e-01,2.453200619072492816e-01,-1.138801706281827419e+00,3.759978363565539827e-01,-2.566880929930311361e-01,-1.901648605315602314e-01,5.665743614423675023e-01,-1.846426439093472871e-01,3.299291910365668157e-01,-9.078921775444031006e-01,-1.020064505158706725e+00,6.340423930842056244e-01,-1.367055841470760535e+00,3.538432150053016367e-01,1.028215720239734066e-01,-5.523145718373575486e-01,-1.017902643934468943e+00,-7.588646666321909873e-01, -2.761963362935904165e-01,-4.435329411779944109e-01,3.721612337682573407e-02,-1.315130528739491822e-01,4.107754231132921263e-01,-5.738827618286228560e-01,4.702324019328056326e-01,-1.790731171376397646e-01,-8.597964769389868644e-01,-4.787336523423420531e-01,-5.124496975119329223e-01,-2.899376164410632367e-02,7.567389462009206369e-01,-1.014185580682025023e+00,1.834172875819754800e-02,-1.129364740725294247e+00,-7.811698406569557163e-01,1.250292213821184439e-01,-1.056054987924148314e+00,4.972734049062872974e-01,1.056546111778559727e+00
